{
  "version": "1.0",
  "truncation": {
    "direction": "Right",
    "max_length": 36,
    "strategy": "LongestFirst",
    "stride": 0
  },
  "padding": {
    "strategy": {
      "Fixed": 36
    },
    "direction": "Right",
    "pad_to_multiple_of": null,
    "pad_id": 0,
    "pad_type_id": 0,
    "pad_token": "[PAD]"
  },
  "added_tokens": [
    {
      "id": 0,
      "content": "[PAD]",
      "single_word": false,
      "lstrip": false,
      "rstrip": false,
      "normalized": false,
      "special": true
    },
    {
      "id": 10,
      "content": "[UNK]",
      "single_word": false,
      "lstrip": false,
      "rstrip": false,
      "normalized": false,
      "special": true
    },
    {
      "id": 11,
      "content": "[CLS]",
      "single_word": false,
      "lstrip": false,
      "rstrip": false,
      "normalized": false,
      "special": true
    },
    {
      "id": 12,
      "content": "[SEP]",
      "single_word": false,
      "lstrip": false,
      "rstrip": false,
      "normalized": false,
      "special": true
    },
    {
      "id": 13,
      "content": "[MASK]",
      "single_word": false,
      "lstrip": false,
      "rstrip": false,
      "normalized": false,
      "special": true
    }
  ],
  "normalizer": {
    "type": "BertNormalizer",
    "clean_text": true,
    "handle_chinese_chars": true,
    "strip_accents": null,
    "lowercase": false
  },
  "pre_tokenizer": {
    "type": "BertPreTokenizer"
  },
  "post_processor": {
    "type": "TemplateProcessing",
    "single": [
      {
        "SpecialToken": {
          "id": "[CLS]",
          "type_id": 0
        }
      },
      {
        "Sequence": {
          "id": "A",
          "type_id": 0
        }
      },
      {
        "SpecialToken": {
          "id": "[SEP]",
          "type_id": 0
        }
      }
    ],
    "pair": [
      {
        "SpecialToken": {
          "id": "[CLS]",
          "type_id": 0
        }
      },
      {
        "Sequence": {
          "id": "A",
          "type_id": 0
        }
      },
      {
        "SpecialToken": {
          "id": "[SEP]",
          "type_id": 0
        }
      },
      {
        "Sequence": {
          "id": "B",
          "type_id": 1
        }
      },
      {
        "SpecialToken": {
          "id": "[SEP]",
          "type_id": 1
        }
      }
    ],
    "special_tokens": {
      "[CLS]": {
        "id": "[CLS]",
        "ids": [
          11
        ],
        "tokens": [
          "[CLS]"
        ]
      },
      "[SEP]": {
        "id": "[SEP]",
        "ids": [
          12
        ],
        "tokens": [
          "[SEP]"
        ]
      }
    }
  },
  "decoder": {
    "type": "WordPiece",
    "prefix": "##",
    "cleanup": true
  },
  "model": {
    "type": "WordPiece",
    "unk_token": "[UNK]",
    "continuing_subword_prefix": "##",
    "max_input_chars_per_word": 100,
    "vocab": {
      "[PAD]": 0,
      "[unused1]": 1,
      "[unused2]": 2,
      "[unused3]": 3,
      "[unused4]": 4,
      "[unused5]": 5,
      "[unused6]": 6,
      "[unused7]": 7,
      "[unused8]": 8,
      "[unused9]": 9,
      "[UNK]": 10,
      "[CLS]": 11,
      "[SEP]": 12,
      "[MASK]": 13,
      "!": 14,
      "\"": 15,
      "#": 16,
      "$": 17,
      "%": 18,
      "&": 19,
      "'": 20,
      "(": 21,
      ")": 22,
      "*": 23,
      "+": 24,
      ",": 25,
      "-": 26,
      ".": 27,
      "/": 28,
      "0": 29,
      "1": 30,
      "2": 31,
      "3": 32,
      "4": 33,
      "5": 34,
      "6": 35,
      "7": 36,
      "8": 37,
      "9": 38,
      ":": 39,
      ";": 40,
      "<": 41,
      "=": 42,
      ">": 43,
      "?": 44,
      "@": 45,
      "A": 46,
      "B": 47,
      "C": 48,
      "D": 49,
      "E": 50,
      "F": 51,
      "G": 52,
      "H": 53,
      "I": 54,
      "J": 55,
      "K": 56,
      "L": 57,
      "M": 58,
      "N": 59,
      "O": 60,
      "P": 61,
      "Q": 62,
      "R": 63,
      "S": 64,
      "T": 65,
      "U": 66,
      "V": 67,
      "W": 68,
      "X": 69,
      "Y": 70,
      "Z": 71,
      "[": 72,
      "\\": 73,
      "]": 74,
      "^": 75,
      "_": 76,
      "a": 77,
      "b": 78,
      "c": 79,
      "d": 80,
      "e": 81,
      "f": 82,
      "g": 83,
      "h": 84,
      "i": 85,
      "j": 86,
      "k": 87,
      "l": 88,
      "m": 89,
      "n": 90,
      "o": 91,
      "p": 92,
      "q": 93,
      "r": 94,
      "s": 95,
      "t": 96,
      "u": 97,
      "v": 98,
      "w": 99,
      "x": 100,
      "y": 101,
      "z": 102,
      "{": 103,
      "|": 104,
      "}": 105,
      "~": 106,
      "£": 107,
      "§": 108,
      "«": 109,
      "°": 110,
      "±": 111,
      "²": 112,
      "·": 113,
      "»": 114,
      "À": 115,
      "Á": 116,
      "Â": 117,
      "Ä": 118,
      "Å": 119,
      "Æ": 120,
      "Ç": 121,
      "È": 122,
      "É": 123,
      "Ê": 124,
      "Í": 125,
      "Ó": 126,
      "Ô": 127,
      "Ö": 128,
      "×": 129,
      "Ø": 130,
      "Ú": 131,
      "Ü": 132,
      "Þ": 133,
      "à": 134,
      "â": 135,
      "æ": 136,
      "ç": 137,
      "è": 138,
      "é": 139,
      "ê": 140,
      "ô": 141,
      "ā": 142,
      "Ć": 143,
      "Č": 144,
      "Đ": 145,
      "İ": 146,
      "Ł": 147,
      "Ō": 148,
      "Œ": 149,
      "œ": 150,
      "Ś": 151,
      "Ş": 152,
      "Š": 153,
      "Ż": 154,
      "Ž": 155,
      "Ș": 156,
      "ˈ": 157,
      "ː": 158,
      "Δ": 159,
      "Κ": 160,
      "Π": 161,
      "α": 162,
      "β": 163,
      "γ": 164,
      "δ": 165,
      "ε": 166,
      "θ": 167,
      "κ": 168,
      "λ": 169,
      "μ": 170,
      "π": 171,
      "σ": 172,
      "τ": 173,
      "φ": 174,
      "В": 175,
      "Г": 176,
      "К": 177,
      "М": 178,
      "Р": 179,
      "С": 180,
      "„": 181,
      "†": 182,
      "•": 183,
      "‰": 184,
      "′": 185,
      "€": 186,
      "ℝ": 187,
      "→": 188,
      "−": 189,
      "中": 190,
      "区": 191,
      "县": 192,
      "大": 193,
      "山": 194,
      "王": 195,
      "de": 196,
      "the": 197,
      "in": 198,
      "##s": 199,
      "of": 200,
      "la": 201,
      "en": 202,
      "and": 203,
      "##e": 204,
      "##a": 205,
      "to": 206,
      "##n": 207,
      "##i": 208,
      "The": 209,
      "der": 210,
      "un": 211,
      "di": 212,
      "que": 213,
      "##t": 214,
      "is": 215,
      "el": 216,
      "se": 217,
      "del": 218,
      "die": 219,
      "##r": 220,
      "und": 221,
      "et": 222,
      "na": 223,
      "##o": 224,
      "was": 225,
      "on": 226,
      "##en": 227,
      "##u": 228,
      "des": 229,
      "den": 230,
      "le": 231,
      "for": 232,
      "da": 233,
      "je": 234,
      "van": 235,
      "as": 236,
      "##m": 237,
      "sa": 238,
      "do": 239,
      "10": 240,
      "an": 241,
      "les": 242,
      "una": 243,
      "il": 244,
      "by": 245,
      "og": 246,
      "##y": 247,
      "2011": 248,
      "La": 249,
      "at": 250,
      "##l": 251,
      "##d": 252,
      "er": 253,
      "al": 254,
      "##er": 255,
      "von": 256,
      "In": 257,
      "du": 258,
      "with": 259,
      "av": 260,
      "##es": 261,
      "med": 262,
      "con": 263,
      "##k": 264,
      "2010": 265,
      "est": 266,
      "per": 267,
      "2000": 268,
      "som": 269,
      "los": 270,
      "por": 271,
      "2012": 272,
      "12": 273,
      "het": 274,
      "from": 275,
      "that": 276,
      "De": 277,
      "no": 278,
      "11": 279,
      "2014": 280,
      "2009": 281,
      "es": 282,
      "20": 283,
      "su": 284,
      "ja": 285,
      "2007": 286,
      "2008": 287,
      "km": 288,
      "##an": 289,
      "2013": 290,
      "15": 291,
      "om": 292,
      "im": 293,
      "com": 294,
      "##ta": 295,
      "2006": 296,
      "dan": 297,
      "##te": 298,
      "18": 299,
      "##na": 300,
      "para": 301,
      "mit": 302,
      "2015": 303,
      "als": 304,
      "El": 305,
      "como": 306,
      "his": 307,
      "ha": 308,
      "##da": 309,
      "##ing": 310,
      "une": 311,
      "24": 312,
      "Den": 313,
      "Die": 314,
      "##h": 315,
      "##ne": 316,
      "##g": 317,
      "das": 318,
      "En": 319,
      "30": 320,
      "##in": 321,
      "##re": 322,
      "14": 323,
      "par": 324,
      "13": 325,
      "16": 326,
      "##us": 327,
      "2005": 328,
      "##de": 329,
      "2016": 330,
      "és": 331,
      "au": 332,
      "25": 333,
      "000": 334,
      "dans": 335,
      "he": 336,
      "che": 337,
      "##on": 338,
      "2004": 339,
      "em": 340,
      "dem": 341,
      "##ch": 342,
      "19": 343,
      "it": 344,
      "2001": 345,
      "17": 346,
      "°C": 347,
      "til": 348,
      "2002": 349,
      "han": 350,
      "##ia": 351,
      "Le": 352,
      "Il": 353,
      "##le": 354,
      "las": 355,
      "della": 356,
      "New": 357,
      "##ra": 358,
      "##is": 359,
      "um": 360,
      "si": 361,
      "2003": 362,
      "21": 363,
      "ist": 364,
      "var": 365,
      "Species": 366,
      "are": 367,
      "2017": 368,
      "op": 369,
      "zu": 370,
      "##z": 371,
      "22": 372,
      "für": 373,
      "##et": 374,
      "##os": 375,
      "od": 376,
      "son": 377,
      "An": 378,
      "26": 379,
      "World": 380,
      "##do": 381,
      "##ja": 382,
      "va": 383,
      "pour": 384,
      "ve": 385,
      "1999": 386,
      "##ti": 387,
      "sur": 388,
      "23": 389,
      "auf": 390,
      "##la": 391,
      "là": 392,
      "##é": 393,
      "II": 394,
      "##ed": 395,
      "Life": 396,
      "war": 397,
      "za": 398,
      "##to": 399,
      "##se": 400,
      "##ni": 401,
      "##no": 402,
      "or": 403,
      "be": 404,
      "28": 405,
      "##c": 406,
      "##ar": 407,
      "qui": 408,
      "He": 409,
      "az": 410,
      "te": 411,
      "##va": 412,
      "1998": 413,
      "27": 414,
      "mm": 415,
      "##nt": 416,
      "##ma": 417,
      "##ka": 418,
      "Catalogue": 419,
      "had": 420,
      "##ng": 421,
      "It": 422,
      "so": 423,
      "##je": 424,
      "29": 425,
      "1996": 426,
      "##li": 427,
      "1997": 428,
      "am": 429,
      "has": 430,
      "km²": 431,
      "dos": 432,
      "ur": 433,
      "##ie": 434,
      "##ri": 435,
      "entre": 436,
      "##as": 437,
      "University": 438,
      "lo": 439,
      "100": 440,
      "##p": 441,
      "31": 442,
      "ni": 443,
      "##al": 444,
      "##j": 445,
      "##ce": 446,
      "1990": 447,
      "John": 448,
      "first": 449,
      "##ca": 450,
      "##ment": 451,
      "os": 452,
      "met": 453,
      "ou": 454,
      "2018": 455,
      "all": 456,
      "1995": 457,
      "##ko": 458,
      "aus": 459,
      "1991": 460,
      "##ó": 461,
      "1994": 462,
      "Der": 463,
      "non": 464,
      "foi": 465,
      "##si": 466,
      "1992": 467,
      "##em": 468,
      "af": 469,
      "har": 470,
      "##ly": 471,
      "ar": 472,
      "##b": 473,
      "film": 474,
      "avec": 475,
      "50": 476,
      "1993": 477,
      "one": 478,
      "##um": 479,
      "##sa": 480,
      "bis": 481,
      "Les": 482,
      "San": 483,
      "##ă": 484,
      "not": 485,
      "but": 486,
      "##v": 487,
      "ir": 488,
      "who": 489,
      "ny": 490,
      "York": 491,
      "##ga": 492,
      "##ς": 493,
      "her": 494,
      "##it": 495,
      "ang": 496,
      "Mexico": 497,
      "over": 498,
      "bei": 499,
      "ser": 500,
      "www": 501,
      "dei": 502,
      "##mi": 503,
      "##ki": 504,
      "alla": 505,
      "po": 506,
      "History": 507,
      "UK": 508,
      "1989": 509,
      "##ge": 510,
      "##at": 511,
      "dat": 512,
      "have": 513,
      "this": 514,
      "40": 515,
      "American": 516,
      "##ba": 517,
      "1980": 518,
      "ed": 519,
      "##í": 520,
      "##ur": 521,
      "este": 522,
      "1988": 523,
      "ya": 524,
      "##ke": 525,
      "parte": 526,
      "ne": 527,
      "http": 528,
      "Ang": 529,
      "amb": 530,
      "bir": 531,
      "##st": 532,
      "plus": 533,
      "ITIS": 534,
      "##ro": 535,
      "Press": 536,
      "##el": 537,
      "##f": 538,
      "On": 539,
      "1986": 540,
      "1987": 541,
      "1985": 542,
      "men": 543,
      "##man": 544,
      "dell": 545,
      "ini": 546,
      "familia": 547,
      "din": 548,
      "1984": 549,
      "##ci": 550,
      "Saint": 551,
      "sua": 552,
      "##ul": 553,
      "##ndo": 554,
      "album": 555,
      "1970": 556,
      "qu": 557,
      "United": 558,
      "ao": 559,
      "##mente": 560,
      "##ve": 561,
      "mais": 562,
      "seu": 563,
      "##ą": 564,
      "Kirk": 565,
      "oli": 566,
      "##me": 567,
      "fra": 568,
      "Reading": 569,
      "Los": 570,
      "Michael": 571,
      "sie": 572,
      "##den": 573,
      "time": 574,
      "##za": 575,
      "##io": 576,
      "Bourgoin": 577,
      "NASA": 578,
      "1982": 579,
      "1983": 580,
      "##ów": 581,
      "Bailly": 582,
      "sont": 583,
      "III": 584,
      "1981": 585,
      "National": 586,
      "No": 587,
      "##á": 588,
      "1975": 589,
      "Det": 590,
      "##or": 591,
      "part": 592,
      "01": 593,
      "1945": 594,
      "dia": 595,
      "Das": 596,
      "1979": 597,
      "##nya": 598,
      "1972": 599,
      "come": 600,
      "##ya": 601,
      "red": 602,
      "##ten": 603,
      "Na": 604,
      "##x": 605,
      "France": 606,
      "sobre": 607,
      "##om": 608,
      "1978": 609,
      "William": 610,
      "tot": 611,
      "1968": 612,
      "1960": 613,
      "##di": 614,
      "1976": 615,
      "##kan": 616,
      "##ek": 617,
      "into": 618,
      "60": 619,
      "##ak": 620,
      "till": 621,
      "##ı": 622,
      "##lo": 623,
      "##ung": 624,
      "ble": 625,
      "06": 626,
      "1977": 627,
      "1974": 628,
      "1973": 629,
      "May": 630,
      "Paris": 631,
      "##2": 632,
      "ka": 633,
      "##S": 634,
      "1971": 635,
      "org": 636,
      "Mer": 637,
      "August": 638,
      "zur": 639,
      "mai": 640,
      "##A": 641,
      "dal": 642,
      "up": 643,
      "ng": 644,
      "This": 645,
      "new": 646,
      "aux": 647,
      "##ny": 648,
      "500": 649,
      "##ho": 650,
      "##1": 651,
      "##ju": 652,
      "sind": 653,
      "1969": 654,
      "Jean": 655,
      "International": 656,
      "Paul": 657,
      "City": 658,
      "##lar": 659,
      "##ji": 660,
      "200": 661,
      "April": 662,
      "att": 663,
      "ce": 664,
      "sin": 665,
      "Im": 666,
      "##go": 667,
      "more": 668,
      "nan": 669,
      "1967": 670,
      "pas": 671,
      "35": 672,
      "David": 673,
      "ei": 674,
      "##ts": 675,
      "US": 676,
      "1950": 677,
      "##co": 678,
      "TV": 679,
      "04": 680,
      "##ler": 681,
      "##à": 682,
      "man": 683,
      "Han": 684,
      "Robert": 685,
      "##tion": 686,
      "ma": 687,
      "1944": 688,
      "45": 689,
      "1962": 690,
      "London": 691,
      "lui": 692,
      "05": 693,
      "80": 694,
      "she": 695,
      "##ir": 696,
      "##ía": 697,
      "delle": 698,
      "St": 699,
      "1965": 700,
      "ad": 701,
      "32": 702,
      "65": 703,
      "été": 704,
      "sus": 705,
      "due": 706,
      "##ku": 707,
      "cu": 708,
      "1964": 709,
      "1966": 710,
      "##C": 711,
      "States": 712,
      "fan": 713,
      "NGC": 714,
      "Het": 715,
      "##ze": 716,
      "##w": 717,
      "1961": 718,
      "##ter": 719,
      "07": 720,
      "ki": 721,
      "1941": 722,
      "As": 723,
      "Al": 724,
      "##3": 725,
      "##ë": 726,
      "County": 727,
      "1940": 728,
      "##ns": 729,
      "1939": 730,
      "##ik": 731,
      "James": 732,
      "##ers": 733,
      "1963": 734,
      "kan": 735,
      "03": 736,
      "##ry": 737,
      "me": 738,
      "Es": 739,
      "Er": 740,
      "##sen": 741,
      "90": 742,
      "##des": 743,
      "##ha": 744,
      "##ção": 745,
      "70": 746,
      "Charles": 747,
      "##ban": 748,
      "##0": 749,
      "pa": 750,
      "ze": 751,
      "##rs": 752,
      "can": 753,
      "1958": 754,
      "out": 755,
      "wie": 756,
      "George": 757,
      "him": 758,
      "Inga": 759,
      "sono": 760,
      "##ę": 761,
      "noten": 762,
      "##ben": 763,
      "juli": 764,
      "alle": 765,
      "##ren": 766,
      "##sta": 767,
      "ses": 768,
      "1956": 769,
      "##rt": 770,
      "about": 771,
      "Peter": 772,
      "1959": 773,
      "02": 774,
      "School": 775,
      "comme": 776,
      "1943": 777,
      "##tu": 778,
      "33": 779,
      "1948": 780,
      "fu": 781,
      "##am": 782,
      "##ou": 783,
      "##4": 784,
      "Earth": 785,
      "##ä": 786,
      "ben": 787,
      "1942": 788,
      "made": 789,
      "##ria": 790,
      "ye": 791,
      "##ov": 792,
      "00": 793,
      "1957": 794,
      "1930": 795,
      "1920": 796,
      "##il": 797,
      "1954": 798,
      "##mo": 799,
      "09": 800,
      "vom": 801,
      "##wa": 802,
      "Un": 803,
      "##jo": 804,
      "forma": 805,
      "##és": 806,
      "##ica": 807,
      "##be": 808,
      "Se": 809,
      "##ion": 810,
      "deux": 811,
      "08": 812,
      "36": 813,
      "South": 814,
      "ta": 815,
      "nie": 816,
      "USA": 817,
      "##ken": 818,
      "1946": 819,
      "You": 820,
      "Maria": 821,
      "##ina": 822,
      "34": 823,
      "final": 824,
      "1955": 825,
      "League": 826,
      "population": 827,
      "##land": 828,
      "1938": 829,
      "##lla": 830,
      "than": 831,
      "nu": 832,
      "1953": 833,
      "##ine": 834,
      "##T": 835,
      "300": 836,
      "IV": 837,
      "1949": 838,
      "Thomas": 839,
      "1918": 840,
      "India": 841,
      "1952": 842,
      "All": 843,
      "State": 844,
      "##un": 845,
      "Oxford": 846,
      "familie": 847,
      "club": 848,
      "1947": 849,
      "##zione": 850,
      "més": 851,
      "elle": 852,
      "Richard": 853,
      "##che": 854,
      "June": 855,
      "team": 856,
      "Az": 857,
      "1936": 858,
      "44": 859,
      "##P": 860,
      "##ner": 861,
      "##ic": 862,
      "care": 863,
      "second": 864,
      "##ł": 865,
      "zen": 866,
      "ca": 867,
      "Nel": 868,
      "##ok": 869,
      "##ig": 870,
      "##th": 871,
      "March": 872,
      "##nu": 873,
      "She": 874,
      "##ada": 875,
      "Santa": 876,
      "##ste": 877,
      "##ut": 878,
      "British": 879,
      "pe": 880,
      "Film": 881,
      "ke": 882,
      "West": 883,
      "data": 884,
      "##5": 885,
      "gli": 886,
      "##án": 887,
      "co": 888,
      "38": 889,
      "1937": 890,
      "born": 891,
      "400": 892,
      "##dos": 893,
      "##ton": 894,
      "##que": 895,
      "place": 896,
      "Berlin": 897,
      "##ty": 898,
      "##tes": 899,
      "1951": 900,
      "pod": 901,
      "##ble": 902,
      "37": 903,
      "##das": 904,
      "cm": 905,
      "##gi": 906,
      "##6": 907,
      "##nen": 908,
      "General": 909,
      "##ní": 910,
      "North": 911,
      "##nte": 912,
      "##ll": 913,
      "doi": 914,
      "##ea": 915,
      "##res": 916,
      "Martin": 917,
      "##ant": 918,
      "Park": 919,
      "##ò": 920,
      "##vo": 921,
      "##ée": 922,
      "##né": 923,
      "1933": 924,
      "Love": 925,
      "##id": 926,
      "hat": 927,
      "ko": 928,
      "##ssa": 929,
      "Po": 930,
      "Society": 931,
      "cho": 932,
      "##E": 933,
      "##ck": 934,
      "tra": 935,
      "pero": 936,
      "##les": 937,
      "##ning": 938,
      "##lle": 939,
      "1935": 940,
      "##ado": 941,
      "##R": 942,
      "##B": 943,
      "##ske": 944,
      "42": 945,
      "War": 946,
      "##gen": 947,
      "##I": 948,
      "##zi": 949,
      "1934": 950,
      "pro": 951,
      "1919": 952,
      "Em": 953,
      "##ot": 954,
      "##ist": 955,
      "64": 956,
      "bij": 957,
      "##nie": 958,
      "##ista": 959,
      "48": 960,
      "After": 961,
      "39": 962,
      "##der": 963,
      "##7": 964,
      "1914": 965,
      "nord": 966,
      "pp": 967,
      "##vi": 968,
      "Europa": 969,
      "Club": 970,
      "Music": 971,
      "radie": 972,
      "Grand": 973,
      "ci": 974,
      "Museum": 975,
      "prima": 976,
      "fait": 977,
      "volt": 978,
      "1932": 979,
      "Louis": 980,
      "##nia": 981,
      "1929": 982,
      "will": 983,
      "total": 984,
      "One": 985,
      "bi": 986,
      "Man": 987,
      "1928": 988,
      "them": 989,
      "ai": 990,
      "##berg": 991,
      "41": 992,
      "dalla": 993,
      "##pe": 994,
      "world": 995,
      "ab": 996,
      "55": 997,
      "##pa": 998,
      "amin": 999,
      "original": 1000,
      "won": 1001,
      "1917": 1002,
      "##L": 1003,
      "43": 1004,
      "ale": 1005,
      "##9": 1006,
      "José": 1007,
      "single": 1008,
      "ont": 1009,
      "Joseph": 1010,
      "commune": 1011,
      "##nde": 1012,
      "1931": 1013,
      "cui": 1014,
      "may": 1015,
      "general": 1016,
      "##tas": 1017,
      "Records": 1018,
      "school": 1019,
      "sous": 1020,
      "solo": 1021,
      "##8": 1022,
      "Art": 1023,
      "For": 1024,
      "##ski": 1025,
      "##O": 1026,
      "base": 1027,
      "##ent": 1028,
      "via": 1029,
      "nom": 1030,
      "47": 1031,
      "1924": 1032,
      "75": 1033,
      "##men": 1034,
      "ex": 1035,
      "people": 1036,
      "gran": 1037,
      "##lu": 1038,
      "local": 1039,
      "mars": 1040,
      "grande": 1041,
      "America": 1042,
      "Lake": 1043,
      "1927": 1044,
      "##ky": 1045,
      "##ger": 1046,
      "##G": 1047,
      "##ão": 1048,
      "##ý": 1049,
      "College": 1050,
      "Union": 1051,
      "Ny": 1052,
      "##du": 1053,
      "1922": 1054,
      "##cia": 1055,
      "1925": 1056,
      "cette": 1057,
      "##ura": 1058,
      "1921": 1059,
      "To": 1060,
      "wa": 1061,
      "1926": 1062,
      "contra": 1063,
      "Van": 1064,
      "##ii": 1065,
      "##sk": 1066,
      "sein": 1067,
      "##ol": 1068,
      "##ón": 1069,
      "##ā": 1070,
      "##ć": 1071,
      "##ska": 1072,
      "##ad": 1073,
      "##D": 1074,
      "nombre": 1075,
      "##nes": 1076,
      "##mento": 1077,
      "bu": 1078,
      "Am": 1079,
      "esta": 1080,
      "Nach": 1081,
      "1912": 1082,
      "System": 1083,
      "Award": 1084,
      "King": 1085,
      "anni": 1086,
      "##M": 1087,
      "Las": 1088,
      "bat": 1089,
      "hi": 1090,
      "1923": 1091,
      "partir": 1092,
      "51": 1093,
      "52": 1094,
      "Nacional": 1095,
      "##tt": 1096,
      "46": 1097,
      "FC": 1098,
      "##by": 1099,
      "sem": 1100,
      "##lt": 1101,
      "##nd": 1102,
      "##N": 1103,
      "ay": 1104,
      "##ien": 1105,
      "##ai": 1106,
      "Elle": 1107,
      "Cup": 1108,
      "House": 1109,
      "sig": 1110,
      "Italia": 1111,
      "same": 1112,
      "##F": 1113,
      "aber": 1114,
      "1900": 1115,
      "band": 1116,
      "end": 1117,
      "nos": 1118,
      "River": 1119,
      "49": 1120,
      "Sie": 1121,
      "city": 1122,
      "1910": 1123,
      "Washington": 1124,
      "##ach": 1125,
      "Me": 1126,
      "My": 1127,
      "##are": 1128,
      "China": 1129,
      "même": 1130,
      "Tour": 1131,
      "Royal": 1132,
      "His": 1133,
      "four": 1134,
      "##son": 1135,
      "ing": 1136,
      "Henry": 1137,
      "ile": 1138,
      "##ert": 1139,
      "1913": 1140,
      "village": 1141,
      "##len": 1142,
      "Pierre": 1143,
      "Dr": 1144,
      "li": 1145,
      "English": 1146,
      "tre": 1147,
      "vid": 1148,
      "##ron": 1149,
      "California": 1150,
      "##ita": 1151,
      "##ies": 1152,
      "##ire": 1153,
      "56": 1154,
      "##ian": 1155,
      "##ana": 1156,
      "nome": 1157,
      "Canada": 1158,
      "##ě": 1159,
      "##ú": 1160,
      "re": 1161,
      "##cht": 1162,
      "Red": 1163,
      "##he": 1164,
      "était": 1165,
      "##bi": 1166,
      "CD": 1167,
      "IC": 1168,
      "principal": 1169,
      "54": 1170,
      "sud": 1171,
      "game": 1172,
      "degli": 1173,
      "##lich": 1174,
      "##so": 1175,
      "anno": 1176,
      "##ische": 1177,
      "Smith": 1178,
      "version": 1179,
      "##ks": 1180,
      "après": 1181,
      "##ud": 1182,
      "##ru": 1183,
      "tres": 1184,
      "1915": 1185,
      "public": 1186,
      "être": 1187,
      "Juan": 1188,
      "dit": 1189,
      "long": 1190,
      "They": 1191,
      "Cambridge": 1192,
      "At": 1193,
      "England": 1194,
      "##q": 1195,
      "Air": 1196,
      "##au": 1197,
      "##ier": 1198,
      "##cy": 1199,
      "##mu": 1200,
      "Center": 1201,
      "BBC": 1202,
      "There": 1203,
      "##ida": 1204,
      "Madrid": 1205,
      "Australia": 1206,
      "Best": 1207,
      "sau": 1208,
      "##K": 1209,
      "ut": 1210,
      "1911": 1211,
      "Company": 1212,
      "Don": 1213,
      "Si": 1214,
      "ville": 1215,
      "ans": 1216,
      "##ls": 1217,
      "Black": 1218,
      "Association": 1219,
      "53": 1220,
      "Christian": 1221,
      "dont": 1222,
      "##im": 1223,
      "use": 1224,
      "84": 1225,
      "Hall": 1226,
      "150": 1227,
      "Europe": 1228,
      "Hans": 1229,
      "ten": 1230,
      "Festival": 1231,
      "land": 1232,
      "former": 1233,
      "##ini": 1234,
      "##V": 1235,
      "UTC": 1236,
      "##han": 1237,
      "cada": 1238,
      "go": 1239,
      "Mai": 1240,
      "1916": 1241,
      "system": 1242,
      "##bo": 1243,
      "Do": 1244,
      "Daniel": 1245,
      "pela": 1246,
      "Roma": 1247,
      "group": 1248,
      "600": 1249,
      "Francisco": 1250,
      "##nin": 1251,
      "wat": 1252,
      "Jan": 1253,
      "leur": 1254,
      "##ation": 1255,
      "1905": 1256,
      "##tor": 1257,
      "où": 1258,
      "home": 1259,
      "57": 1260,
      "Da": 1261,
      "1908": 1262,
      "##dae": 1263,
      "58": 1264,
      "station": 1265,
      "fin": 1266,
      "##ius": 1267,
      "East": 1268,
      "Marie": 1269,
      "Star": 1270,
      "augusti": 1271,
      "music": 1272,
      "post": 1273,
      "national": 1274,
      "high": 1275,
      "set": 1276,
      "Island": 1277,
      "##dor": 1278,
      "like": 1279,
      "1907": 1280,
      "##ux": 1281,
      "mas": 1282,
      "##vat": 1283,
      "ra": 1284,
      "##nda": 1285,
      "Karl": 1286,
      "##lik": 1287,
      "##idae": 1288,
      "59": 1289,
      "fut": 1290,
      "Frank": 1291,
      "Antonio": 1292,
      "##iu": 1293,
      "Stadt": 1294,
      "##ker": 1295,
      "Central": 1296,
      "##ė": 1297,
      "ga": 1298,
      "##ang": 1299,
      "Japan": 1300,
      "French": 1301,
      "kg": 1302,
      "XIX": 1303,
      "show": 1304,
      "off": 1305,
      "800": 1306,
      "pelo": 1307,
      "##ige": 1308,
      "##ua": 1309,
      "##chen": 1310,
      "##ico": 1311,
      "##ted": 1312,
      "premier": 1313,
      "European": 1314,
      "ban": 1315,
      "Bu": 1316,
      "##ice": 1317,
      "Open": 1318,
      "site": 1319,
      "major": 1320,
      "##hi": 1321,
      "vida": 1322,
      "Band": 1323,
      "Journal": 1324,
      "1906": 1325,
      "Od": 1326,
      "art": 1327,
      "1904": 1328,
      "day": 1329,
      "##ive": 1330,
      "1909": 1331,
      "##ling": 1332,
      "##ity": 1333,
      "##ej": 1334,
      "we": 1335,
      "##ata": 1336,
      "High": 1337,
      "##dir": 1338,
      "District": 1339,
      "Street": 1340,
      "##sti": 1341,
      "Als": 1342,
      "##át": 1343,
      "##gan": 1344,
      "##ven": 1345,
      "Zeit": 1346,
      "95": 1347,
      "novembre": 1348,
      "Per": 1349,
      "Edward": 1350,
      "##zen": 1351,
      "Division": 1352,
      "net": 1353,
      "service": 1354,
      "##ui": 1355,
      "autres": 1356,
      "Population": 1357,
      "Mark": 1358,
      "##ei": 1359,
      "Time": 1360,
      "Land": 1361,
      "aussi": 1362,
      "Nord": 1363,
      "Lee": 1364,
      "##°": 1365,
      "song": 1366,
      "##rio": 1367,
      "back": 1368,
      "##era": 1369,
      "85": 1370,
      "Times": 1371,
      "hans": 1372,
      "##U": 1373,
      "##rd": 1374,
      "German": 1375,
      "##nik": 1376,
      "bien": 1377,
      "Institute": 1378,
      "Is": 1379,
      "sul": 1380,
      "hun": 1381,
      "##ville": 1382,
      "##sch": 1383,
      "120": 1384,
      "Carlos": 1385,
      "Group": 1386,
      "##lan": 1387,
      "depuis": 1388,
      "onde": 1389,
      "##tan": 1390,
      "nad": 1391,
      "##ene": 1392,
      "alors": 1393,
      "Alexander": 1394,
      "Live": 1395,
      "62": 1396,
      "XX": 1397,
      "88": 1398,
      "large": 1399,
      "video": 1400,
      "Modern": 1401,
      "mot": 1402,
      "Radio": 1403,
      "Os": 1404,
      "casa": 1405,
      "age": 1406,
      "##lor": 1407,
      "également": 1408,
      "##zo": 1409,
      "##cie": 1410,
      "##ure": 1411,
      "life": 1412,
      "##ley": 1413,
      "district": 1414,
      "Rio": 1415,
      "##ran": 1416,
      "Barcelona": 1417,
      "São": 1418,
      "production": 1419,
      "line": 1420,
      "72": 1421,
      "meg": 1422,
      "##ere": 1423,
      "##ris": 1424,
      "main": 1425,
      "fr": 1426,
      "First": 1427,
      "##kin": 1428,
      "##tte": 1429,
      "mi": 1430,
      "ali": 1431,
      "Index": 1432,
      "White": 1433,
      "ainsi": 1434,
      "Team": 1435,
      "##ting": 1436,
      "social": 1437,
      "Information": 1438,
      "##dan": 1439,
      "Science": 1440,
      "Una": 1441,
      "##nce": 1442,
      "left": 1443,
      "siècle": 1444,
      "##ně": 1445,
      "Rock": 1446,
      "Data": 1447,
      "Op": 1448,
      "ordo": 1449,
      "série": 1450,
      "did": 1451,
      "1903": 1452,
      "Mary": 1453,
      "##bu": 1454,
      "première": 1455,
      "82": 1456,
      "capital": 1457,
      "1000": 1458,
      "99": 1459,
      "form": 1460,
      "habitants": 1461,
      "##tta": 1462,
      "Friedrich": 1463,
      "##té": 1464,
      "Ein": 1465,
      "fa": 1466,
      "##ber": 1467,
      "250": 1468,
      "66": 1469,
      "News": 1470,
      "From": 1471,
      "##ale": 1472,
      "86": 1473,
      "Carl": 1474,
      "lan": 1475,
      "pre": 1476,
      "zona": 1477,
      "Angeles": 1478,
      "##val": 1479,
      "Simon": 1480,
      "tempo": 1481,
      "finale": 1482,
      "kom": 1483,
      "famili": 1484,
      "When": 1485,
      "INSEE": 1486,
      "##ère": 1487,
      "##burg": 1488,
      "rock": 1489,
      "side": 1490,
      "play": 1491,
      "1901": 1492,
      "63": 1493,
      "##ah": 1494,
      "partie": 1495,
      "sy": 1496,
      "VI": 1497,
      "Brasil": 1498,
      "Su": 1499,
      "Von": 1500,
      "banda": 1501,
      "Tom": 1502,
      "##age": 1503,
      "if": 1504,
      "##sche": 1505,
      "##tus": 1506,
      "primo": 1507,
      "Atlas": 1508,
      "water": 1509,
      "##ksi": 1510,
      "Hill": 1511,
      "##ique": 1512,
      "##ła": 1513,
      "bio": 1514,
      "Jones": 1515,
      "##ás": 1516,
      "Anna": 1517,
      "##ano": 1518,
      "1902": 1519,
      "##ido": 1520,
      "96": 1521,
      "1890": 1522,
      "61": 1523,
      "67": 1524,
      "Chicago": 1525,
      "mar": 1526,
      "81": 1527,
      "98": 1528,
      "97": 1529,
      "point": 1530,
      "##ð": 1531,
      "##ros": 1532,
      "Santiago": 1533,
      "##liche": 1534,
      "mort": 1535,
      "List": 1536,
      "Championship": 1537,
      "Jack": 1538,
      "Bureau": 1539,
      "##ino": 1540,
      "##mann": 1541,
      "##cu": 1542,
      "##nek": 1543,
      "##dy": 1544,
      "match": 1545,
      "Awards": 1546,
      "temps": 1547,
      "Roman": 1548,
      "Day": 1549,
      "mu": 1550,
      "top": 1551,
      "Juli": 1552,
      "700": 1553,
      "##ü": 1554,
      "68": 1555,
      "##mer": 1556,
      "etc": 1557,
      "Juni": 1558,
      "pri": 1559,
      "mens": 1560,
      "Real": 1561,
      "##ms": 1562,
      "##ito": 1563,
      "##tet": 1564,
      "Son": 1565,
      "##H": 1566,
      "central": 1567,
      "##inen": 1568,
      "Por": 1569,
      "Sa": 1570,
      "83": 1571,
      "record": 1572,
      "España": 1573,
      "##jen": 1574,
      "Internet": 1575,
      "##ego": 1576,
      "Albert": 1577,
      "Culture": 1578,
      "Marine": 1579,
      "76": 1580,
      "radio": 1581,
      "orang": 1582,
      "provincia": 1583,
      "##ate": 1584,
      "##nje": 1585,
      "##ima": 1586,
      "six": 1587,
      "puis": 1588,
      "important": 1589,
      "##ium": 1590,
      "##ens": 1591,
      "92": 1592,
      "##jos": 1593,
      "PDF": 1594,
      "Texas": 1595,
      "million": 1596,
      "Album": 1597,
      "##ari": 1598,
      "Young": 1599,
      "93": 1600,
      "Big": 1601,
      "program": 1602,
      "football": 1603,
      "What": 1604,
      "1898": 1605,
      "78": 1606,
      "pel": 1607,
      "Williams": 1608,
      "##kt": 1609,
      "Football": 1610,
      "français": 1611,
      "années": 1612,
      "best": 1613,
      "Walter": 1614,
      "##ono": 1615,
      "contre": 1616,
      "71": 1617,
      "Este": 1618,
      "##ő": 1619,
      "bila": 1620,
      "media": 1621,
      "91": 1622,
      "##aan": 1623,
      "##wy": 1624,
      "##ι": 1625,
      "77": 1626,
      "Party": 1627,
      "international": 1628,
      "74": 1629,
      "##lis": 1630,
      "##leri": 1631,
      "lors": 1632,
      "jo": 1633,
      "Indian": 1634,
      "73": 1635,
      "Vol": 1636,
      "##zy": 1637,
      "1897": 1638,
      "1896": 1639,
      "##rat": 1640,
      "##lig": 1641,
      "zo": 1642,
      "vo": 1643,
      "death": 1644,
      "##ver": 1645,
      "DVD": 1646,
      "air": 1647,
      "peut": 1648,
      "1899": 1649,
      "##gt": 1650,
      "69": 1651,
      "##ceae": 1652,
      "vers": 1653,
      "##we": 1654,
      "Academy": 1655,
      "87": 1656,
      "##nja": 1657,
      "##sten": 1658,
      "##gu": 1659,
      "satu": 1660,
      "Great": 1661,
      "Under": 1662,
      "Sant": 1663,
      "importante": 1664,
      "##nis": 1665,
      "1895": 1666,
      "popular": 1667,
      "Lac": 1668,
      "lang": 1669,
      "id": 1670,
      "mis": 1671,
      "Of": 1672,
      "With": 1673,
      "##č": 1674,
      "##ld": 1675,
      "Brown": 1676,
      "##let": 1677,
      "Johann": 1678,
      "##ques": 1679,
      "services": 1680,
      "89": 1681,
      "tym": 1682,
      "Nam": 1683,
      "Werner": 1684,
      "Road": 1685,
      "##ν": 1686,
      "trois": 1687,
      "##ké": 1688,
      "##rum": 1689,
      "Bei": 1690,
      "Wilhelm": 1691,
      "centre": 1692,
      "##X": 1693,
      "##pi": 1694,
      "##ara": 1695,
      "col": 1696,
      "Cerro": 1697,
      "##od": 1698,
      "##ys": 1699,
      "##tti": 1700,
      "Top": 1701,
      "fou": 1702,
      "And": 1703,
      "Church": 1704,
      "Mit": 1705,
      "Night": 1706,
      "##ite": 1707,
      "##pen": 1708,
      "##per": 1709,
      "vol": 1710,
      "##ez": 1711,
      "By": 1712,
      "##og": 1713,
      "ter": 1714,
      "##ato": 1715,
      "1889": 1716,
      "country": 1717,
      "vier": 1718,
      "1880": 1719,
      "##nak": 1720,
      "ia": 1721,
      "##use": 1722,
      "Version": 1723,
      "##ele": 1724,
      "jusqu": 1725,
      "Jacques": 1726,
      "book": 1727,
      "94": 1728,
      "##nti": 1729,
      "##ser": 1730,
      "né": 1731,
      "María": 1732,
      "Army": 1733,
      "lat": 1734,
      "##ster": 1735,
      "##schen": 1736,
      "##ue": 1737,
      "##ť": 1738,
      "##sia": 1739,
      "Asia": 1740,
      "##ras": 1741,
      "##ret": 1742,
      "Super": 1743,
      "causa": 1744,
      "points": 1745,
      "79": 1746,
      "wo": 1747,
      "ano": 1748,
      "1870": 1749,
      "Grande": 1750,
      "##än": 1751,
      "##ova": 1752,
      "##sko": 1753,
      "##chi": 1754,
      "type": 1755,
      "##ile": 1756,
      "President": 1757,
      "Scott": 1758,
      "tai": 1759,
      "Luis": 1760,
      "##isch": 1761,
      "##sse": 1762,
      "##tar": 1763,
      "just": 1764,
      "Council": 1765,
      "##ane": 1766,
      "##ija": 1767,
      "Social": 1768,
      "Australian": 1769,
      "##iva": 1770,
      "Prix": 1771,
      "Guerra": 1772,
      "Centre": 1773,
      "twee": 1774,
      "tour": 1775,
      "##ş": 1776,
      "ces": 1777,
      "Con": 1778,
      "Pedro": 1779,
      "avant": 1780,
      "Sir": 1781,
      "Argentina": 1782,
      "Max": 1783,
      "led": 1784,
      "Ende": 1785,
      "We": 1786,
      "##bar": 1787,
      "##ye": 1788,
      "piano": 1789,
      "Africa": 1790,
      "So": 1791,
      "ovat": 1792,
      "##su": 1793,
      "Liga": 1794,
      "1886": 1795,
      "Iran": 1796,
      "##rie": 1797,
      "Windows": 1798,
      "1885": 1799,
      "très": 1800,
      "##kom": 1801,
      "##sel": 1802,
      "Harry": 1803,
      "Mr": 1804,
      "Verlag": 1805,
      "##ona": 1806,
      "##mas": 1807,
      "dar": 1808,
      "1894": 1809,
      "##one": 1810,
      "information": 1811,
      "##ade": 1812,
      "Department": 1813,
      "down": 1814,
      "Little": 1815,
      "Arts": 1816,
      "Portugal": 1817,
      "Di": 1818,
      "nas": 1819,
      "##ák": 1820,
      "Power": 1821,
      "##line": 1822,
      "sen": 1823,
      "##van": 1824,
      "position": 1825,
      "Research": 1826,
      "1893": 1827,
      "##ft": 1828,
      "live": 1829,
      "Meyer": 1830,
      "##cha": 1831,
      "Jr": 1832,
      "1892": 1833,
      "##dd": 1834,
      "groupe": 1835,
      "Blue": 1836,
      "##net": 1837,
      "ich": 1838,
      "fins": 1839,
      "Sciences": 1840,
      "1891": 1841,
      "##ais": 1842,
      "##eur": 1843,
      "VII": 1844,
      "##ça": 1845,
      "Israel": 1846,
      "François": 1847,
      "##aren": 1848,
      "web": 1849,
      "car": 1850,
      "late": 1851,
      "tout": 1852,
      "##ey": 1853,
      "##ira": 1854,
      "bet": 1855,
      "Deutschland": 1856,
      "##uk": 1857,
      "poi": 1858,
      "##lin": 1859,
      "grand": 1860,
      "##ore": 1861,
      "Men": 1862,
      "you": 1863,
      "Dans": 1864,
      "##ena": 1865,
      "##W": 1866,
      "Global": 1867,
      "##ise": 1868,
      "Teil": 1869,
      "##vu": 1870,
      "##est": 1871,
      "1888": 1872,
      "tu": 1873,
      "110": 1874,
      "XVIII": 1875,
      "##ika": 1876,
      "##rn": 1877,
      "Joe": 1878,
      "##uje": 1879,
      "plan": 1880,
      "durant": 1881,
      "Green": 1882,
      "Lo": 1883,
      "Adam": 1884,
      "Good": 1885,
      "Els": 1886,
      "fel": 1887,
      "##zu": 1888,
      "hai": 1889,
      "Wilson": 1890,
      "XVI": 1891,
      "##uri": 1892,
      "grandes": 1893,
      "studio": 1894,
      "##able": 1895,
      "Co": 1896,
      "plusieurs": 1897,
      "Creek": 1898,
      "Manuel": 1899,
      "##sis": 1900,
      "monde": 1901,
      "ez": 1902,
      "Ed": 1903,
      "sans": 1904,
      "##ité": 1905,
      "##ná": 1906,
      "Nova": 1907,
      "##vel": 1908,
      "##een": 1909,
      "##ali": 1910,
      "Arthur": 1911,
      "##ring": 1912,
      "##ves": 1913,
      "Instituto": 1914,
      "##α": 1915,
      "support": 1916,
      "Bay": 1917,
      "##ses": 1918,
      "Copa": 1919,
      "Chris": 1920,
      "##ges": 1921,
      "Bill": 1922,
      "avril": 1923,
      "quatre": 1924,
      "Western": 1925,
      "##ard": 1926,
      "Jackson": 1927,
      "way": 1928,
      "Afrika": 1929,
      "ho": 1930,
      "##ente": 1931,
      "ils": 1932,
      "Song": 1933,
      "power": 1934,
      "##ih": 1935,
      "##ín": 1936,
      "gant": 1937,
      "model": 1938,
      "musical": 1939,
      "##ham": 1940,
      "##ende": 1941,
      "##tra": 1942,
      "##ž": 1943,
      "Au": 1944,
      "Serie": 1945,
      "##ncia": 1946,
      "similar": 1947,
      "Two": 1948,
      "house": 1949,
      "Law": 1950,
      "##lia": 1951,
      "Chile": 1952,
      "##ps": 1953,
      "html": 1954,
      "fois": 1955,
      "ary": 1956,
      "##eri": 1957,
      "Her": 1958,
      "##ès": 1959,
      "1878": 1960,
      "##rea": 1961,
      "berg": 1962,
      "Series": 1963,
      "Mae": 1964,
      "Johnson": 1965,
      "1883": 1966,
      "maj": 1967,
      "##ées": 1968,
      "law": 1969,
      "Li": 1970,
      "##ati": 1971,
      "article": 1972,
      "États": 1973,
      "##sh": 1974,
      "##ds": 1975,
      "Mike": 1976,
      "Gran": 1977,
      "Michel": 1978,
      "##ix": 1979,
      "##tic": 1980,
      "1887": 1981,
      "Thompson": 1982,
      "##nom": 1983,
      "face": 1984,
      "Giovanni": 1985,
      "Cette": 1986,
      "Chinese": 1987,
      "far": 1988,
      "Ben": 1989,
      "Register": 1990,
      "##ì": 1991,
      "Long": 1992,
      "Steve": 1993,
      "##ami": 1994,
      "##ula": 1995,
      "suite": 1996,
      "##ide": 1997,
      "norr": 1998,
      "##tos": 1999,
      "vil": 2000,
      "##ee": 2001,
      "##ala": 2002,
      "Philip": 2003,
      "##ons": 2004,
      "hier": 2005,
      "##cs": 2006,
      "opera": 2007,
      "1860": 2008,
      "cap": 2009,
      "Ce": 2010,
      "##tà": 2011,
      "##è": 2012,
      "Media": 2013,
      "##ły": 2014,
      "Dit": 2015,
      "Office": 2016,
      "##met": 2017,
      "style": 2018,
      "Sud": 2019,
      "circa": 2020,
      "##het": 2021,
      "Paulo": 2022,
      "##op": 2023,
      "##tik": 2024,
      "1884": 2025,
      "##fa": 2026,
      "##nza": 2027,
      "##via": 2028,
      "Heinrich": 2029,
      "full": 2030,
      "##yn": 2031,
      "came": 2032,
      "Force": 2033,
      "##mos": 2034,
      "##ford": 2035,
      "130": 2036,
      "##cher": 2037,
      "##ism": 2038,
      "Taylor": 2039,
      "##issa": 2040,
      "##ç": 2041,
      "construction": 2042,
      "##field": 2043,
      "sai": 2044,
      "gan": 2045,
      "list": 2046,
      "php": 2047,
      "##ss": 2048,
      "1848": 2049,
      "1882": 2050,
      "1881": 2051,
      "juin": 2052,
      "##tis": 2053,
      "fine": 2054,
      "##ici": 2055,
      "Lord": 2056,
      "Show": 2057,
      "##heid": 2058,
      "lub": 2059,
      "avait": 2060,
      "famille": 2061,
      "Columbia": 2062,
      "##nan": 2063,
      "##rna": 2064,
      "année": 2065,
      "case": 2066,
      "##eg": 2067,
      "tous": 2068,
      "##urs": 2069,
      "Russell": 2070,
      "ru": 2071,
      "min": 2072,
      "##tat": 2073,
      "Service": 2074,
      "Anne": 2075,
      "Are": 2076,
      "##tura": 2077,
      "Para": 2078,
      "##ous": 2079,
      "##ell": 2080,
      "avoir": 2081,
      "Une": 2082,
      "1st": 2083,
      "1871": 2084,
      "Roger": 2085,
      "lain": 2086,
      "##ës": 2087,
      "##ο": 2088,
      "Ali": 2089,
      "##po": 2090,
      "Billboard": 2091,
      "##mus": 2092,
      "UEFA": 2093,
      "janvier": 2094,
      "##rer": 2095,
      "Bank": 2096,
      "Women": 2097,
      "##nn": 2098,
      "Kim": 2099,
      "900": 2100,
      "##mes": 2101,
      "##nim": 2102,
      "Your": 2103,
      "fire": 2104,
      "septembre": 2105,
      "##ingen": 2106,
      "##ese": 2107,
      "Year": 2108,
      "round": 2109,
      "Otto": 2110,
      "##že": 2111,
      "head": 2112,
      "##ù": 2113,
      "##bra": 2114,
      "Bob": 2115,
      "##cio": 2116,
      "origine": 2117,
      "morte": 2118,
      "dort": 2119,
      "class": 2120,
      "##ht": 2121,
      "##ral": 2122,
      "##ți": 2123,
      "Inc": 2124,
      "hay": 2125,
      "saison": 2126,
      "Ohio": 2127,
      "octobre": 2128,
      "1861": 2129,
      "Henri": 2130,
      "story": 2131,
      "ac": 2132,
      "1864": 2133,
      "ging": 2134,
      "1857": 2135,
      "1879": 2136,
      "##én": 2137,
      "Virginia": 2138,
      "modo": 2139,
      "##tica": 2140,
      "##yi": 2141,
      "Empire": 2142,
      "##vé": 2143,
      "Entre": 2144,
      "That": 2145,
      "1800": 2146,
      "##ket": 2147,
      "plu": 2148,
      "##eren": 2149,
      "1876": 2150,
      "Up": 2151,
      "fer": 2152,
      "Wien": 2153,
      "##llo": 2154,
      "Victoria": 2155,
      "date": 2156,
      "Esta": 2157,
      "Florida": 2158,
      "yo": 2159,
      "tal": 2160,
      "Republic": 2161,
      "Seine": 2162,
      "Boston": 2163,
      "design": 2164,
      "sia": 2165,
      "Special": 2166,
      "##ungen": 2167,
      "##tz": 2168,
      "mer": 2169,
      "Queen": 2170,
      "dai": 2171,
      "FIFA": 2172,
      "VIII": 2173,
      "##iem": 2174,
      "Program": 2175,
      "short": 2176,
      "pop": 2177,
      "term": 2178,
      "contro": 2179,
      "##hu": 2180,
      "##bre": 2181,
      "Foi": 2182,
      "forces": 2183,
      "Alfred": 2184,
      "Ottawa": 2185,
      "##rte": 2186,
      "Francis": 2187,
      "##ero": 2188,
      "Ha": 2189,
      "##igen": 2190,
      "Ma": 2191,
      "Francesco": 2192,
      "##ement": 2193,
      "Tony": 2194,
      "division": 2195,
      "Franz": 2196,
      "Unis": 2197,
      "##gang": 2198,
      "Lewis": 2199,
      "##bus": 2200,
      "Een": 2201,
      "##bel": 2202,
      "vie": 2203,
      "Old": 2204,
      "1877": 2205,
      "titre": 2206,
      "##rin": 2207,
      "autre": 2208,
      "##ili": 2209,
      "ara": 2210,
      "juillet": 2211,
      "##los": 2212,
      "1873": 2213,
      "1863": 2214,
      "1810": 2215,
      "metal": 2216,
      "Je": 2217,
      "1875": 2218,
      "##ila": 2219,
      "Book": 2220,
      "1633": 2221,
      "##ging": 2222,
      "Des": 2223,
      "Commons": 2224,
      "1865": 2225,
      "Natural": 2226,
      "##nosti": 2227,
      "##erd": 2228,
      "##ff": 2229,
      "1867": 2230,
      "Digital": 2231,
      "communes": 2232,
      "André": 2233,
      "##ét": 2234,
      "African": 2235,
      "Sky": 2236,
      "##vis": 2237,
      "##ram": 2238,
      "160": 2239,
      "pays": 2240,
      "##dia": 2241,
      "professor": 2242,
      "arte": 2243,
      "##rar": 2244,
      "1868": 2245,
      "##ede": 2246,
      "Stephen": 2247,
      "Patrick": 2248,
      "sei": 2249,
      "Saison": 2250,
      "Ray": 2251,
      "ima": 2252,
      "Villa": 2253,
      "half": 2254,
      "1850": 2255,
      "##iv": 2256,
      "Some": 2257,
      "Google": 2258,
      "##ën": 2259,
      "##ong": 2260,
      "XIII": 2261,
      "Robinson": 2262,
      "Home": 2263,
      "Universidad": 2264,
      "Costa": 2265,
      "##iti": 2266,
      "##ando": 2267,
      "Miguel": 2268,
      "dy": 2269,
      "Johannes": 2270,
      "180": 2271,
      "##jas": 2272,
      "##if": 2273,
      "project": 2274,
      "1500": 2275,
      "##rus": 2276,
      "See": 2277,
      "structure": 2278,
      "##iques": 2279,
      "Buenos": 2280,
      "décembre": 2281,
      "route": 2282,
      "ass": 2283,
      "Nature": 2284,
      "1866": 2285,
      "1872": 2286,
      "SS": 2287,
      "XVII": 2288,
      "1859": 2289,
      "équipe": 2290,
      "vita": 2291,
      "vir": 2292,
      "vi": 2293,
      "sos": 2294,
      "140": 2295,
      "Ia": 2296,
      "Aires": 2297,
      "free": 2298,
      "Airport": 2299,
      "notamment": 2300,
      "##Z": 2301,
      "Sun": 2302,
      "Act": 2303,
      "##nym": 2304,
      "##ding": 2305,
      "Brian": 2306,
      "1869": 2307,
      "##ern": 2308,
      "##heim": 2309,
      "##las": 2310,
      "général": 2311,
      "##ett": 2312,
      "sub": 2313,
      "août": 2314,
      "1862": 2315,
      "lieu": 2316,
      "##jon": 2317,
      "Georg": 2318,
      "##ña": 2319,
      "##nas": 2320,
      "##ay": 2321,
      "Andrew": 2322,
      "##elle": 2323,
      "tarde": 2324,
      "Books": 2325,
      "Lady": 2326,
      "Jawa": 2327,
      "##ness": 2328,
      "Mario": 2329,
      "actual": 2330,
      "##ani": 2331,
      "God": 2332,
      "Amsterdam": 2333,
      "Pro": 2334,
      "Fernando": 2335,
      "Canadian": 2336,
      "Studies": 2337,
      "race": 2338,
      "Bad": 2339,
      "1874": 2340,
      "Oscar": 2341,
      "bol": 2342,
      "party": 2343,
      "fi": 2344,
      "aj": 2345,
      "125": 2346,
      "XIV": 2347,
      "Online": 2348,
      "Eric": 2349,
      "##ella": 2350,
      "municipio": 2351,
      "Game": 2352,
      "##tre": 2353,
      "##nts": 2354,
      "Za": 2355,
      "##lus": 2356,
      "Institut": 2357,
      "##tive": 2358,
      "Londres": 2359,
      "##dad": 2360,
      "Guide": 2361,
      "open": 2362,
      "##lli": 2363,
      "Fue": 2364,
      "Hot": 2365,
      "Publishing": 2366,
      "##ék": 2367,
      "run": 2368,
      "Korea": 2369,
      "XII": 2370,
      "XV": 2371,
      "Court": 2372,
      "##nus": 2373,
      "2nd": 2374,
      "Dictionary": 2375,
      "EP": 2376,
      "Ludwig": 2377,
      "##uta": 2378,
      "https": 2379,
      "101": 2380,
      "possible": 2381,
      "faire": 2382,
      "##way": 2383,
      "##nica": 2384,
      "##bach": 2385,
      "color": 2386,
      "Wales": 2387,
      "Oslo": 2388,
      "##vas": 2389,
      "Point": 2390,
      "Library": 2391,
      "miles": 2392,
      "pola": 2393,
      "business": 2394,
      "Mission": 2395,
      "guerre": 2396,
      "Marco": 2397,
      "civil": 2398,
      "Jakarta": 2399,
      "inte": 2400,
      "Elizabeth": 2401,
      "Victor": 2402,
      "nationale": 2403,
      "dag": 2404,
      "Jim": 2405,
      "human": 2406,
      "Pour": 2407,
      "Second": 2408,
      "##erte": 2409,
      "Auf": 2410,
      "Prince": 2411,
      "forme": 2412,
      "Entertainment": 2413,
      "##tal": 2414,
      "##ae": 2415,
      "##ń": 2416,
      "##ties": 2417,
      "Como": 2418,
      "française": 2419,
      "action": 2420,
      "##ál": 2421,
      "##her": 2422,
      "##zer": 2423,
      "cours": 2424,
      "##una": 2425,
      "##iro": 2426,
      "Après": 2427,
      "##xa": 2428,
      "tant": 2429,
      "eus": 2430,
      "gab": 2431,
      "magyar": 2432,
      "superficie": 2433,
      "##ové": 2434,
      "People": 2435,
      "én": 2436,
      "##tro": 2437,
      "Set": 2438,
      "dette": 2439,
      "Miss": 2440,
      "Ta": 2441,
      "anti": 2442,
      "##illa": 2443,
      "Ford": 2444,
      "##vá": 2445,
      "leurs": 2446,
      "##owe": 2447,
      "Dan": 2448,
      "Century": 2449,
      "Sam": 2450,
      "##osa": 2451,
      "##bles": 2452,
      "films": 2453,
      "Davis": 2454,
      "dio": 2455,
      "nouveau": 2456,
      "Mount": 2457,
      "Wolfgang": 2458,
      "Station": 2459,
      "Project": 2460,
      "office": 2461,
      "ok": 2462,
      "principale": 2463,
      "Alan": 2464,
      "track": 2465,
      "moment": 2466,
      "Claude": 2467,
      "##cus": 2468,
      "Be": 2469,
      "chi": 2470,
      "Fort": 2471,
      "roman": 2472,
      "Carolina": 2473,
      "vai": 2474,
      "body": 2475,
      "##ori": 2476,
      "IX": 2477,
      "province": 2478,
      "Nueva": 2479,
      "##bia": 2480,
      "Line": 2481,
      "Most": 2482,
      "Gold": 2483,
      "##rne": 2484,
      "él": 2485,
      "encore": 2486,
      "##jan": 2487,
      "ere": 2488,
      "syn": 2489,
      "Town": 2490,
      "ti": 2491,
      "##hin": 2492,
      "##nos": 2493,
      "région": 2494,
      "Professor": 2495,
      "Valley": 2496,
      "autor": 2497,
      "##š": 2498,
      "##wan": 2499,
      "##ās": 2500,
      "Model": 2501,
      "kas": 2502,
      "##ich": 2503,
      "##fi": 2504,
      "##ins": 2505,
      "##ré": 2506,
      "##gar": 2507,
      "##lui": 2508,
      "##ille": 2509,
      "news": 2510,
      "##lige": 2511,
      "Việt": 2512,
      "Auch": 2513,
      "Golden": 2514,
      "performance": 2515,
      "##lse": 2516,
      "##san": 2517,
      "Cruz": 2518,
      "Carlo": 2519,
      "Go": 2520,
      "nam": 2521,
      "Enrique": 2522,
      "moins": 2523,
      "eu": 2524,
      "##ful": 2525,
      "DC": 2526,
      "Jersey": 2527,
      "Bernard": 2528,
      "Zealand": 2529,
      "Sur": 2530,
      "Corporation": 2531,
      "##feld": 2532,
      "active": 2533,
      "bug": 2534,
      "##nost": 2535,
      "##haus": 2536,
      "##ntes": 2537,
      "Stone": 2538,
      "sama": 2539,
      "Sydney": 2540,
      "Susan": 2541,
      "##ći": 2542,
      "Austria": 2543,
      "ora": 2544,
      "Committee": 2545,
      "##uar": 2546,
      "##set": 2547,
      "Other": 2548,
      "Federal": 2549,
      "##del": 2550,
      "##bb": 2551,
      "##lio": 2552,
      "##isme": 2553,
      "put": 2554,
      "Games": 2555,
      "Development": 2556,
      "histoire": 2557,
      "Out": 2558,
      "février": 2559,
      "##kel": 2560,
      "Princeton": 2561,
      "Who": 2562,
      "qua": 2563,
      "Um": 2564,
      "105": 2565,
      "##ag": 2566,
      "Roy": 2567,
      "Girl": 2568,
      "##ct": 2569,
      "##kou": 2570,
      "1830": 2571,
      "If": 2572,
      "Post": 2573,
      "sent": 2574,
      "##ments": 2575,
      "##zie": 2576,
      "##isi": 2577,
      "##dal": 2578,
      "Foundation": 2579,
      "Ernst": 2580,
      "Sin": 2581,
      "mange": 2582,
      "##nog": 2583,
      "Space": 2584,
      "##ose": 2585,
      "hag": 2586,
      "peu": 2587,
      "Kong": 2588,
      "Government": 2589,
      "##nar": 2590,
      "soit": 2591,
      "##ões": 2592,
      "##ces": 2593,
      "front": 2594,
      "##up": 2595,
      "Rome": 2596,
      "Pacific": 2597,
      "##ait": 2598,
      "##fe": 2599,
      "stand": 2600,
      "Stockholm": 2601,
      "san": 2602,
      "Master": 2603,
      "tard": 2604,
      "Miller": 2605,
      "Latin": 2606,
      "common": 2607,
      "XI": 2608,
      "Web": 2609,
      "Ireland": 2610,
      "##oi": 2611,
      "##oni": 2612,
      "##ante": 2613,
      "Hollywood": 2614,
      "ligne": 2615,
      "##gas": 2616,
      "Public": 2617,
      "Kingdom": 2618,
      "##sson": 2619,
      "##ño": 2620,
      "##ean": 2621,
      "Story": 2622,
      "lu": 2623,
      "##ło": 2624,
      "Diego": 2625,
      "embargo": 2626,
      "##υ": 2627,
      "novel": 2628,
      "##mar": 2629,
      "mondiale": 2630,
      "Bruce": 2631,
      "Review": 2632,
      "1840": 2633,
      "##Y": 2634,
      "##pus": 2635,
      "Order": 2636,
      "eng": 2637,
      "Premier": 2638,
      "##rono": 2639,
      "Va": 2640,
      "##eta": 2641,
      "Pennsylvania": 2642,
      "Islam": 2643,
      "Alex": 2644,
      "science": 2645,
      "Yn": 2646,
      "official": 2647,
      "##nta": 2648,
      "Port": 2649,
      "##kat": 2650,
      "Sea": 2651,
      "Board": 2652,
      "Budapest": 2653,
      "##še": 2654,
      "Anthony": 2655,
      "##and": 2656,
      "##ggio": 2657,
      "##wood": 2658,
      "addition": 2659,
      "##ete": 2660,
      "##zia": 2661,
      "Part": 2662,
      "Navy": 2663,
      "##oa": 2664,
      "Network": 2665,
      "Movie": 2666,
      "##hen": 2667,
      "mare": 2668,
      "recensement": 2669,
      "América": 2670,
      "Regional": 2671,
      "devient": 2672,
      "Battle": 2673,
      "Last": 2674,
      "Milano": 2675,
      "102": 2676,
      "Can": 2677,
      "Janeiro": 2678,
      "Samuel": 2679,
      "Family": 2680,
      "topon": 2681,
      "##isen": 2682,
      "##ette": 2683,
      "Ort": 2684,
      "lett": 2685,
      "##fer": 2686,
      "NBA": 2687,
      "##tie": 2688,
      "Douglas": 2689,
      "neu": 2690,
      "Its": 2691,
      "##ivo": 2692,
      "court": 2693,
      "parti": 2694,
      "celui": 2695,
      "Rose": 2696,
      "##ao": 2697,
      "map": 2698,
      "1858": 2699,
      "Fox": 2700,
      "##dá": 2701,
      "Main": 2702,
      "disco": 2703,
      "Non": 2704,
      "##dt": 2705,
      "section": 2706,
      "##nou": 2707,
      "Gordon": 2708,
      "park": 2709,
      "##ö": 2710,
      "collection": 2711,
      "##werk": 2712,
      "Civil": 2713,
      "##get": 2714,
      "Disney": 2715,
      "pendant": 2716,
      "##ši": 2717,
      "Monte": 2718,
      "ant": 2719,
      "tam": 2720,
      "Illinois": 2721,
      "hon": 2722,
      "Final": 2723,
      "Du": 2724,
      "##ary": 2725,
      "sea": 2726,
      "municipal": 2727,
      "Commission": 2728,
      "selon": 2729,
      "##ora": 2730,
      "hit": 2731,
      "Roberto": 2732,
      "filme": 2733,
      "##ych": 2734,
      "##dra": 2735,
      "Georges": 2736,
      "Santo": 2737,
      "##lag": 2738,
      "##min": 2739,
      "Summer": 2740,
      "##vano": 2741,
      "How": 2742,
      "Country": 2743,
      "exemple": 2744,
      "##pt": 2745,
      "standard": 2746,
      "donc": 2747,
      "##less": 2748,
      "vs": 2749,
      "Major": 2750,
      "cas": 2751,
      "##iya": 2752,
      "350": 2753,
      "Video": 2754,
      "##my": 2755,
      "nich": 2756,
      "##zza": 2757,
      "Trade": 2758,
      "Anderson": 2759,
      "##ans": 2760,
      "##ká": 2761,
      "Norte": 2762,
      "leader": 2763,
      "##če": 2764,
      "dois": 2765,
      "fils": 2766,
      "particular": 2767,
      "##ör": 2768,
      "Hamburg": 2769,
      "Microsoft": 2770,
      "##cos": 2771,
      "##tions": 2772,
      "##ść": 2773,
      "##vet": 2774,
      "politique": 2775,
      "force": 2776,
      "mil": 2777,
      "police": 2778,
      "fast": 2779,
      "person": 2780,
      "black": 2781,
      "río": 2782,
      "pot": 2783,
      "1856": 2784,
      "dua": 2785,
      "Sport": 2786,
      "Education": 2787,
      "##owa": 2788,
      "Leipzig": 2789,
      "polo": 2790,
      "##ého": 2791,
      "1854": 2792,
      "Report": 2793,
      "classification": 2794,
      "Casa": 2795,
      "Hong": 2796,
      "##don": 2797,
      "diverse": 2798,
      "Howard": 2799,
      "##ē": 2800,
      "kang": 2801,
      "##nto": 2802,
      "Heart": 2803,
      "File": 2804,
      "Allen": 2805,
      "##zh": 2806,
      "Like": 2807,
      "##ela": 2808,
      "Internacional": 2809,
      "Plant": 2810,
      "104": 2811,
      "##pan": 2812,
      "Southern": 2813,
      "aver": 2814,
      "Massachusetts": 2815,
      "my": 2816,
      "ham": 2817,
      "Ltd": 2818,
      "Mountain": 2819,
      "process": 2820,
      "Three": 2821,
      "##tto": 2822,
      "Nations": 2823,
      "start": 2824,
      "##ama": 2825,
      "1849": 2826,
      "opp": 2827,
      "##ola": 2828,
      "chef": 2829,
      "Theatre": 2830,
      "culture": 2831,
      "square": 2832,
      "hy": 2833,
      "##ast": 2834,
      "##det": 2835,
      "books": 2836,
      "tan": 2837,
      "##ava": 2838,
      "samo": 2839,
      "aby": 2840,
      "##tek": 2841,
      "##lari": 2842,
      "##iste": 2843,
      "mal": 2844,
      "##kar": 2845,
      "##ota": 2846,
      "Joan": 2847,
      "inn": 2848,
      "##cion": 2849,
      "Planet": 2850,
      "sang": 2851,
      "Anh": 2852,
      "début": 2853,
      "Village": 2854,
      "##ân": 2855,
      "Colombia": 2856,
      "1855": 2857,
      "hand": 2858,
      "Georgia": 2859,
      "Volume": 2860,
      "##mis": 2861,
      "##rsi": 2862,
      "festival": 2863,
      "Christopher": 2864,
      "zone": 2865,
      "source": 2866,
      "##ön": 2867,
      "genre": 2868,
      "Marc": 2869,
      "Toronto": 2870,
      "##iden": 2871,
      "homme": 2872,
      "Catherine": 2873,
      "##º": 2874,
      "Québec": 2875,
      "Soviet": 2876,
      "Business": 2877,
      "##ī": 2878,
      "ada": 2879,
      "minutes": 2880,
      "less": 2881,
      "1852": 2882,
      "Tokyo": 2883,
      "cause": 2884,
      "Tim": 2885,
      "dira": 2886,
      "gen": 2887,
      "Norman": 2888,
      "3000": 2889,
      "terra": 2890,
      "sold": 2891,
      "##sto": 2892,
      "cao": 2893,
      "##iga": 2894,
      "##vy": 2895,
      "drama": 2896,
      "course": 2897,
      "Manchester": 2898,
      "Northern": 2899,
      "415": 2900,
      "gave": 2901,
      "##tin": 2902,
      "stage": 2903,
      "située": 2904,
      "##ije": 2905,
      "##sin": 2906,
      "Magazine": 2907,
      "Moore": 2908,
      "Kevin": 2909,
      "upon": 2910,
      "Will": 2911,
      "##ō": 2912,
      "Boy": 2913,
      "##ries": 2914,
      "Deutsche": 2915,
      "Harper": 2916,
      "##art": 2917,
      "##tzen": 2918,
      "##ping": 2919,
      "Stanley": 2920,
      "alto": 2921,
      "Minor": 2922,
      "##vos": 2923,
      "Philippe": 2924,
      "170": 2925,
      "Hotel": 2926,
      "nouvelle": 2927,
      "##gia": 2928,
      "##J": 2929,
      "##aria": 2930,
      "Human": 2931,
      "État": 2932,
      "Walker": 2933,
      "##ott": 2934,
      "Pakistan": 2935,
      "magazine": 2936,
      "Middle": 2937,
      "ani": 2938,
      "Gabriel": 2939,
      "change": 2940,
      "grad": 2941,
      "oa": 2942,
      "FM": 2943,
      "##dar": 2944,
      "##ias": 2945,
      "Death": 2946,
      "##lta": 2947,
      "##hus": 2948,
      "Catholic": 2949,
      "Hoa": 2950,
      "Michigan": 2951,
      "##vin": 2952,
      "Universal": 2953,
      "road": 2954,
      "##imo": 2955,
      "sale": 2956,
      "##nne": 2957,
      "ouest": 2958,
      "sé": 2959,
      "Finland": 2960,
      "ins": 2961,
      "alt": 2962,
      "Sports": 2963,
      "##its": 2964,
      "quali": 2965,
      "Burton": 2966,
      "##či": 2967,
      "Gary": 2968,
      "##port": 2969,
      "Bell": 2970,
      "##asi": 2971,
      "##ish": 2972,
      "quelques": 2973,
      "m²": 2974,
      "Ze": 2975,
      "té": 2976,
      "##ség": 2977,
      "Small": 2978,
      "1851": 2979,
      "text": 2980,
      "##heit": 2981,
      "ordre": 2982,
      "Jane": 2983,
      "Johnny": 2984,
      "103": 2985,
      "ger": 2986,
      "issue": 2987,
      "##fen": 2988,
      "Maurice": 2989,
      "##dom": 2990,
      "##house": 2991,
      "1853": 2992,
      "sol": 2993,
      "parts": 2994,
      "shows": 2995,
      "tae": 2996,
      "ensemble": 2997,
      "##wie": 2998,
      "Coppa": 2999,
      "##leg": 3000,
      "celle": 3001,
      "##tore": 3002,
      "##ios": 3003,
      "##yo": 3004,
      "Ab": 3005,
      "Est": 3006,
      "direction": 3007,
      "range": 3008,
      "Beach": 3009,
      "mid": 3010,
      "mod": 3011,
      "usa": 3012,
      "##din": 3013,
      "##ient": 3014,
      "##ial": 3015,
      "format": 3016,
      "Irish": 3017,
      "low": 3018,
      "##king": 3019,
      "center": 3020,
      "Ivan": 3021,
      "vu": 3022,
      "tri": 3023,
      "église": 3024,
      "##tel": 3025,
      "Hitler": 3026,
      "##bile": 3027,
      "##că": 3028,
      "Denne": 3029,
      "##čka": 3030,
      "nova": 3031,
      "1846": 3032,
      "Way": 3033,
      "Province": 3034,
      "Cross": 3035,
      "##tum": 3036,
      "##ñ": 3037,
      "##liga": 3038,
      "Giuseppe": 3039,
      "115": 3040,
      "roi": 3041,
      "Light": 3042,
      "##mia": 3043,
      "ba": 3044,
      "Venezuela": 3045,
      "ku": 3046,
      "##tur": 3047,
      "##lé": 3048,
      "Centro": 3049,
      "coach": 3050,
      "classe": 3051,
      "##gs": 3052,
      "Over": 3053,
      "##ev": 3054,
      "Johan": 3055,
      "##lon": 3056,
      "##red": 3057,
      "##jes": 3058,
      "##ngen": 3059,
      "disse": 3060,
      "##menti": 3061,
      "##ński": 3062,
      "Historia": 3063,
      "##ngan": 3064,
      "Name": 3065,
      "Mar": 3066,
      "Clark": 3067,
      "##tori": 3068,
      "Mais": 3069,
      "Josef": 3070,
      "Fall": 3071,
      "1847": 3072,
      "light": 3073,
      "García": 3074,
      "##mit": 3075,
      "##gh": 3076,
      "1815": 3077,
      "##usi": 3078,
      "âge": 3079,
      "Kelly": 3080,
      "double": 3081,
      "##rak": 3082,
      "##cal": 3083,
      "Alberto": 3084,
      "##hn": 3085,
      "##zar": 3086,
      "Milan": 3087,
      "Loire": 3088,
      "dalle": 3089,
      "220": 3090,
      "Marcus": 3091,
      "Institution": 3092,
      "##yon": 3093,
      "111": 3094,
      "Ontario": 3095,
      "uns": 3096,
      "importantes": 3097,
      "Alpes": 3098,
      "terme": 3099,
      "Jesus": 3100,
      "Hermann": 3101,
      "##iz": 3102,
      "Dance": 3103,
      "bad": 3104,
      "test": 3105,
      "pag": 3106,
      "107": 3107,
      "108": 3108,
      "Hamilton": 3109,
      "##oli": 3110,
      "zou": 3111,
      "##gio": 3112,
      "cargo": 3113,
      "mise": 3114,
      "ISO": 3115,
      "##well": 3116,
      "cinq": 3117,
      "ante": 3118,
      "##bau": 3119,
      "permet": 3120,
      "Ann": 3121,
      "##ions": 3122,
      "Stand": 3123,
      "sue": 3124,
      "Billy": 3125,
      "dir": 3126,
      "Mann": 3127,
      "Wild": 3128,
      "semi": 3129,
      "volume": 3130,
      "cara": 3131,
      "##smo": 3132,
      "##rik": 3133,
      "##ê": 3134,
      "1845": 3135,
      "##tico": 3136,
      "bod": 3137,
      "Back": 3138,
      "##wi": 3139,
      "Ferdinand": 3140,
      "père": 3141,
      "Health": 3142,
      "##lde": 3143,
      "360": 3144,
      "moderne": 3145,
      "##oon": 3146,
      "Vietnam": 3147,
      "verso": 3148,
      "étant": 3149,
      "Hugo": 3150,
      "More": 3151,
      "1842": 3152,
      "##ec": 3153,
      "Nelson": 3154,
      "##zio": 3155,
      "Technology": 3156,
      "immer": 3157,
      "Puerto": 3158,
      "trouve": 3159,
      "##uit": 3160,
      "Del": 3161,
      "page": 3162,
      "##yan": 3163,
      "Philadelphia": 3164,
      "##car": 3165,
      "Congress": 3166,
      "Edition": 3167,
      "##eo": 3168,
      "oro": 3169,
      "Field": 3170,
      "surface": 3171,
      "Down": 3172,
      "membres": 3173,
      "cum": 3174,
      "Barbara": 3175,
      "Fire": 3176,
      "##ades": 3177,
      "240": 3178,
      "##ture": 3179,
      "transport": 3180,
      "Hospital": 3181,
      "Britain": 3182,
      "##ków": 3183,
      "##gel": 3184,
      "Not": 3185,
      "Studio": 3186,
      "1844": 3187,
      "Stuttgart": 3188,
      "Sul": 3189,
      "##dem": 3190,
      "époque": 3191,
      "ABC": 3192,
      "sites": 3193,
      "DJ": 3194,
      "Alice": 3195,
      "close": 3196,
      "##ones": 3197,
      "##ap": 3198,
      "Dave": 3199,
      "##xe": 3200,
      "membre": 3201,
      "individual": 3202,
      "##hed": 3203,
      "106": 3204,
      "Moon": 3205,
      "##ša": 3206,
      "gas": 3207,
      "près": 3208,
      "##uan": 3209,
      "Sri": 3210,
      "Andrea": 3211,
      "##sy": 3212,
      "##tud": 3213,
      "contract": 3214,
      "##jem": 3215,
      "##ule": 3216,
      "##sky": 3217,
      "week": 3218,
      "##shi": 3219,
      "##mal": 3220,
      "Free": 3221,
      "Nick": 3222,
      "112": 3223,
      "##ony": 3224,
      "président": 3225,
      "love": 3226,
      "Near": 3227,
      "##ρ": 3228,
      "Jazz": 3229,
      "1814": 3230,
      "dernier": 3231,
      "elles": 3232,
      "1837": 3233,
      "Jorge": 3234,
      "Vincent": 3235,
      "##tia": 3236,
      "bay": 3237,
      "Val": 3238,
      "Dark": 3239,
      "128": 3240,
      "Lawrence": 3241,
      "space": 3242,
      "##ech": 3243,
      "chez": 3244,
      "Dat": 3245,
      "##ult": 3246,
      "Rudolf": 3247,
      "simple": 3248,
      "##stein": 3249,
      "még": 3250,
      "rôle": 3251,
      "##nden": 3252,
      "termine": 3253,
      "##bes": 3254,
      "##ô": 3255,
      "##sed": 3256,
      "##fall": 3257,
      "1839": 3258,
      "Theater": 3259,
      "Jimmy": 3260,
      "Zu": 3261,
      "##wski": 3262,
      "Et": 3263,
      "Adolf": 3264,
      "département": 3265,
      "##rse": 3266,
      "Anton": 3267,
      "situé": 3268,
      "Med": 3269,
      "##uto": 3270,
      "Hun": 3271,
      "##ał": 3272,
      "bili": 3273,
      "##lah": 3274,
      "1834": 3275,
      "niveau": 3276,
      "About": 3277,
      "##int": 3278,
      "Single": 3279,
      "Sherman": 3280,
      "hab": 3281,
      "primordial": 3282,
      "1835": 3283,
      "##ches": 3284,
      "Code": 3285,
      "##mon": 3286,
      "Missouri": 3287,
      "Nobel": 3288,
      "Baden": 3289,
      "bin": 3290,
      "##rta": 3291,
      "109": 3292,
      "##ving": 3293,
      "##rk": 3294,
      "Township": 3295,
      "Charlie": 3296,
      "pol": 3297,
      "Minnesota": 3298,
      "##dur": 3299,
      "Eastern": 3300,
      "##ort": 3301,
      "##itat": 3302,
      "##nh": 3303,
      "Khan": 3304,
      "##oja": 3305,
      "gang": 3306,
      "Come": 3307,
      "Barat": 3308,
      "fram": 3309,
      "##å": 3310,
      "formation": 3311,
      "1838": 3312,
      "Dead": 3313,
      "##pes": 3314,
      "PC": 3315,
      "##sing": 3316,
      "Guy": 3317,
      "135": 3318,
      "Jordan": 3319,
      "##bor": 3320,
      "##nio": 3321,
      "Era": 3322,
      "##led": 3323,
      "Ana": 3324,
      "##ors": 3325,
      "##gue": 3326,
      "##gos": 3327,
      "Blues": 3328,
      "Jonathan": 3329,
      "##film": 3330,
      "##ères": 3331,
      "##ming": 3332,
      "##tle": 3333,
      "Porto": 3334,
      "##ová": 3335,
      "Ten": 3336,
      "Junior": 3337,
      "##dre": 3338,
      "Pape": 3339,
      "##ab": 3340,
      "##nice": 3341,
      "Mas": 3342,
      "Conference": 3343,
      "##èt": 3344,
      "plant": 3345,
      "Boys": 3346,
      "##kov": 3347,
      "1843": 3348,
      "Donald": 3349,
      "##kas": 3350,
      "##nna": 3351,
      "Nicolas": 3352,
      "##rice": 3353,
      "gibi": 3354,
      "##ár": 3355,
      "##ance": 3356,
      "Ryan": 3357,
      "##bin": 3358,
      "cases": 3359,
      "Management": 3360,
      "##eti": 3361,
      "Jacob": 3362,
      "##nder": 3363,
      "1831": 3364,
      "rue": 3365,
      "existe": 3366,
      "unit": 3367,
      "wis": 3368,
      "Amt": 3369,
      "Course": 3370,
      "Río": 3371,
      "Duke": 3372,
      "centrale": 3373,
      "sta": 3374,
      "##iche": 3375,
      "##sal": 3376,
      "eau": 3377,
      "vice": 3378,
      "Tod": 3379,
      "Sarah": 3380,
      "sera": 3381,
      "casi": 3382,
      "##aire": 3383,
      "Channel": 3384,
      "Ele": 3385,
      "Magyar": 3386,
      "étaient": 3387,
      "Indiana": 3388,
      "self": 3389,
      "hos": 3390,
      "Terra": 3391,
      "##cho": 3392,
      "Ian": 3393,
      "##pp": 3394,
      "1812": 3395,
      "1836": 3396,
      "##rit": 3397,
      "##ül": 3398,
      "ul": 3399,
      "##ow": 3400,
      "1644": 3401,
      "Levy": 3402,
      "nature": 3403,
      "presso": 3404,
      "certain": 3405,
      "1841": 3406,
      "star": 3407,
      "normal": 3408,
      "117": 3409,
      "##dorf": 3410,
      "Stadium": 3411,
      "planta": 3412,
      "kommune": 3413,
      "anu": 3414,
      "Franco": 3415,
      "##kim": 3416,
      "Winter": 3417,
      "##var": 3418,
      "##ovi": 3419,
      "Museo": 3420,
      "##ić": 3421,
      "Bruno": 3422,
      "190": 3423,
      "deuxième": 3424,
      "##over": 3425,
      "Harris": 3426,
      "Rosa": 3427,
      "grote": 3428,
      "western": 3429,
      "compte": 3430,
      "##vad": 3431,
      "Com": 3432,
      "Keith": 3433,
      "Ross": 3434,
      "##lat": 3435,
      "León": 3436,
      "camp": 3437,
      "René": 3438,
      "clubs": 3439,
      "1600": 3440,
      "future": 3441,
      "seme": 3442,
      "450": 3443,
      "ver": 3444,
      "ensuite": 3445,
      "##az": 3446,
      "Gesellschaft": 3447,
      "##ania": 3448,
      "Chief": 3449,
      "Kansas": 3450,
      "fort": 3451,
      "Atlantic": 3452,
      "##py": 3453,
      "Harvard": 3454,
      "##uma": 3455,
      "Railway": 3456,
      "mao": 3457,
      "1832": 3458,
      "Girls": 3459,
      "Apollo": 3460,
      "##hr": 3461,
      "1833": 3462,
      "Pays": 3463,
      "##ská": 3464,
      "##elt": 3465,
      "Four": 3466,
      "1820": 3467,
      "End": 3468,
      "ancien": 3469,
      "##ario": 3470,
      "Germania": 3471,
      "Frau": 3472,
      "MTV": 3473,
      "Third": 3474,
      "Jason": 3475,
      "Haus": 3476,
      "Teatro": 3477,
      "Andy": 3478,
      "uk": 3479,
      "##ute": 3480,
      "Benjamin": 3481,
      "gmina": 3482,
      "Renaissance": 3483,
      "##bio": 3484,
      "##llen": 3485,
      "##eno": 3486,
      "##ef": 3487,
      "##sus": 3488,
      "##pis": 3489,
      "##wo": 3490,
      "wel": 3491,
      "Head": 3492,
      "##eu": 3493,
      "##ires": 3494,
      "Opera": 3495,
      "Salvador": 3496,
      "Ils": 3497,
      "Machine": 3498,
      "Segunda": 3499,
      "environ": 3500,
      "##ře": 3501,
      "##ί": 3502,
      "Herbert": 3503,
      "Baker": 3504,
      "pay": 3505,
      "És": 3506,
      "provide": 3507,
      "Islands": 3508,
      "port": 3509,
      "Oliver": 3510,
      "scène": 3511,
      "publication": 3512,
      "nombreux": 3513,
      "##ats": 3514,
      "Leo": 3515,
      "tien": 3516,
      "Fred": 3517,
      "230": 3518,
      "##ym": 3519,
      "1793": 3520,
      "##ase": 3521,
      "##ped": 3522,
      "Sierra": 3523,
      "Asian": 3524,
      "Scotland": 3525,
      "night": 3526,
      "##och": 3527,
      "canal": 3528,
      "dues": 3529,
      "Mac": 3530,
      "toute": 3531,
      "digital": 3532,
      "Erik": 3533,
      "##ća": 3534,
      "Form": 3535,
      "Graham": 3536,
      "direct": 3537,
      "manager": 3538,
      "ayant": 3539,
      "Kreis": 3540,
      "don": 3541,
      "ag": 3542,
      "Lincoln": 3543,
      "Sein": 3544,
      "##aux": 3545,
      "jour": 3546,
      "Collins": 3547,
      "Adams": 3548,
      "bass": 3549,
      "bilan": 3550,
      "forte": 3551,
      "code": 3552,
      "river": 3553,
      "123": 3554,
      "déi": 3555,
      "Matt": 3556,
      "But": 3557,
      "114": 3558,
      "Wright": 3559,
      "##ics": 3560,
      "label": 3561,
      "Songs": 3562,
      "Hy": 3563,
      "##ward": 3564,
      "113": 3565,
      "ami": 3566,
      "##dio": 3567,
      "##weg": 3568,
      "##rii": 3569,
      "tog": 3570,
      "##ța": 3571,
      "Body": 3572,
      "Prize": 3573,
      "##umi": 3574,
      "##ned": 3575,
      "##xo": 3576,
      "##gal": 3577,
      "carrière": 3578,
      "HMS": 3579,
      "mission": 3580,
      "Tag": 3581,
      "##oma": 3582,
      "1821": 3583,
      "ran": 3584,
      "arts": 3585,
      "##wer": 3586,
      "750": 3587,
      "##ük": 3588,
      "##hl": 3589,
      "corpo": 3590,
      "Fu": 3591,
      "##ento": 3592,
      "##logie": 3593,
      "Castle": 3594,
      "porte": 3595,
      "Baby": 3596,
      "##lles": 3597,
      "Champion": 3598,
      "mois": 3599,
      "Justice": 3600,
      "##ides": 3601,
      "Nazionale": 3602,
      "dr": 3603,
      "116": 3604,
      "##lte": 3605,
      "Arizona": 3606,
      "Another": 3607,
      "bisa": 3608,
      "Welt": 3609,
      "Colorado": 3610,
      "##gy": 3611,
      "Just": 3612,
      "Jewish": 3613,
      "División": 3614,
      "Now": 3615,
      "Regiment": 3616,
      "espèce": 3617,
      "210": 3618,
      "Frederick": 3619,
      "Morgan": 3620,
      "##ets": 3621,
      "##bal": 3622,
      "Gustav": 3623,
      "Let": 3624,
      "##ır": 3625,
      "##isten": 3626,
      "management": 3627,
      "Sainte": 3628,
      "petit": 3629,
      "Musik": 3630,
      "Today": 3631,
      "Morris": 3632,
      "##kog": 3633,
      "Revolution": 3634,
      "Liste": 3635,
      "Historical": 3636,
      "Robin": 3637,
      "##dus": 3638,
      "##igt": 3639,
      "Charlotte": 3640,
      "Studios": 3641,
      "UNESCO": 3642,
      "Pablo": 3643,
      "Bayern": 3644,
      "##dig": 3645,
      "Object": 3646,
      "costa": 3647,
      "Apple": 3648,
      "complex": 3649,
      "Jeff": 3650,
      "Santos": 3651,
      "##inin": 3652,
      "##ður": 3653,
      "Cuba": 3654,
      "Gallery": 3655,
      "##sme": 3656,
      "##rde": 3657,
      "quasi": 3658,
      "1200": 3659,
      "Express": 3660,
      "cel": 3661,
      "Straße": 3662,
      "##und": 3663,
      "Many": 3664,
      "epi": 3665,
      "Corps": 3666,
      "##ż": 3667,
      "Wang": 3668,
      "##hausen": 3669,
      "Daily": 3670,
      "mat": 3671,
      "##iai": 3672,
      "König": 3673,
      "CIA": 3674,
      "Edwards": 3675,
      "Christmas": 3676,
      "Contemporary": 3677,
      "Luigi": 3678,
      "##sz": 3679,
      "##ament": 3680,
      "3D": 3681,
      "1825": 3682,
      "pak": 3683,
      "hui": 3684,
      "Mars": 3685,
      "parents": 3686,
      "##pin": 3687,
      "période": 3688,
      "influence": 3689,
      "Remix": 3690,
      "ship": 3691,
      "souvent": 3692,
      "Fritz": 3693,
      "conditions": 3694,
      "Dream": 3695,
      "1700": 3696,
      "Raymond": 3697,
      "commercial": 3698,
      "rest": 3699,
      "jeu": 3700,
      "Andreas": 3701,
      "Paolo": 3702,
      "ob": 3703,
      "Ces": 3704,
      "Survey": 3705,
      "Medal": 3706,
      "João": 3707,
      "##sar": 3708,
      "island": 3709,
      "##lang": 3710,
      "Vilnius": 3711,
      "doit": 3712,
      "Arab": 3713,
      "##fica": 3714,
      "Stati": 3715,
      "soll": 3716,
      "Doctor": 3717,
      "reste": 3718,
      "principales": 3719,
      "mans": 3720,
      "Age": 3721,
      "##ča": 3722,
      "##ord": 3723,
      "##aa": 3724,
      "1829": 3725,
      "Stefan": 3726,
      "##tiva": 3727,
      "##sie": 3728,
      "kW": 3729,
      "armée": 3730,
      "##stan": 3731,
      "##any": 3732,
      "sector": 3733,
      "121": 3734,
      "AS": 3735,
      "##ß": 3736,
      "##kon": 3737,
      "Bridge": 3738,
      "##gne": 3739,
      "Papa": 3740,
      "stati": 3741,
      "Sound": 3742,
      "Par": 3743,
      "5000": 3744,
      "##ip": 3745,
      "Cultural": 3746,
      "Champions": 3747,
      "##dis": 3748,
      "1828": 3749,
      "our": 3750,
      "Captain": 3751,
      "001": 3752,
      "Ett": 3753,
      "Place": 3754,
      "1806": 3755,
      "##kal": 3756,
      "##sion": 3757,
      "##kus": 3758,
      "Orchestra": 3759,
      "Memorial": 3760,
      "Pietro": 3761,
      "##mat": 3762,
      "##cida": 3763,
      "122": 3764,
      "américain": 3765,
      "ua": 3766,
      "##pu": 3767,
      "Stewart": 3768,
      "##gus": 3769,
      "Coast": 3770,
      "##jar": 3771,
      "##cer": 3772,
      "rapport": 3773,
      "Laura": 3774,
      "##bil": 3775,
      "##out": 3776,
      "118": 3777,
      "##non": 3778,
      "##teur": 3779,
      "LP": 3780,
      "##mm": 3781,
      "Euro": 3782,
      "figure": 3783,
      "Sultan": 3784,
      "##ction": 3785,
      "traditional": 3786,
      "Gray": 3787,
      "Get": 3788,
      "Coupe": 3789,
      "internationale": 3790,
      "report": 3791,
      "jazz": 3792,
      "outside": 3793,
      "##endo": 3794,
      "Pop": 3795,
      "Angel": 3796,
      "Steven": 3797,
      "basa": 3798,
      "Muhammad": 3799,
      "Bishop": 3800,
      "##èrent": 3801,
      "Wrestling": 3802,
      "##esi": 3803,
      "originale": 3804,
      "Garden": 3805,
      "127": 3806,
      "corps": 3807,
      "honor": 3808,
      "Ez": 3809,
      "Grant": 3810,
      "Ao": 3811,
      "##nel": 3812,
      "##ib": 3813,
      "##ät": 3814,
      "##ical": 3815,
      "##ande": 3816,
      "Société": 3817,
      "Miami": 3818,
      "gouvernement": 3819,
      "Woman": 3820,
      "Kr": 3821,
      "##eli": 3822,
      "musique": 3823,
      "Bull": 3824,
      "##lie": 3825,
      "##nal": 3826,
      "afin": 3827,
      "YouTube": 3828,
      "Forest": 3829,
      "Berg": 3830,
      "##ione": 3831,
      "##ró": 3832,
      "rata": 3833,
      "Rafael": 3834,
      "Route": 3835,
      "liste": 3836,
      "bit": 3837,
      "Jerry": 3838,
      "champion": 3839,
      "Dutch": 3840,
      "Dom": 3841,
      "##ži": 3842,
      "Water": 3843,
      "##pel": 3844,
      "score": 3845,
      "Marshall": 3846,
      "figura": 3847,
      "Play": 3848,
      "SM": 3849,
      "##mba": 3850,
      "Collection": 3851,
      "donne": 3852,
      "Silva": 3853,
      "##inde": 3854,
      "Catalunya": 3855,
      "López": 3856,
      "Design": 3857,
      "Arnold": 3858,
      "continue": 3859,
      "Haute": 3860,
      "significa": 3861,
      "minor": 3862,
      "Sons": 3863,
      "femme": 3864,
      "Jon": 3865,
      "##yer": 3866,
      "EU": 3867,
      "##aja": 3868,
      "##ude": 3869,
      "jadi": 3870,
      "##nk": 3871,
      "anglais": 3872,
      "Mix": 3873,
      "train": 3874,
      "Airlines": 3875,
      "##czy": 3876,
      "enn": 3877,
      "##dat": 3878,
      "Pas": 3879,
      "past": 3880,
      "Gli": 3881,
      "Melbourne": 3882,
      "libre": 3883,
      "##ologie": 3884,
      "str": 3885,
      "##jer": 3886,
      "1802": 3887,
      "##sos": 3888,
      "finales": 3889,
      "tuli": 3890,
      "Dame": 3891,
      "épisode": 3892,
      "Primera": 3893,
      "126": 3894,
      "Area": 3895,
      "Kennedy": 3896,
      "##eurs": 3897,
      "toujours": 3898,
      "##nici": 3899,
      "1824": 3900,
      "dog": 3901,
      "lingua": 3902,
      "##pia": 3903,
      "González": 3904,
      "senior": 3905,
      "stal": 3906,
      "featuring": 3907,
      "issues": 3908,
      "aller": 3909,
      "Warner": 3910,
      "Springer": 3911,
      "##chten": 3912,
      "280": 3913,
      "Standard": 3914,
      "145": 3915,
      "##ška": 3916,
      "mètres": 3917,
      "Sommer": 3918,
      "Chart": 3919,
      "chaque": 3920,
      "Avenue": 3921,
      "##hip": 3922,
      "1789": 3923,
      "château": 3924,
      "##ein": 3925,
      "1813": 3926,
      "##erne": 3927,
      "Stars": 3928,
      "Academia": 3929,
      "nou": 3930,
      "Köppen": 3931,
      "##lly": 3932,
      "view": 3933,
      "##ual": 3934,
      "Wisconsin": 3935,
      "1826": 3936,
      "##town": 3937,
      "jours": 3938,
      "Murray": 3939,
      "sport": 3940,
      "Antoine": 3941,
      "##ém": 3942,
      "##gon": 3943,
      "##worth": 3944,
      "bronze": 3945,
      "##zet": 3946,
      "1818": 3947,
      "AG": 3948,
      "bang": 3949,
      "##ndi": 3950,
      "administration": 3951,
      "##tua": 3952,
      "Lucas": 3953,
      "124": 3954,
      "260": 3955,
      "hommes": 3956,
      "Arena": 3957,
      "Olympic": 3958,
      "porta": 3959,
      "mes": 3960,
      "119": 3961,
      "##our": 3962,
      "Etter": 3963,
      "Wolf": 3964,
      "Lyon": 3965,
      "Bij": 3966,
      "Alle": 3967,
      "Peel": 3968,
      "Lost": 3969,
      "##ã": 3970,
      "Franklin": 3971,
      "##log": 3972,
      "Alexandre": 3973,
      "##rato": 3974,
      "arrondissement": 3975,
      "Margaret": 3976,
      "Canal": 3977,
      "##rata": 3978,
      "Born": 3979,
      "155": 3980,
      "##borg": 3981,
      "ji": 3982,
      "Fame": 3983,
      "fall": 3984,
      "##bili": 3985,
      "Carter": 3986,
      "Police": 3987,
      "Kinder": 3988,
      "Classification": 3989,
      "Sony": 3990,
      "association": 3991,
      "##ular": 3992,
      "auteur": 3993,
      "##rios": 3994,
      "Municipal": 3995,
      "##bert": 3996,
      "##ain": 3997,
      "Mal": 3998,
      "WWE": 3999,
      "Mitte": 4000,
      "Sen": 4001,
      "##eva": 4002,
      "##time": 4003,
      "Mei": 4004,
      "##ema": 4005,
      "##ology": 4006,
      "175": 4007,
      "##side": 4008,
      "##ène": 4009,
      "##esa": 4010,
      "##eko": 4011,
      "##rek": 4012,
      "##pat": 4013,
      "Barry": 4014,
      "bar": 4015,
      "millions": 4016,
      "Vladimir": 4017,
      "##yen": 4018,
      "AC": 4019,
      "1790": 4020,
      "SC": 4021,
      "industrial": 4022,
      "hospital": 4023,
      "amor": 4024,
      "Phil": 4025,
      "intentions": 4026,
      "Julie": 4027,
      "Peru": 4028,
      "combat": 4029,
      "##nga": 4030,
      "charge": 4031,
      "Matthew": 4032,
      "image": 4033,
      "Campbell": 4034,
      "##ales": 4035,
      "##rdi": 4036,
      "Helsinki": 4037,
      "##nge": 4038,
      "Kurt": 4039,
      "##mt": 4040,
      "plans": 4041,
      "USS": 4042,
      "sports": 4043,
      "Dal": 4044,
      "##ists": 4045,
      "##cat": 4046,
      "location": 4047,
      "##oda": 4048,
      "unique": 4049,
      "effet": 4050,
      "Dies": 4051,
      "##bat": 4052,
      "prix": 4053,
      "##eth": 4054,
      "##ost": 4055,
      "##ím": 4056,
      "Warren": 4057,
      "Here": 4058,
      "Rhône": 4059,
      "Cover": 4060,
      "##sé": 4061,
      "auto": 4062,
      "matches": 4063,
      "ibn": 4064,
      "Page": 4065,
      "Children": 4066,
      "totale": 4067,
      "Holland": 4068,
      "Brothers": 4069,
      "esto": 4070,
      "##ndan": 4071,
      "##inger": 4072,
      "##ller": 4073,
      "Aus": 4074,
      "1801": 4075,
      "heavy": 4076,
      "##mé": 4077,
      "270": 4078,
      "##ac": 4079,
      "##zed": 4080,
      "access": 4081,
      "Wood": 4082,
      "ATP": 4083,
      "1816": 4084,
      "##cies": 4085,
      "better": 4086,
      "##gé": 4087,
      "##tir": 4088,
      "global": 4089,
      "Abu": 4090,
      "##mine": 4091,
      "1822": 4092,
      "##gd": 4093,
      "129": 4094,
      "PlayStation": 4095,
      "##els": 4096,
      "Turner": 4097,
      "##mek": 4098,
      "rate": 4099,
      "##rant": 4100,
      "nous": 4101,
      "toutes": 4102,
      "##oje": 4103,
      "##iera": 4104,
      "Medical": 4105,
      "##ures": 4106,
      "##yle": 4107,
      "hari": 4108,
      "131": 4109,
      "Madonna": 4110,
      "enfants": 4111,
      "##istes": 4112,
      "Liverpool": 4113,
      "rural": 4114,
      "132": 4115,
      "##ža": 4116,
      "##har": 4117,
      "Amor": 4118,
      "##cis": 4119,
      "144": 4120,
      "##cas": 4121,
      "OS": 4122,
      "Metal": 4123,
      "administrative": 4124,
      "Evans": 4125,
      "nommé": 4126,
      "##tter": 4127,
      "articles": 4128,
      "mode": 4129,
      "Iowa": 4130,
      "Plan": 4131,
      "##lands": 4132,
      "##iana": 4133,
      "Racing": 4134,
      "papa": 4135,
      "tok": 4136,
      "##ør": 4137,
      "Fernández": 4138,
      "##bt": 4139,
      "key": 4140,
      "1819": 4141,
      "ministre": 4142,
      "##etan": 4143,
      "coma": 4144,
      "##hal": 4145,
      "Denis": 4146,
      "Müller": 4147,
      "système": 4148,
      "capita": 4149,
      "##ué": 4150,
      "##iska": 4151,
      "Our": 4152,
      "études": 4153,
      "Roberts": 4154,
      "1827": 4155,
      "Marcel": 4156,
      "distribution": 4157,
      "Ar": 4158,
      "##mie": 4159,
      "##esta": 4160,
      "fille": 4161,
      "##itas": 4162,
      "##ence": 4163,
      "Tennessee": 4164,
      "##uda": 4165,
      "Durant": 4166,
      "Java": 4167,
      "droit": 4168,
      "##kai": 4169,
      "effect": 4170,
      "##tina": 4171,
      "Bis": 4172,
      "personnes": 4173,
      "##nier": 4174,
      "##vit": 4175,
      "œuvre": 4176,
      "Pictures": 4177,
      "distance": 4178,
      "##aka": 4179,
      "##jet": 4180,
      "Television": 4181,
      "euro": 4182,
      "JR": 4183,
      "prend": 4184,
      "##bie": 4185,
      "134": 4186,
      "Wayne": 4187,
      "##nut": 4188,
      "sex": 4189,
      "Houston": 4190,
      "Dia": 4191,
      "Community": 4192,
      "Zur": 4193,
      "##kor": 4194,
      "Jay": 4195,
      "liga": 4196,
      "1758": 4197,
      "##ric": 4198,
      "##mp": 4199,
      "##vio": 4200,
      "##logy": 4201,
      "situation": 4202,
      "société": 4203,
      "152": 4204,
      "stations": 4205,
      "##uh": 4206,
      "##rad": 4207,
      "jeune": 4208,
      "20th": 4209,
      "Louise": 4210,
      "##ciu": 4211,
      "1792": 4212,
      "Gilbert": 4213,
      "Early": 4214,
      "insect": 4215,
      "VM": 4216,
      "##essa": 4217,
      "Tras": 4218,
      "Fra": 4219,
      "fact": 4220,
      "##atan": 4221,
      "Cape": 4222,
      "ch": 4223,
      "##idos": 4224,
      "logo": 4225,
      "Dean": 4226,
      "##yd": 4227,
      "Pan": 4228,
      "Highway": 4229,
      "diverses": 4230,
      "133": 4231,
      "##back": 4232,
      "Lima": 4233,
      "##cks": 4234,
      "##usa": 4235,
      "premiers": 4236,
      "##TV": 4237,
      "##eni": 4238,
      "##vić": 4239,
      "folk": 4240,
      "1817": 4241,
      "##aba": 4242,
      "Spring": 4243,
      "Julius": 4244,
      "parties": 4245,
      "Catalog": 4246,
      "Popular": 4247,
      "Stuart": 4248,
      "peuvent": 4249,
      "Delhi": 4250,
      "Bau": 4251,
      "Hockey": 4252,
      "cet": 4253,
      "##tig": 4254,
      "Only": 4255,
      "Eva": 4256,
      "basen": 4257,
      "Allan": 4258,
      "##rade": 4259,
      "Marina": 4260,
      "Castro": 4261,
      "##bahn": 4262,
      "##cki": 4263,
      "projet": 4264,
      "Broadway": 4265,
      "Zagreb": 4266,
      "Afghanistan": 4267,
      "##rado": 4268,
      "Lorenzo": 4269,
      "##rium": 4270,
      "Parker": 4271,
      "Chr": 4272,
      "records": 4273,
      "sexe": 4274,
      "##lsen": 4275,
      "##ings": 4276,
      "Temple": 4277,
      "livre": 4278,
      "##wana": 4279,
      "ana": 4280,
      "Record": 4281,
      "136": 4282,
      "##gin": 4283,
      "Mrs": 4284,
      "##ged": 4285,
      "1808": 4286,
      "Yang": 4287,
      "kon": 4288,
      "1809": 4289,
      "demi": 4290,
      "##kos": 4291,
      "Austin": 4292,
      "##nant": 4293,
      "##itz": 4294,
      "cost": 4295,
      "Blood": 4296,
      "Om": 4297,
      "sino": 4298,
      "CBS": 4299,
      "Earl": 4300,
      "Scottish": 4301,
      "animal": 4302,
      "##zat": 4303,
      "cosa": 4304,
      "Hills": 4305,
      "Cooper": 4306,
      "Deep": 4307,
      "Alto": 4308,
      "Valencia": 4309,
      "font": 4310,
      "##nger": 4311,
      "trade": 4312,
      "Jana": 4313,
      "##ün": 4314,
      "voir": 4315,
      "320": 4316,
      "cast": 4317,
      "turn": 4318,
      "##iko": 4319,
      "vote": 4320,
      "staff": 4321,
      "lagu": 4322,
      "##enia": 4323,
      "internet": 4324,
      "cha": 4325,
      "137": 4326,
      "territoire": 4327,
      "Years": 4328,
      "Engineering": 4329,
      "Systems": 4330,
      "vain": 4331,
      "poste": 4332,
      "1795": 4333,
      "##ator": 4334,
      "Bach": 4335,
      "##ame": 4336,
      "mana": 4337,
      "##adi": 4338,
      "Federation": 4339,
      "albums": 4340,
      "agent": 4341,
      "militaire": 4342,
      "Zone": 4343,
      "##icos": 4344,
      "##lerin": 4345,
      "HD": 4346,
      "1803": 4347,
      "##icu": 4348,
      "##num": 4349,
      "Bot": 4350,
      "##vre": 4351,
      "##all": 4352,
      "Allemagne": 4353,
      "##ós": 4354,
      "##ont": 4355,
      "##atu": 4356,
      "##nski": 4357,
      "##vala": 4358,
      "notable": 4359,
      "Rodríguez": 4360,
      "Silver": 4361,
      "Guerre": 4362,
      "sources": 4363,
      "##ża": 4364,
      "##ney": 4365,
      "##ues": 4366,
      "153": 4367,
      "recent": 4368,
      "##uer": 4369,
      "##eus": 4370,
      "##tak": 4371,
      "Elisabeth": 4372,
      "##nse": 4373,
      "##ías": 4374,
      "journal": 4375,
      "Arte": 4376,
      "##uti": 4377,
      "Christ": 4378,
      "Ernest": 4379,
      "maison": 4380,
      "Sau": 4381,
      "Economic": 4382,
      "voi": 4383,
      "speed": 4384,
      "anh": 4385,
      "##IS": 4386,
      "##ür": 4387,
      "##pet": 4388,
      "dès": 4389,
      "École": 4390,
      "bas": 4391,
      "1823": 4392,
      "##cing": 4393,
      "##dag": 4394,
      "hard": 4395,
      "Fischer": 4396,
      "favor": 4397,
      "Martín": 4398,
      "Eduardo": 4399,
      "tom": 4400,
      "aujourd": 4401,
      "##olo": 4402,
      "Kunst": 4403,
      "##eria": 4404,
      "##ime": 4405,
      "##cker": 4406,
      "##til": 4407,
      "Valle": 4408,
      "##rada": 4409,
      "types": 4410,
      "Days": 4411,
      "##ega": 4412,
      "Parliament": 4413,
      "Wars": 4414,
      "##hat": 4415,
      "##ize": 4416,
      "##dit": 4417,
      "192": 4418,
      "##ær": 4419,
      "value": 4420,
      "Vice": 4421,
      "fosse": 4422,
      "##bury": 4423,
      "Italien": 4424,
      "Class": 4425,
      "DDR": 4426,
      "##ër": 4427,
      "##tique": 4428,
      "Bulletin": 4429,
      "##stes": 4430,
      "concept": 4431,
      "Watson": 4432,
      "Nintendo": 4433,
      "##ering": 4434,
      "165": 4435,
      "##oto": 4436,
      "##pie": 4437,
      "Front": 4438,
      "##rre": 4439,
      "édition": 4440,
      "Iron": 4441,
      "##lom": 4442,
      "tendo": 4443,
      "Plus": 4444,
      "places": 4445,
      "dire": 4446,
      "##ust": 4447,
      "Five": 4448,
      "##är": 4449,
      "mano": 4450,
      "##hy": 4451,
      "sociale": 4452,
      "##Q": 4453,
      "##ulu": 4454,
      "sit": 4455,
      "prime": 4456,
      "Nicholas": 4457,
      "musica": 4458,
      "Linux": 4459,
      "##eve": 4460,
      "troisième": 4461,
      "1811": 4462,
      "sound": 4463,
      "villages": 4464,
      "##zing": 4465,
      "Complete": 4466,
      "host": 4467,
      "Before": 4468,
      "Bir": 4469,
      "Parks": 4470,
      "##zin": 4471,
      "Julia": 4472,
      "##iri": 4473,
      "Kota": 4474,
      "Spider": 4475,
      "##rm": 4476,
      "##end": 4477,
      "##lem": 4478,
      "Lloyd": 4479,
      "Conservation": 4480,
      "Ken": 4481,
      "##aga": 4482,
      "travail": 4483,
      "##vor": 4484,
      "##rel": 4485,
      "Ari": 4486,
      "bus": 4487,
      "Bobby": 4488,
      "Or": 4489,
      "Rolling": 4490,
      "BC": 4491,
      "Domenico": 4492,
      "Yu": 4493,
      "##mel": 4494,
      "Kent": 4495,
      "Reich": 4496,
      "Pérez": 4497,
      "née": 4498,
      "##af": 4499,
      "##isa": 4500,
      "##riu": 4501,
      "Unión": 4502,
      "Leon": 4503,
      "certains": 4504,
      "école": 4505,
      "Eddie": 4506,
      "Ne": 4507,
      "concert": 4508,
      "marine": 4509,
      "##ň": 4510,
      "Military": 4511,
      "##iel": 4512,
      "serve": 4513,
      "Hon": 4514,
      "##zel": 4515,
      "tête": 4516,
      "##rz": 4517,
      "149": 4518,
      "Motor": 4519,
      "Som": 4520,
      "présente": 4521,
      "anime": 4522,
      "Taiwan": 4523,
      "Raja": 4524,
      "bli": 4525,
      "championnat": 4526,
      "138": 4527,
      "Square": 4528,
      "##ration": 4529,
      "Napoli": 4530,
      "perché": 4531,
      "Mont": 4532,
      "##cle": 4533,
      "Ball": 4534,
      "Language": 4535,
      "Desa": 4536,
      "Guatemala": 4537,
      "Site": 4538,
      "réalisé": 4539,
      "Rolle": 4540,
      "2019": 4541,
      "##lne": 4542,
      "Secret": 4543,
      "Position": 4544,
      "mille": 4545,
      "##zik": 4546,
      "##ill": 4547,
      "##lad": 4548,
      "148": 4549,
      "1804": 4550,
      "shot": 4551,
      "content": 4552,
      "143": 4553,
      "Bergen": 4554,
      "##ško": 4555,
      "Sankt": 4556,
      "##etta": 4557,
      "Wall": 4558,
      "##bs": 4559,
      "Films": 4560,
      "##tant": 4561,
      "##sm": 4562,
      "Nouvelle": 4563,
      "Dragon": 4564,
      "##pun": 4565,
      "got": 4566,
      "Ve": 4567,
      "141": 4568,
      "##zes": 4569,
      "##wen": 4570,
      "Oklahoma": 4571,
      "##ço": 4572,
      "classes": 4573,
      "Lisa": 4574,
      "Ciudad": 4575,
      "Discovery": 4576,
      "##more": 4577,
      "GmbH": 4578,
      "1807": 4579,
      "Atlanta": 4580,
      "temple": 4581,
      "tim": 4582,
      "##ży": 4583,
      "##stadt": 4584,
      "Gruppen": 4585,
      "joueur": 4586,
      "latin": 4587,
      "programme": 4588,
      "île": 4589,
      "139": 4590,
      "sexual": 4591,
      "Schmidt": 4592,
      "Maryland": 4593,
      "us": 4594,
      "Kentucky": 4595,
      "Larry": 4596,
      "cross": 4597,
      "##ois": 4598,
      "##aal": 4599,
      "pie": 4600,
      "Imperial": 4601,
      "Parti": 4602,
      "ak": 4603,
      "idi": 4604,
      "Sol": 4605,
      "##une": 4606,
      "1805": 4607,
      "##tem": 4608,
      "Lan": 4609,
      "Ai": 4610,
      "Italie": 4611,
      "Harold": 4612,
      "146": 4613,
      "##shire": 4614,
      "Kenya": 4615,
      "Neil": 4616,
      "organisation": 4617,
      "1794": 4618,
      "##bare": 4619,
      "##for": 4620,
      "Histoire": 4621,
      "##eau": 4622,
      "République": 4623,
      "##lation": 4624,
      "Mayor": 4625,
      "monument": 4626,
      "Soul": 4627,
      "Oregon": 4628,
      "Detroit": 4629,
      "Met": 4630,
      "Sunday": 4631,
      "positive": 4632,
      "##mise": 4633,
      "Sebastian": 4634,
      "##ines": 4635,
      "Torino": 4636,
      "##vou": 4637,
      "##erna": 4638,
      "##jä": 4639,
      "##form": 4640,
      "Box": 4641,
      "Original": 4642,
      "Magic": 4643,
      "tv": 4644,
      "OL": 4645,
      "nombreuses": 4646,
      "Mississippi": 4647,
      "Urban": 4648,
      "index": 4649,
      "aid": 4650,
      "##rate": 4651,
      "Alfonso": 4652,
      "##zt": 4653,
      "##rem": 4654,
      "Australien": 4655,
      "##ridae": 4656,
      "##hon": 4657,
      "Bird": 4658,
      "application": 4659,
      "Mi": 4660,
      "##bos": 4661,
      "##ball": 4662,
      "sister": 4663,
      "Roland": 4664,
      "147": 4665,
      "rugby": 4666,
      "Wagner": 4667,
      "meeting": 4668,
      "relations": 4669,
      "lot": 4670,
      "kur": 4671,
      "act": 4672,
      "altitude": 4673,
      "Harrison": 4674,
      "deve": 4675,
      "Knight": 4676,
      "Ligue": 4677,
      "Geographic": 4678,
      "185": 4679,
      "villa": 4680,
      "note": 4681,
      "multiple": 4682,
      "Alabama": 4683,
      "rus": 4684,
      "extra": 4685,
      "Dennis": 4686,
      "Ralph": 4687,
      "Ukraine": 4688,
      "142": 4689,
      "Shakespeare": 4690,
      "Publications": 4691,
      "notes": 4692,
      "Terry": 4693,
      "##hes": 4694,
      "Mitchell": 4695,
      "hin": 4696,
      "deal": 4697,
      "Unit": 4698,
      "##nem": 4699,
      "Prime": 4700,
      "##icus": 4701,
      "##ace": 4702,
      "Base": 4703,
      "Isabel": 4704,
      "grâce": 4705,
      "Abraham": 4706,
      "##ug": 4707,
      "Mans": 4708,
      "##gn": 4709,
      "Henrik": 4710,
      "capitale": 4711,
      "directeur": 4712,
      "##iano": 4713,
      "Osten": 4714,
      "##stra": 4715,
      "Laurent": 4716,
      "Zürich": 4717,
      "##ep": 4718,
      "##stu": 4719,
      "Dick": 4720,
      "Hier": 4721,
      "##die": 4722,
      "##jn": 4723,
      "##nsa": 4724,
      "Dallas": 4725,
      "Queensland": 4726,
      "versi": 4727,
      "Hughes": 4728,
      "##ére": 4729,
      "Camp": 4730,
      "Kaiser": 4731,
      "##kk": 4732,
      "comte": 4733,
      "native": 4734,
      "Din": 4735,
      "gare": 4736,
      "##cem": 4737,
      "canton": 4738,
      "subject": 4739,
      "##air": 4740,
      "succès": 4741,
      "##dea": 4742,
      "Hunter": 4743,
      "##lja": 4744,
      "tradition": 4745,
      "##qué": 4746,
      "##cca": 4747,
      "Hi": 4748,
      "Nancy": 4749,
      "##rá": 4750,
      "Novi": 4751,
      "Control": 4752,
      "##pas": 4753,
      "##oe": 4754,
      "hau": 4755,
      "Rick": 4756,
      "##sat": 4757,
      "##ís": 4758,
      "1798": 4759,
      "pouvoir": 4760,
      "Tu": 4761,
      "Singles": 4762,
      "campus": 4763,
      "diri": 4764,
      "Selon": 4765,
      "##tone": 4766,
      "##bet": 4767,
      "##oz": 4768,
      "Tommy": 4769,
      "UA": 4770,
      "amo": 4771,
      "##nic": 4772,
      "tenir": 4773,
      "##teen": 4774,
      "pr": 4775,
      "Sint": 4776,
      "##als": 4777,
      "##sas": 4778,
      "longer": 4779,
      "stat": 4780,
      "Boeing": 4781,
      "NFL": 4782,
      "##ores": 4783,
      "Fe": 4784,
      "Perry": 4785,
      "##dh": 4786,
      "pat": 4787,
      "##ppen": 4788,
      "Independent": 4789,
      "Jules": 4790,
      "ancienne": 4791,
      "##hof": 4792,
      "Guardian": 4793,
      "engl": 4794,
      "question": 4795,
      "##oso": 4796,
      "##rou": 4797,
      "Ho": 4798,
      "diversi": 4799,
      "##yla": 4800,
      "Services": 4801,
      "Note": 4802,
      "203": 4803,
      "dus": 4804,
      "fill": 4805,
      "##eda": 4806,
      "##yt": 4807,
      "politico": 4808,
      "##tein": 4809,
      "##rg": 4810,
      "pages": 4811,
      "nota": 4812,
      "##nz": 4813,
      "meno": 4814,
      "Ricardo": 4815,
      "##see": 4816,
      "##rka": 4817,
      "côté": 4818,
      "##ên": 4819,
      "##èn": 4820,
      "Foreign": 4821,
      "Carmen": 4822,
      "programma": 4823,
      "##lot": 4824,
      "jer": 4825,
      "##ako": 4826,
      "##iers": 4827,
      "1799": 4828,
      "Re": 4829,
      "##10": 4830,
      "##por": 4831,
      "##isation": 4832,
      "##ól": 4833,
      "##osi": 4834,
      "Leonard": 4835,
      "##tien": 4836,
      "##of": 4837,
      "##ole": 4838,
      "Prima": 4839,
      "151": 4840,
      "développement": 4841,
      "##yang": 4842,
      "##gua": 4843,
      "##mana": 4844,
      "Danny": 4845,
      "protection": 4846,
      "Rey": 4847,
      "furent": 4848,
      "##unda": 4849,
      "création": 4850,
      "##tate": 4851,
      "cô": 4852,
      "1791": 4853,
      "sort": 4854,
      "Ron": 4855,
      "ultima": 4856,
      "##ët": 4857,
      "mère": 4858,
      "Rob": 4859,
      "##head": 4860,
      "phase": 4861,
      "##wn": 4862,
      "virus": 4863,
      "##gie": 4864,
      "vest": 4865,
      "159": 4866,
      "Unter": 4867,
      "156": 4868,
      "dance": 4869,
      "##pur": 4870,
      "##trice": 4871,
      "Dei": 4872,
      "sik": 4873,
      "1400": 4874,
      "##lage": 4875,
      "168": 4876,
      "zones": 4877,
      "your": 4878,
      "Baron": 4879,
      "Alain": 4880,
      "seul": 4881,
      "Comics": 4882,
      "Never": 4883,
      "##zas": 4884,
      "fiction": 4885,
      "assim": 4886,
      "##anie": 4887,
      "Schloss": 4888,
      "##ume": 4889,
      "Naval": 4890,
      "loi": 4891,
      "Felipe": 4892,
      "Limited": 4893,
      "##dou": 4894,
      "154": 4895,
      "1797": 4896,
      "pois": 4897,
      "Frauen": 4898,
      "Notre": 4899,
      "##cco": 4900,
      "azt": 4901,
      "Dublin": 4902,
      "##uz": 4903,
      "Ocean": 4904,
      "bo": 4905,
      "sala": 4906,
      "stock": 4907,
      "sou": 4908,
      "stop": 4909,
      "singles": 4910,
      "##maa": 4911,
      "##chte": 4912,
      "##gem": 4913,
      "César": 4914,
      "##lara": 4915,
      "Mercedes": 4916,
      "cadre": 4917,
      "prison": 4918,
      "Uruguay": 4919,
      "Classic": 4920,
      "Emma": 4921,
      "Singh": 4922,
      "Orange": 4923,
      "##stad": 4924,
      "330": 4925,
      "Ye": 4926,
      "religion": 4927,
      "EM": 4928,
      "##lum": 4929,
      "##xi": 4930,
      "call": 4931,
      "rond": 4932,
      "##has": 4933,
      "##bank": 4934,
      "##off": 4935,
      "Ferrari": 4936,
      "Krieg": 4937,
      "Alaska": 4938,
      "##iet": 4939,
      "##uch": 4940,
      "laquelle": 4941,
      "Flora": 4942,
      "##jana": 4943,
      "Maine": 4944,
      "Six": 4945,
      "existence": 4946,
      "Graf": 4947,
      "pilot": 4948,
      "Guillaume": 4949,
      "populations": 4950,
      "##rica": 4951,
      "Masters": 4952,
      "races": 4953,
      "Torre": 4954,
      "##unt": 4955,
      "Congo": 4956,
      "contact": 4957,
      "Metro": 4958,
      "pl": 4959,
      "connu": 4960,
      "deu": 4961,
      "Buch": 4962,
      "##ub": 4963,
      "devant": 4964,
      "Medicine": 4965,
      "Berliner": 4966,
      "##wald": 4967,
      "550": 4968,
      "Computer": 4969,
      "terre": 4970,
      "##ght": 4971,
      "sat": 4972,
      "Bar": 4973,
      "massa": 4974,
      "Peace": 4975,
      "##wel": 4976,
      "##ved": 4977,
      "raz": 4978,
      "##oy": 4979,
      "versions": 4980,
      "##tok": 4981,
      "Oriental": 4982,
      "mag": 4983,
      "ball": 4984,
      "201": 4985,
      "##yr": 4986,
      "##platz": 4987,
      "Burg": 4988,
      "agit": 4989,
      "##ř": 4990,
      "écrit": 4991,
      "cell": 4992,
      "Hand": 4993,
      "Anders": 4994,
      "Side": 4995,
      "Mare": 4996,
      "stars": 4997,
      "vila": 4998,
      "##fu": 4999,
      "Philippines": 5000,
      "union": 5001,
      "##rian": 5002,
      "Colin": 5003,
      "##bit": 5004,
      "Production": 5005,
      "dû": 5006,
      "Introduction": 5007,
      "allo": 5008,
      "architecture": 5009,
      "domaine": 5010,
      "Historic": 5011,
      "##band": 5012,
      "##kap": 5013,
      "FA": 5014,
      "quand": 5015,
      "##nska": 5016,
      "Martínez": 5017,
      "##ann": 5018,
      "gouf": 5019,
      "Federico": 5020,
      "université": 5021,
      "1796": 5022,
      "Meister": 5023,
      "##iger": 5024,
      "command": 5025,
      "siège": 5026,
      "##mir": 5027,
      "Lanka": 5028,
      "Rica": 5029,
      "nave": 5030,
      "225": 5031,
      "Lane": 5032,
      "1775": 5033,
      "Hugh": 5034,
      "Theo": 5035,
      "##ún": 5036,
      "ceux": 5037,
      "##dere": 5038,
      "205": 5039,
      "Sánchez": 5040,
      "##cz": 5041,
      "Joachim": 5042,
      "##rkan": 5043,
      "bal": 5044,
      "##nidae": 5045,
      "##kka": 5046,
      "##ös": 5047,
      "vivo": 5048,
      "locale": 5049,
      "moi": 5050,
      "boli": 5051,
      "Due": 5052,
      "##iki": 5053,
      "##ick": 5054,
      "vert": 5055,
      "Seattle": 5056,
      "Willem": 5057,
      "167": 5058,
      "##rana": 5059,
      "##nat": 5060,
      "##recht": 5061,
      "Université": 5062,
      "##bro": 5063,
      "Security": 5064,
      "Karel": 5065,
      "mam": 5066,
      "##imi": 5067,
      "##yk": 5068,
      "tennis": 5069,
      "Hudson": 5070,
      "border": 5071,
      "fans": 5072,
      "##oko": 5073,
      "Lors": 5074,
      "vann": 5075,
      "##kie": 5076,
      "Grammy": 5077,
      "##ggi": 5078,
      "Kate": 5079,
      "1300": 5080,
      "couple": 5081,
      "prior": 5082,
      "Both": 5083,
      "##idas": 5084,
      "Jo": 5085,
      "##gli": 5086,
      "aire": 5087,
      "Montreal": 5088,
      "Dam": 5089,
      "##zos": 5090,
      "assistant": 5091,
      "Edgar": 5092,
      "Giorgio": 5093,
      "##onia": 5094,
      "hall": 5095,
      "Rico": 5096,
      "##gut": 5097,
      "MS": 5098,
      "Ich": 5099,
      "##ché": 5100,
      "157": 5101,
      "##dent": 5102,
      "##lingen": 5103,
      "##ctor": 5104,
      "press": 5105,
      "hockey": 5106,
      "##scher": 5107,
      "Belgique": 5108,
      "##nça": 5109,
      "##onal": 5110,
      "##tou": 5111,
      "sui": 5112,
      "##eb": 5113,
      "Energy": 5114,
      "figures": 5115,
      "##00": 5116,
      "Seven": 5117,
      "Newton": 5118,
      "sam": 5119,
      "##rra": 5120,
      "##ars": 5121,
      "Vicente": 5122,
      "##ppe": 5123,
      "allemand": 5124,
      "##water": 5125,
      "Phoenix": 5126,
      "##lam": 5127,
      "Cook": 5128,
      "bridge": 5129,
      "##gg": 5130,
      "mile": 5131,
      "650": 5132,
      "Ved": 5133,
      "290": 5134,
      "Electric": 5135,
      "raison": 5136,
      "Bush": 5137,
      "##vil": 5138,
      "Angola": 5139,
      "viz": 5140,
      "##gna": 5141,
      "vocal": 5142,
      "##mina": 5143,
      "161": 5144,
      "Batman": 5145,
      "Jesús": 5146,
      "##aj": 5147,
      "##ove": 5148,
      "Software": 5149,
      "Marvel": 5150,
      "##cken": 5151,
      "##uo": 5152,
      "Operation": 5153,
      "Emmanuel": 5154,
      "Zum": 5155,
      "Feb": 5156,
      "cabo": 5157,
      "Delta": 5158,
      "##gde": 5159,
      "Take": 5160,
      "Solo": 5161,
      "##nud": 5162,
      "fora": 5163,
      "Action": 5164,
      "##mme": 5165,
      "état": 5166,
      "Drama": 5167,
      "interview": 5168,
      "##ssen": 5169,
      "Teresa": 5170,
      "opposition": 5171,
      "##lje": 5172,
      "Bas": 5173,
      "nim": 5174,
      "Rom": 5175,
      "158": 5176,
      "Sus": 5177,
      "Braun": 5178,
      "multi": 5179,
      "sing": 5180,
      "Caroline": 5181,
      "Galerie": 5182,
      "##ε": 5183,
      "163": 5184,
      "dernière": 5185,
      "Theory": 5186,
      "##straße": 5187,
      "SK": 5188,
      "Via": 5189,
      "sortie": 5190,
      "##lina": 5191,
      "##rda": 5192,
      "Sean": 5193,
      "PS": 5194,
      "sien": 5195,
      "permanent": 5196,
      "Beatles": 5197,
      "Type": 5198,
      "##gate": 5199,
      "Petit": 5200,
      "##lica": 5201,
      "##nze": 5202,
      "##aya": 5203,
      "impact": 5204,
      "SA": 5205,
      "##bas": 5206,
      "passa": 5207,
      "pole": 5208,
      "##rst": 5209,
      "##fo": 5210,
      "##jin": 5211,
      "Ba": 5212,
      "occasion": 5213,
      "Helen": 5214,
      "attention": 5215,
      "Cleveland": 5216,
      "Ward": 5217,
      "Grace": 5218,
      "tropical": 5219,
      "Sachsen": 5220,
      "Klaus": 5221,
      "##ike": 5222,
      "Afrique": 5223,
      "voix": 5224,
      "Jennifer": 5225,
      "Depuis": 5226,
      "basso": 5227,
      "renda": 5228,
      "déjà": 5229,
      "Edinburgh": 5230,
      "manga": 5231,
      "Sophie": 5232,
      "passe": 5233,
      "Conform": 5234,
      "Sarajevo": 5235,
      "comes": 5236,
      "Baltimore": 5237,
      "Sofia": 5238,
      "Tower": 5239,
      "plants": 5240,
      "##dik": 5241,
      "##vam": 5242,
      "##wr": 5243,
      "machine": 5244,
      "Capital": 5245,
      "Pero": 5246,
      "Dakota": 5247,
      "Bundesliga": 5248,
      "torre": 5249,
      "Eduard": 5250,
      "Minh": 5251,
      "##rina": 5252,
      "Sweet": 5253,
      "##meister": 5254,
      "Chelsea": 5255,
      "Te": 5256,
      "##row": 5257,
      "milieu": 5258,
      "Formula": 5259,
      "##rius": 5260,
      "Boris": 5261,
      "Potter": 5262,
      "Tra": 5263,
      "Nguyễn": 5264,
      "Ronald": 5265,
      "256": 5266,
      "##list": 5267,
      "Round": 5268,
      "##iros": 5269,
      "bl": 5270,
      "Run": 5271,
      "Luke": 5272,
      "Sex": 5273,
      "##ory": 5274,
      "##iar": 5275,
      "166": 5276,
      "Future": 5277,
      "box": 5278,
      "##lit": 5279,
      "##noj": 5280,
      "Théâtre": 5281,
      "Nation": 5282,
      "##vik": 5283,
      "product": 5284,
      "Mundo": 5285,
      "Vancouver": 5286,
      "sens": 5287,
      "##ship": 5288,
      "ring": 5289,
      "Ring": 5290,
      "femmes": 5291,
      "##tri": 5292,
      "Mart": 5293,
      "Lars": 5294,
      "164": 5295,
      "Wiener": 5296,
      "252": 5297,
      "Vegas": 5298,
      "prendre": 5299,
      "##ök": 5300,
      "##hez": 5301,
      "##ded": 5302,
      "##uf": 5303,
      "##sation": 5304,
      "##ū": 5305,
      "Japon": 5306,
      "cut": 5307,
      "176": 5308,
      "Bretagne": 5309,
      "##cke": 5310,
      "##lata": 5311,
      "tin": 5312,
      "Building": 5313,
      "Ban": 5314,
      "fuit": 5315,
      "fit": 5316,
      "162": 5317,
      "Isaac": 5318,
      "Child": 5319,
      "dina": 5320,
      "Heritage": 5321,
      "##rico": 5322,
      "AB": 5323,
      "##psis": 5324,
      "217": 5325,
      "224": 5326,
      "4000": 5327,
      "Wide": 5328,
      "Holy": 5329,
      "Key": 5330,
      "chanson": 5331,
      "##hold": 5332,
      "Cameron": 5333,
      "Felix": 5334,
      "##enti": 5335,
      "IBM": 5336,
      "Canton": 5337,
      "ata": 5338,
      "joue": 5339,
      "##tation": 5340,
      "Hal": 5341,
      "technique": 5342,
      "rencontre": 5343,
      "Craig": 5344,
      "Emil": 5345,
      "##pte": 5346,
      "##uga": 5347,
      "initial": 5348,
      "meilleur": 5349,
      "206": 5350,
      "##üm": 5351,
      "Hawaii": 5352,
      "ala": 5353,
      "Connecticut": 5354,
      "##eid": 5355,
      "asi": 5356,
      "##łów": 5357,
      "chart": 5358,
      "participe": 5359,
      "coa": 5360,
      "##jat": 5361,
      "minute": 5362,
      "NBC": 5363,
      "Espagne": 5364,
      "Kane": 5365,
      "##lay": 5366,
      "Alessandro": 5367,
      "sorti": 5368,
      "Ouest": 5369,
      "table": 5370,
      "documents": 5371,
      "##ilo": 5372,
      "##OS": 5373,
      "##oj": 5374,
      "retour": 5375,
      "Rugby": 5376,
      "##rier": 5377,
      "##lade": 5378,
      "Store": 5379,
      "travers": 5380,
      "Transport": 5381,
      "Justin": 5382,
      "ailleurs": 5383,
      "195": 5384,
      "1780": 5385,
      "factor": 5386,
      "Again": 5387,
      "##enne": 5388,
      "Renault": 5389,
      "##hir": 5390,
      "1784": 5391,
      "além": 5392,
      "Door": 5393,
      "Cet": 5394,
      "##uro": 5395,
      "junior": 5396,
      "vel": 5397,
      "235": 5398,
      "##ock": 5399,
      "1787": 5400,
      "Holstein": 5401,
      "##cka": 5402,
      "dock": 5403,
      "208": 5404,
      "##ston": 5405,
      "##kes": 5406,
      "Agency": 5407,
      "Shaw": 5408,
      "##ters": 5409,
      "Alliance": 5410,
      "Forum": 5411,
      "sciences": 5412,
      "##stas": 5413,
      "##igo": 5414,
      "##gó": 5415,
      "172": 5416,
      "kata": 5417,
      "Brigade": 5418,
      "importance": 5419,
      "##rien": 5420,
      "lor": 5421,
      "Places": 5422,
      "182": 5423,
      "Plaza": 5424,
      "beaucoup": 5425,
      "##mma": 5426,
      "##jska": 5427,
      "##rni": 5428,
      "Bee": 5429,
      "Chi": 5430,
      "##hos": 5431,
      "1783": 5432,
      "Côte": 5433,
      "##rée": 5434,
      "grade": 5435,
      "##aar": 5436,
      "##este": 5437,
      "travaux": 5438,
      "Alter": 5439,
      "cos": 5440,
      "177": 5441,
      "luz": 5442,
      "##że": 5443,
      "Butler": 5444,
      "Bonn": 5445,
      "##mont": 5446,
      "##etti": 5447,
      "##med": 5448,
      "Kings": 5449,
      "remporte": 5450,
      "##lak": 5451,
      "lies": 5452,
      "Administration": 5453,
      "##iny": 5454,
      "VF": 5455,
      "master": 5456,
      "Palace": 5457,
      "Éditions": 5458,
      "inter": 5459,
      "212": 5460,
      "Cristo": 5461,
      "Was": 5462,
      "##kem": 5463,
      "mass": 5464,
      "##àn": 5465,
      "Uma": 5466,
      "##ttu": 5467,
      "Nigeria": 5468,
      "215": 5469,
      "Spencer": 5470,
      "1788": 5471,
      "##ctus": 5472,
      "haut": 5473,
      "##fication": 5474,
      "213": 5475,
      "musicale": 5476,
      "Metropolitan": 5477,
      "Calais": 5478,
      "169": 5479,
      "##fel": 5480,
      "Hope": 5481,
      "##ess": 5482,
      "##tidae": 5483,
      "rivière": 5484,
      "candidate": 5485,
      "Jakob": 5486,
      "basketball": 5487,
      "##elo": 5488,
      "actions": 5489,
      "efforts": 5490,
      "##ése": 5491,
      "##zzi": 5492,
      "Hansen": 5493,
      "Grupo": 5494,
      "##oir": 5495,
      "Sergio": 5496,
      "Study": 5497,
      "Glasgow": 5498,
      "selle": 5499,
      "Wallace": 5500,
      "##ago": 5501,
      "##ří": 5502,
      "produit": 5503,
      "Hell": 5504,
      "jamais": 5505,
      "202": 5506,
      "grandi": 5507,
      "Domingo": 5508,
      "##iji": 5509,
      "Chen": 5510,
      "##vina": 5511,
      "big": 5512,
      "Campo": 5513,
      "recherche": 5514,
      "Challenge": 5515,
      "Tartu": 5516,
      "commence": 5517,
      "##pio": 5518,
      "##lies": 5519,
      "hal": 5520,
      "Youth": 5521,
      "Rainer": 5522,
      "##skie": 5523,
      "##ór": 5524,
      "Berkeley": 5525,
      "##alo": 5526,
      "Organisation": 5527,
      "Linda": 5528,
      "##ees": 5529,
      "frère": 5530,
      "##eit": 5531,
      "##ple": 5532,
      "Works": 5533,
      "consiste": 5534,
      "##dde": 5535,
      "204": 5536,
      "##rf": 5537,
      "##vali": 5538,
      "corte": 5539,
      "##²": 5540,
      "Trust": 5541,
      "seconde": 5542,
      "nation": 5543,
      "##care": 5544,
      "ud": 5545,
      "Productions": 5546,
      "Kiss": 5547,
      "MM": 5548,
      "Short": 5549,
      "Princess": 5550,
      "Helena": 5551,
      "380": 5552,
      "##itu": 5553,
      "Herman": 5554,
      "Roll": 5555,
      "Rights": 5556,
      "kilomètres": 5557,
      "indica": 5558,
      "##enden": 5559,
      "##ivi": 5560,
      "Forces": 5561,
      "petite": 5562,
      "seulement": 5563,
      "Freedom": 5564,
      "Facebook": 5565,
      "##tten": 5566,
      "##bora": 5567,
      "pai": 5568,
      "Elena": 5569,
      "188": 5570,
      "Hart": 5571,
      "István": 5572,
      "données": 5573,
      "Diana": 5574,
      "Kenneth": 5575,
      "Brooklyn": 5576,
      "désa": 5577,
      "Olivier": 5578,
      "langue": 5579,
      "Gregory": 5580,
      "maximum": 5581,
      "##hs": 5582,
      "##cima": 5583,
      "179": 5584,
      "##ști": 5585,
      "##sco": 5586,
      "340": 5587,
      "##gens": 5588,
      "Deux": 5589,
      "Utah": 5590,
      "parfois": 5591,
      "donna": 5592,
      "##rati": 5593,
      "Murphy": 5594,
      "bois": 5595,
      "num": 5596,
      "Greg": 5597,
      "Player": 5598,
      "##kla": 5599,
      "211": 5600,
      "baseball": 5601,
      "##ome": 5602,
      "##iten": 5603,
      "##nji": 5604,
      "ton": 5605,
      "ll": 5606,
      "##aki": 5607,
      "##ioni": 5608,
      "techniques": 5609,
      "178": 5610,
      "dess": 5611,
      "171": 5612,
      "Tamil": 5613,
      "##bla": 5614,
      "images": 5615,
      "Test": 5616,
      "Theodor": 5617,
      "##gent": 5618,
      "##js": 5619,
      "eux": 5620,
      "183": 5621,
      "##dale": 5622,
      "Marne": 5623,
      "servir": 5624,
      "193": 5625,
      "quel": 5626,
      "##ible": 5627,
      "##com": 5628,
      "Leopold": 5629,
      "181": 5630,
      "##ulo": 5631,
      "##rca": 5632,
      "NY": 5633,
      "##èl": 5634,
      "##sza": 5635,
      "1785": 5636,
      "ID": 5637,
      "crime": 5638,
      "##iere": 5639,
      "SP": 5640,
      "##bon": 5641,
      "Leonardo": 5642,
      "argent": 5643,
      "##owi": 5644,
      "Squadron": 5645,
      "##ants": 5646,
      "alternative": 5647,
      "Commonwealth": 5648,
      "partire": 5649,
      "pare": 5650,
      "##ensis": 5651,
      "##rno": 5652,
      "Rebecca": 5653,
      "1776": 5654,
      "##eel": 5655,
      "##ldi": 5656,
      "duc": 5657,
      "##ther": 5658,
      "##ló": 5659,
      "savo": 5660,
      "commerce": 5661,
      "##schule": 5662,
      "Alla": 5663,
      "##20": 5664,
      "Jonas": 5665,
      "journalist": 5666,
      "##vent": 5667,
      "posterior": 5668,
      "##oo": 5669,
      "équipes": 5670,
      "184": 5671,
      "Venezia": 5672,
      "Bond": 5673,
      "##år": 5674,
      "catalog": 5675,
      "Happy": 5676,
      "trains": 5677,
      "Avec": 5678,
      "Local": 5679,
      "Ice": 5680,
      "##rol": 5681,
      "Source": 5682,
      "grands": 5683,
      "Fantasy": 5684,
      "##nation": 5685,
      "Birmingham": 5686,
      "acteur": 5687,
      "Lucky": 5688,
      "222": 5689,
      "passage": 5690,
      "##mark": 5691,
      "cancer": 5692,
      "Frans": 5693,
      "##gis": 5694,
      "##nsi": 5695,
      "##bol": 5696,
      "207": 5697,
      "Torres": 5698,
      "Allah": 5699,
      "Harvey": 5700,
      "##zon": 5701,
      "performances": 5702,
      "occidental": 5703,
      "##tva": 5704,
      "sob": 5705,
      "János": 5706,
      "##ème": 5707,
      "##ām": 5708,
      "174": 5709,
      "Tot": 5710,
      "Race": 5711,
      "##arna": 5712,
      "Conseil": 5713,
      "romano": 5714,
      "Auguste": 5715,
      "particulier": 5716,
      "##par": 5717,
      "Gene": 5718,
      "Titre": 5719,
      "tat": 5720,
      "bataille": 5721,
      "Alta": 5722,
      "Oh": 5723,
      "Petersburg": 5724,
      "##nent": 5725,
      "FK": 5726,
      "Mind": 5727,
      "##pos": 5728,
      "173": 5729,
      "Orleans": 5730,
      "##jus": 5731,
      "Ain": 5732,
      "Wind": 5733,
      "##lare": 5734,
      "Île": 5735,
      "##tera": 5736,
      "##cina": 5737,
      "##isé": 5738,
      "197": 5739,
      "Javier": 5740,
      "##ér": 5741,
      "théâtre": 5742,
      "quelle": 5743,
      "bon": 5744,
      "Klein": 5745,
      "nouvelles": 5746,
      "##fte": 5747,
      "##lls": 5748,
      "##chu": 5749,
      "##tiques": 5750,
      "##dora": 5751,
      "##ffer": 5752,
      "Aircraft": 5753,
      "##alt": 5754,
      "Senior": 5755,
      "Indien": 5756,
      "abord": 5757,
      "Upper": 5758,
      "Marx": 5759,
      "oriental": 5760,
      "Clarke": 5761,
      "Provence": 5762,
      "historique": 5763,
      "pont": 5764,
      "Magnus": 5765,
      "ina": 5766,
      "Nombre": 5767,
      "Luna": 5768,
      "##yar": 5769,
      "##ossa": 5770,
      "##eron": 5771,
      "Heaven": 5772,
      "Uni": 5773,
      "Angelo": 5774,
      "Ted": 5775,
      "##gere": 5776,
      "##erer": 5777,
      "Swiss": 5778,
      "AD": 5779,
      "Musée": 5780,
      "##nau": 5781,
      "duo": 5782,
      "Price": 5783,
      "ju": 5784,
      "Bowl": 5785,
      "extension": 5786,
      "conta": 5787,
      "Xbox": 5788,
      "communauté": 5789,
      "Jose": 5790,
      "##asa": 5791,
      "SR": 5792,
      "##ovat": 5793,
      "Baptiste": 5794,
      "##inu": 5795,
      "wi": 5796,
      "Rangers": 5797,
      "##fort": 5798,
      "card": 5799,
      "objet": 5800,
      "SE": 5801,
      "##idea": 5802,
      "Carol": 5803,
      "Common": 5804,
      "Wu": 5805,
      "Once": 5806,
      "Creative": 5807,
      "potential": 5808,
      "Sara": 5809,
      "##aron": 5810,
      "Clara": 5811,
      "##rze": 5812,
      "gminy": 5813,
      "gun": 5814,
      "Soc": 5815,
      "Pete": 5816,
      "bolo": 5817,
      "Armee": 5818,
      "Albums": 5819,
      "Friends": 5820,
      "Manhattan": 5821,
      "Vila": 5822,
      "Falls": 5823,
      "Reserve": 5824,
      "##pta": 5825,
      "##uni": 5826,
      "##buch": 5827,
      "formal": 5828,
      "##ery": 5829,
      "aide": 5830,
      "Nell": 5831,
      "sole": 5832,
      "480": 5833,
      "dun": 5834,
      "Gerhard": 5835,
      "Amy": 5836,
      "##juk": 5837,
      "Julian": 5838,
      "##but": 5839,
      "promotion": 5840,
      "##eto": 5841,
      "##ode": 5842,
      "##zne": 5843,
      "positions": 5844,
      "Grund": 5845,
      "file": 5846,
      "##oka": 5847,
      "aurait": 5848,
      "espèces": 5849,
      "bases": 5850,
      "dix": 5851,
      "##ík": 5852,
      "américaine": 5853,
      "187": 5854,
      "##rov": 5855,
      "longitud": 5856,
      "##zan": 5857,
      "Noord": 5858,
      "Notes": 5859,
      "Paz": 5860,
      "##gle": 5861,
      "OF": 5862,
      "##iad": 5863,
      "Landes": 5864,
      "punk": 5865,
      "blue": 5866,
      "##iidae": 5867,
      "Malta": 5868,
      "Auto": 5869,
      "vant": 5870,
      "utilisé": 5871,
      "Toledo": 5872,
      "##éu": 5873,
      "##uden": 5874,
      "surtout": 5875,
      "Florence": 5876,
      "##ény": 5877,
      "Rain": 5878,
      "Philipp": 5879,
      "186": 5880,
      "##lma": 5881,
      "Change": 5882,
      "##nium": 5883,
      "##stone": 5884,
      "##sha": 5885,
      "parmi": 5886,
      "Dog": 5887,
      "Pod": 5888,
      "équipements": 5889,
      "SPD": 5890,
      "Irlanda": 5891,
      "Through": 5892,
      "Nash": 5893,
      "Finale": 5894,
      "Lieutenant": 5895,
      "autour": 5896,
      "urban": 5897,
      "##eten": 5898,
      "Autor": 5899,
      "Sci": 5900,
      "221": 5901,
      "Stein": 5902,
      "199": 5903,
      "Halle": 5904,
      "Musical": 5905,
      "##ln": 5906,
      "##nova": 5907,
      "Ses": 5908,
      "##lda": 5909,
      "pass": 5910,
      "1100": 5911,
      "Madison": 5912,
      "209": 5913,
      "Heinz": 5914,
      "Generation": 5915,
      "construit": 5916,
      "Pink": 5917,
      "Rogers": 5918,
      "##enta": 5919,
      "except": 5920,
      "Alejandro": 5921,
      "principe": 5922,
      "Bahn": 5923,
      "blanc": 5924,
      "##ray": 5925,
      "##ever": 5926,
      "Holmes": 5927,
      "Alexandra": 5928,
      "##km": 5929,
      "vis": 5930,
      "198": 5931,
      "Minas": 5932,
      "lac": 5933,
      "Liu": 5934,
      "1786": 5935,
      "brand": 5936,
      "Düsseldorf": 5937,
      "Christoph": 5938,
      "Sullivan": 5939,
      "##có": 5940,
      "1770": 5941,
      "##kia": 5942,
      "##con": 5943,
      "Right": 5944,
      "Off": 5945,
      "pou": 5946,
      "algo": 5947,
      "##rah": 5948,
      "sons": 5949,
      "Mobile": 5950,
      "expression": 5951,
      "##tit": 5952,
      "Atlético": 5953,
      "collaboration": 5954,
      "Where": 5955,
      "1750": 5956,
      "Académie": 5957,
      "189": 5958,
      "241": 5959,
      "Davies": 5960,
      "##ø": 5961,
      "terminal": 5962,
      "Call": 5963,
      "Ramón": 5964,
      "ibi": 5965,
      "parc": 5966,
      "##ép": 5967,
      "grave": 5968,
      "##zka": 5969,
      "quais": 5970,
      "Christine": 5971,
      "viel": 5972,
      "sets": 5973,
      "ig": 5974,
      "Miles": 5975,
      "2020": 5976,
      "##mai": 5977,
      "Executive": 5978,
      "##zni": 5979,
      "191": 5980,
      "Julio": 5981,
      "##isti": 5982,
      "réseau": 5983,
      "Mother": 5984,
      "Cinema": 5985,
      "##tif": 5986,
      "desse": 5987,
      "gut": 5988,
      "##ave": 5989,
      "Abdul": 5990,
      "##ense": 5991,
      "Full": 5992,
      "##eken": 5993,
      "Double": 5994,
      "secret": 5995,
      "##anza": 5996,
      "quartier": 5997,
      "loc": 5998,
      "Evolution": 5999,
      "créé": 6000,
      "196": 6001,
      "Morning": 6002,
      "216": 6003,
      "moral": 6004,
      "Serra": 6005,
      "Beck": 6006,
      "audio": 6007,
      "Nga": 6008,
      "Heidelberg": 6009,
      "Text": 6010,
      "historic": 6011,
      "join": 6012,
      "Punta": 6013,
      "XXI": 6014,
      "auteurs": 6015,
      "##cum": 6016,
      "##bou": 6017,
      "Jefferson": 6018,
      "##rés": 6019,
      "Eurovision": 6020,
      "Peak": 6021,
      "##onen": 6022,
      "Angleterre": 6023,
      "HC": 6024,
      "mouvement": 6025,
      "Córdoba": 6026,
      "monte": 6027,
      "214": 6028,
      "##rim": 6029,
      "Rachel": 6030,
      "say": 6031,
      "Xavier": 6032,
      "diffusion": 6033,
      "226": 6034,
      "MHz": 6035,
      "Wie": 6036,
      "épouse": 6037,
      "Lang": 6038,
      "Cole": 6039,
      "##uu": 6040,
      "Château": 6041,
      "540": 6042,
      "Pittsburgh": 6043,
      "##sberg": 6044,
      "Irak": 6045,
      "Beijing": 6046,
      "Schleswig": 6047,
      "László": 6048,
      "PR": 6049,
      "street": 6050,
      "##oti": 6051,
      "Parque": 6052,
      "Bros": 6053,
      "Dos": 6054,
      "Owen": 6055,
      "dessa": 6056,
      "Lu": 6057,
      "Virgin": 6058,
      "##ttes": 6059,
      "NCAA": 6060,
      "##eer": 6061,
      "Golf": 6062,
      "Pope": 6063,
      "##tino": 6064,
      "Ankara": 6065,
      "thu": 6066,
      "Yale": 6067,
      "personnel": 6068,
      "introduction": 6069,
      "##mak": 6070,
      "Storm": 6071,
      "275": 6072,
      "##rir": 6073,
      "Augustus": 6074,
      "rare": 6075,
      "Luxembourg": 6076,
      "##nir": 6077,
      "Neue": 6078,
      "mang": 6079,
      "##ével": 6080,
      "angol": 6081,
      "Koch": 6082,
      "##eng": 6083,
      "Adrian": 6084,
      "Organization": 6085,
      "##cé": 6086,
      "esti": 6087,
      "Gino": 6088,
      "##park": 6089,
      "232": 6090,
      "Command": 6091,
      "Hard": 6092,
      "Rural": 6093,
      "##late": 6094,
      "royal": 6095,
      "Arkansas": 6096,
      "##gues": 6097,
      "Première": 6098,
      "Car": 6099,
      "##bé": 6100,
      "##vie": 6101,
      "Portal": 6102,
      "parking": 6103,
      "Ruth": 6104,
      "Bass": 6105,
      "Pont": 6106,
      "310": 6107,
      "différents": 6108,
      "BMW": 6109,
      "Money": 6110,
      "##kle": 6111,
      "Pyrénées": 6112,
      "##tio": 6113,
      "##jal": 6114,
      "##gruppe": 6115,
      "##tare": 6116,
      "##entes": 6117,
      "255": 6118,
      "##rch": 6119,
      "gauche": 6120,
      "Stanford": 6121,
      "##nit": 6122,
      "##fan": 6123,
      "##dera": 6124,
      "Grey": 6125,
      "queste": 6126,
      "##dang": 6127,
      "Mercury": 6128,
      "##cada": 6129,
      "##enie": 6130,
      "##bourg": 6131,
      "Wasser": 6132,
      "Cap": 6133,
      "##uce": 6134,
      "##ington": 6135,
      "##uka": 6136,
      "True": 6137,
      "Bangladesh": 6138,
      "pris": 6139,
      "##ER": 6140,
      "Phillips": 6141,
      "##iant": 6142,
      "Église": 6143,
      "thi": 6144,
      "Mountains": 6145,
      "Walt": 6146,
      "pi": 6147,
      "prince": 6148,
      "##ages": 6149,
      "Jeanne": 6150,
      "Mason": 6151,
      "fonction": 6152,
      "IP": 6153,
      "prie": 6154,
      "##rów": 6155,
      "##sit": 6156,
      "Performance": 6157,
      "split": 6158,
      "Clinton": 6159,
      "##ied": 6160,
      "##rang": 6161,
      "370": 6162,
      "##vers": 6163,
      "##can": 6164,
      "leaders": 6165,
      "Sua": 6166,
      "Constitution": 6167,
      "compagnie": 6168,
      "Esto": 6169,
      "##ncy": 6170,
      "##jima": 6171,
      "Religion": 6172,
      "Nos": 6173,
      "##aine": 6174,
      "Jeux": 6175,
      "##sce": 6176,
      "Shanghai": 6177,
      "Food": 6178,
      "##sma": 6179,
      "Weekly": 6180,
      "##pers": 6181,
      "break": 6182,
      "Link": 6183,
      "##fy": 6184,
      "##ví": 6185,
      "##uli": 6186,
      "##iza": 6187,
      "Bachelor": 6188,
      "Bruxelles": 6189,
      "victoire": 6190,
      "honneur": 6191,
      "##kker": 6192,
      "##cular": 6193,
      "##wang": 6194,
      "Suisse": 6195,
      "420": 6196,
      "##assa": 6197,
      "##tea": 6198,
      "##kur": 6199,
      "rad": 6200,
      "Étienne": 6201,
      "Know": 6202,
      "Mozart": 6203,
      "dias": 6204,
      "campagne": 6205,
      "Internationale": 6206,
      "pari": 6207,
      "##cta": 6208,
      "Got": 6209,
      "Enrico": 6210,
      "hora": 6211,
      "##enberg": 6212,
      "##sman": 6213,
      "Twitter": 6214,
      "##light": 6215,
      "acid": 6216,
      "Cependant": 6217,
      "vari": 6218,
      "##eld": 6219,
      "Industrial": 6220,
      "Blake": 6221,
      "##lk": 6222,
      "##tors": 6223,
      "##iek": 6224,
      "##etto": 6225,
      "##lir": 6226,
      "##chter": 6227,
      "Piano": 6228,
      "AM": 6229,
      "britannique": 6230,
      "Alonso": 6231,
      "##bis": 6232,
      "instrument": 6233,
      "Tres": 6234,
      "seule": 6235,
      "Avery": 6236,
      "saint": 6237,
      "Aaron": 6238,
      "##dzie": 6239,
      "Case": 6240,
      "Sub": 6241,
      "Inter": 6242,
      "##aran": 6243,
      "Living": 6244,
      "##zak": 6245,
      "##ums": 6246,
      "Athletic": 6247,
      "##ents": 6248,
      "##rini": 6249,
      "238": 6250,
      "Paula": 6251,
      "Dylan": 6252,
      "##ives": 6253,
      "Montana": 6254,
      "habitat": 6255,
      "districts": 6256,
      "Erich": 6257,
      "223": 6258,
      "Edmund": 6259,
      "Palazzo": 6260,
      "Mali": 6261,
      "Trophy": 6262,
      "##aceae": 6263,
      "##anti": 6264,
      "offer": 6265,
      "Tor": 6266,
      "Claire": 6267,
      "Zeitung": 6268,
      "Bang": 6269,
      "musée": 6270,
      "gara": 6271,
      "Wikipédia": 6272,
      "Alt": 6273,
      "Joel": 6274,
      "Tal": 6275,
      "Armstrong": 6276,
      "obtient": 6277,
      "##inn": 6278,
      "##aro": 6279,
      "Shah": 6280,
      "194": 6281,
      "Spirit": 6282,
      "Résumé": 6283,
      "Bryan": 6284,
      "##tika": 6285,
      "1774": 6286,
      "obtenir": 6287,
      "Pradesh": 6288,
      "1782": 6289,
      "mari": 6290,
      "##lama": 6291,
      "##dien": 6292,
      "demande": 6293,
      "cura": 6294,
      "Plata": 6295,
      "Zhang": 6296,
      "cela": 6297,
      "torna": 6298,
      "Montréal": 6299,
      "##cchi": 6300,
      "CEO": 6301,
      "Weber": 6302,
      "##day": 6303,
      "visual": 6304,
      "Karen": 6305,
      "##eden": 6306,
      "##enen": 6307,
      "Simpson": 6308,
      "Stevens": 6309,
      "Dollar": 6310,
      "Away": 6311,
      "218": 6312,
      "cars": 6313,
      "##tag": 6314,
      "##icht": 6315,
      "Mayo": 6316,
      "civile": 6317,
      "conflict": 6318,
      "##bad": 6319,
      "Say": 6320,
      "##lna": 6321,
      "##ussa": 6322,
      "rive": 6323,
      "##esse": 6324,
      "ice": 6325,
      "Nevada": 6326,
      "MC": 6327,
      "440": 6328,
      "votes": 6329,
      "branch": 6330,
      "Monaco": 6331,
      "mobile": 6332,
      "composition": 6333,
      "Face": 6334,
      "varie": 6335,
      "institutions": 6336,
      "##kse": 6337,
      "Laut": 6338,
      "Zuid": 6339,
      "Scientific": 6340,
      "##ière": 6341,
      "##zte": 6342,
      "##tów": 6343,
      "girl": 6344,
      "pista": 6345,
      "##nsis": 6346,
      "Derby": 6347,
      "CA": 6348,
      "Todd": 6349,
      "##zna": 6350,
      "condition": 6351,
      "Pat": 6352,
      "Ahmad": 6353,
      "Next": 6354,
      "Symphony": 6355,
      "hour": 6356,
      "##owo": 6357,
      "Bristol": 6358,
      "##12": 6359,
      "##win": 6360,
      "Kongo": 6361,
      "publié": 6362,
      "##gina": 6363,
      "Ville": 6364,
      "##nad": 6365,
      "Rev": 6366,
      "##book": 6367,
      "Why": 6368,
      "Colonel": 6369,
      "premières": 6370,
      "rival": 6371,
      "oblast": 6372,
      "1772": 6373,
      "Comité": 6374,
      "lequel": 6375,
      "1778": 6376,
      "armes": 6377,
      "##él": 6378,
      "##hte": 6379,
      "##wick": 6380,
      "hindi": 6381,
      "sociales": 6382,
      "plupart": 6383,
      "##ello": 6384,
      "##ote": 6385,
      "##ám": 6386,
      "2500": 6387,
      "expansion": 6388,
      "##rten": 6389,
      "Voice": 6390,
      "cependant": 6391,
      "##vien": 6392,
      "Romano": 6393,
      "Fine": 6394,
      "Map": 6395,
      "Saturday": 6396,
      "##rul": 6397,
      "Have": 6398,
      "##nka": 6399,
      "Reed": 6400,
      "Bernhard": 6401,
      "##bres": 6402,
      "Prof": 6403,
      "USD": 6404,
      "Kind": 6405,
      "##jev": 6406,
      "##rri": 6407,
      "##sun": 6408,
      "##nelle": 6409,
      "248": 6410,
      "Utrecht": 6411,
      "força": 6412,
      "Bible": 6413,
      "circuit": 6414,
      "conseil": 6415,
      "provincial": 6416,
      "dau": 6417,
      "hen": 6418,
      "##inga": 6419,
      "Fisher": 6420,
      "gene": 6421,
      "effort": 6422,
      "structures": 6423,
      "continua": 6424,
      "##yev": 6425,
      "Charts": 6426,
      "Col": 6427,
      "Number": 6428,
      "vous": 6429,
      "Ferenc": 6430,
      "850": 6431,
      "Marcos": 6432,
      "Greatest": 6433,
      "##ș": 6434,
      "Frederik": 6435,
      "tar": 6436,
      "##TA": 6437,
      "##rist": 6438,
      "1781": 6439,
      "pan": 6440,
      "foot": 6441,
      "##ations": 6442,
      "234": 6443,
      "##gono": 6444,
      "##tad": 6445,
      "Viktor": 6446,
      "Andrés": 6447,
      "Ángel": 6448,
      "Rei": 6449,
      "mor": 6450,
      "communication": 6451,
      "tandis": 6452,
      "Voor": 6453,
      "IF": 6454,
      "Panama": 6455,
      "##iser": 6456,
      "plantes": 6457,
      "##upa": 6458,
      "##esen": 6459,
      "1777": 6460,
      "Marseille": 6461,
      "##bot": 6462,
      "tome": 6463,
      "##coli": 6464,
      "##ckt": 6465,
      "##tom": 6466,
      "231": 6467,
      "accident": 6468,
      "frac": 6469,
      "archive": 6470,
      "Augusta": 6471,
      "Thomson": 6472,
      "##bek": 6473,
      "formes": 6474,
      "##ES": 6475,
      "russe": 6476,
      "Cat": 6477,
      "##uses": 6478,
      "Ellen": 6479,
      "DE": 6480,
      "Americans": 6481,
      "Gómez": 6482,
      "Mesa": 6483,
      "manière": 6484,
      "volumes": 6485,
      "##ws": 6486,
      "profit": 6487,
      "guide": 6488,
      "kar": 6489,
      "##ious": 6490,
      "##uno": 6491,
      "Cold": 6492,
      "##aste": 6493,
      "sept": 6494,
      "texte": 6495,
      "dark": 6496,
      "mini": 6497,
      "312": 6498,
      "Rita": 6499,
      "305": 6500,
      "Paraguay": 6501,
      "leadership": 6502,
      "Bern": 6503,
      "253": 6504,
      "##oc": 6505,
      "##cze": 6506,
      "##pora": 6507,
      "Gibson": 6508,
      "##usta": 6509,
      "##cza": 6510,
      "Rotterdam": 6511,
      "Late": 6512,
      "mesure": 6513,
      "Ya": 6514,
      "##iku": 6515,
      "look": 6516,
      "Oro": 6517,
      "document": 6518,
      "Hits": 6519,
      "Bordeaux": 6520,
      "Stage": 6521,
      "Diamond": 6522,
      "##nien": 6523,
      "##tka": 6524,
      "Cao": 6525,
      "Andre": 6526,
      "Insee": 6527,
      "##zor": 6528,
      "##née": 6529,
      "##oga": 6530,
      "amour": 6531,
      "isola": 6532,
      "super": 6533,
      "Istanbul": 6534,
      "Total": 6535,
      "Nielsen": 6536,
      "Drive": 6537,
      "Week": 6538,
      "##oru": 6539,
      "GP": 6540,
      "relation": 6541,
      "##tne": 6542,
      "##rma": 6543,
      "##itt": 6544,
      "##sey": 6545,
      "##pit": 6546,
      "Toulouse": 6547,
      "continues": 6548,
      "Legend": 6549,
      "Tage": 6550,
      "##lea": 6551,
      "##uru": 6552,
      "Emily": 6553,
      "##yu": 6554,
      "##mbo": 6555,
      "Honda": 6556,
      "budget": 6557,
      "CC": 6558,
      "##lash": 6559,
      "##lic": 6560,
      "##vant": 6561,
      "relative": 6562,
      "Convention": 6563,
      "territori": 6564,
      "##ition": 6565,
      "##lene": 6566,
      "Wells": 6567,
      "##ünde": 6568,
      "gh": 6569,
      "principalement": 6570,
      "Ini": 6571,
      "##zett": 6572,
      "239": 6573,
      "Raven": 6574,
      "Springs": 6575,
      "possède": 6576,
      "Foster": 6577,
      "##drag": 6578,
      "Ulrich": 6579,
      "264": 6580,
      "227": 6581,
      "responsable": 6582,
      "Tel": 6583,
      "artistes": 6584,
      "hip": 6585,
      "Portland": 6586,
      "Tales": 6587,
      "365": 6588,
      "##tha": 6589,
      "##kke": 6590,
      "375": 6591,
      "##eza": 6592,
      "Devil": 6593,
      "Hunt": 6594,
      "appelé": 6595,
      "Birds": 6596,
      "importants": 6597,
      "##dge": 6598,
      "##erie": 6599,
      "##xes": 6600,
      "Powell": 6601,
      "József": 6602,
      "Ka": 6603,
      "##nter": 6604,
      "baie": 6605,
      "Richmond": 6606,
      "SV": 6607,
      "properties": 6608,
      "val": 6609,
      "ort": 6610,
      "##ít": 6611,
      "##zem": 6612,
      "tax": 6613,
      "Eyes": 6614,
      "ro": 6615,
      "Ad": 6616,
      "Harald": 6617,
      "lago": 6618,
      "avaient": 6619,
      "Alberta": 6620,
      "##rski": 6621,
      "suivante": 6622,
      "signal": 6623,
      "##lung": 6624,
      "##cano": 6625,
      "Venus": 6626,
      "##logi": 6627,
      "##sini": 6628,
      "aga": 6629,
      "outra": 6630,
      "ait": 6631,
      "roll": 6632,
      "265": 6633,
      "##room": 6634,
      "mora": 6635,
      "Ahmed": 6636,
      "yards": 6637,
      "Industry": 6638,
      "##uhan": 6639,
      "##ellen": 6640,
      "Kultur": 6641,
      "Flight": 6642,
      "Nebraska": 6643,
      "Castilla": 6644,
      "##öt": 6645,
      "##oria": 6646,
      "liv": 6647,
      "1773": 6648,
      "Arsenal": 6649,
      "##ots": 6650,
      "##nae": 6651,
      "##rdo": 6652,
      "Labour": 6653,
      "262": 6654,
      "##hou": 6655,
      "Wing": 6656,
      "Crown": 6657,
      "##fat": 6658,
      "Nat": 6659,
      "Tyler": 6660,
      "Quan": 6661,
      "Tai": 6662,
      "Fiction": 6663,
      "##gra": 6664,
      "##elli": 6665,
      "Yves": 6666,
      "Annie": 6667,
      "Work": 6668,
      "228": 6669,
      "##wing": 6670,
      "##omo": 6671,
      "##niki": 6672,
      "Curtis": 6673,
      "Chemical": 6674,
      "##amen": 6675,
      "Jessica": 6676,
      "520": 6677,
      "##mond": 6678,
      "Tout": 6679,
      "joint": 6680,
      "##oh": 6681,
      "##board": 6682,
      "##nata": 6683,
      "Basketball": 6684,
      "jam": 6685,
      "rang": 6686,
      "Fair": 6687,
      "mg": 6688,
      "##éré": 6689,
      "chose": 6690,
      "##eh": 6691,
      "##iy": 6692,
      "capo": 6693,
      "243": 6694,
      "##uen": 6695,
      "soldats": 6696,
      "conquista": 6697,
      "occidentale": 6698,
      "##kers": 6699,
      "##fs": 6700,
      "##lés": 6701,
      "##gger": 6702,
      "##rom": 6703,
      "##dina": 6704,
      "##cato": 6705,
      "##fera": 6706,
      "##lav": 6707,
      "Normandie": 6708,
      "##ders": 6709,
      "causes": 6710,
      "Commander": 6711,
      "participation": 6712,
      "##î": 6713,
      "justice": 6714,
      "différentes": 6715,
      "Otte": 6716,
      "##mata": 6717,
      "Around": 6718,
      "Liebe": 6719,
      "Conrad": 6720,
      "Tree": 6721,
      "233": 6722,
      "##antes": 6723,
      "Nei": 6724,
      "Cohen": 6725,
      "RAF": 6726,
      "Nazi": 6727,
      "Miranda": 6728,
      "Schneider": 6729,
      "325": 6730,
      "variable": 6731,
      "lai": 6732,
      "Stadion": 6733,
      "##rile": 6734,
      "cycle": 6735,
      "voie": 6736,
      "245": 6737,
      "##šte": 6738,
      "lever": 6739,
      "Kid": 6740,
      "219": 6741,
      "élections": 6742,
      "Nie": 6743,
      "gain": 6744,
      "1760": 6745,
      "##nii": 6746,
      "Madame": 6747,
      "noir": 6748,
      "Tiger": 6749,
      "background": 6750,
      "Ridge": 6751,
      "##ugh": 6752,
      "##cent": 6753,
      "##ús": 6754,
      "Soccer": 6755,
      "##lane": 6756,
      "naval": 6757,
      "cal": 6758,
      "Norton": 6759,
      "resta": 6760,
      "##otta": 6761,
      "313": 6762,
      "Leslie": 6763,
      "présence": 6764,
      "##hem": 6765,
      "Jung": 6766,
      "Stories": 6767,
      "Hof": 6768,
      "1763": 6769,
      "Pearl": 6770,
      "##ief": 6771,
      "##ři": 6772,
      "patients": 6773,
      "##star": 6774,
      "Helmut": 6775,
      "##key": 6776,
      "Orlando": 6777,
      "établissements": 6778,
      "##zek": 6779,
      "##yat": 6780,
      "Android": 6781,
      "##uja": 6782,
      "Buffalo": 6783,
      "œuvres": 6784,
      "teu": 6785,
      "Madagascar": 6786,
      "Luca": 6787,
      "jeunes": 6788,
      "##igh": 6789,
      "Ziel": 6790,
      "##ahan": 6791,
      "##alla": 6792,
      "certaines": 6793,
      "##ond": 6794,
      "Kuala": 6795,
      "marque": 6796,
      "Hampshire": 6797,
      "Ca": 6798,
      "acres": 6799,
      "ven": 6800,
      "##isce": 6801,
      "České": 6802,
      "##onie": 6803,
      "##cate": 6804,
      "Stalin": 6805,
      "Infantry": 6806,
      "##selt": 6807,
      "Sr": 6808,
      "applications": 6809,
      "audience": 6810,
      "gisa": 6811,
      "Bennett": 6812,
      "##zone": 6813,
      "Kosovo": 6814,
      "Augusto": 6815,
      "Server": 6816,
      "##tul": 6817,
      "Josh": 6818,
      "295": 6819,
      "##gre": 6820,
      "instruments": 6821,
      "colonial": 6822,
      "##yor": 6823,
      "copies": 6824,
      "donné": 6825,
      "Loma": 6826,
      "Defense": 6827,
      "306": 6828,
      "##umu": 6829,
      "##tati": 6830,
      "##tog": 6831,
      "251": 6832,
      "##eres": 6833,
      "Emmy": 6834,
      "##eris": 6835,
      "##ew": 6836,
      "Verde": 6837,
      "##ops": 6838,
      "Beyond": 6839,
      "Match": 6840,
      "Nassau": 6841,
      "entreprise": 6842,
      "Palmer": 6843,
      "Mine": 6844,
      "##ij": 6845,
      "Ghost": 6846,
      "##ates": 6847,
      "Eo": 6848,
      "##ír": 6849,
      "Zero": 6850,
      "##führer": 6851,
      "Romeo": 6852,
      "Jun": 6853,
      "##ël": 6854,
      "graf": 6855,
      "##naire": 6856,
      "Glenn": 6857,
      "##cen": 6858,
      "Thai": 6859,
      "Gloria": 6860,
      "Darwin": 6861,
      "locales": 6862,
      "##rts": 6863,
      "229": 6864,
      "ap": 6865,
      "301": 6866,
      "##rman": 6867,
      "PTT": 6868,
      "terres": 6869,
      "prof": 6870,
      "##phone": 6871,
      "restaurant": 6872,
      "statue": 6873,
      "##vara": 6874,
      "##tés": 6875,
      "Illustrated": 6876,
      "##pper": 6877,
      "##dro": 6878,
      "254": 6879,
      "Edwin": 6880,
      "Concert": 6881,
      "430": 6882,
      "304": 6883,
      "##git": 6884,
      "Anti": 6885,
      "Ela": 6886,
      "##cation": 6887,
      "Germain": 6888,
      "Article": 6889,
      "##ště": 6890,
      "actrice": 6891,
      "##orn": 6892,
      "vive": 6893,
      "##atus": 6894,
      "suit": 6895,
      "236": 6896,
      "Vera": 6897,
      "professeur": 6898,
      "Hopkins": 6899,
      "Giacomo": 6900,
      "Hai": 6901,
      "##rida": 6902,
      "Dio": 6903,
      "##ś": 6904,
      "##bang": 6905,
      "Josep": 6906,
      "lorsque": 6907,
      "violence": 6908,
      "Father": 6909,
      "Honor": 6910,
      "Gérard": 6911,
      "hop": 6912,
      "architect": 6913,
      "Ibn": 6914,
      "Stefano": 6915,
      "##tr": 6916,
      "Bois": 6917,
      "Intel": 6918,
      "Kai": 6919,
      "##iens": 6920,
      "##ake": 6921,
      "int": 6922,
      "Tibet": 6923,
      "Solar": 6924,
      "désormais": 6925,
      "Seu": 6926,
      "Claudio": 6927,
      "Track": 6928,
      "410": 6929,
      "##tics": 6930,
      "télévisée": 6931,
      "##zzo": 6932,
      "##iam": 6933,
      "##stel": 6934,
      "propre": 6935,
      "Banks": 6936,
      "##inas": 6937,
      "##aw": 6938,
      "facto": 6939,
      "coi": 6940,
      "246": 6941,
      "##dium": 6942,
      "##dita": 6943,
      "Training": 6944,
      "##aries": 6945,
      "Ella": 6946,
      "usage": 6947,
      "##ńska": 6948,
      "Gil": 6949,
      "Then": 6950,
      "voit": 6951,
      "Anno": 6952,
      "composer": 6953,
      "##lidae": 6954,
      "Lucy": 6955,
      "##zki": 6956,
      "##ók": 6957,
      "Uno": 6958,
      "Rosario": 6959,
      "##verein": 6960,
      "outre": 6961,
      "minimum": 6962,
      "##rden": 6963,
      "hu": 6964,
      "##dura": 6965,
      "Fútbol": 6966,
      "##lov": 6967,
      "Room": 6968,
      "AFC": 6969,
      "##dí": 6970,
      "villes": 6971,
      "##inis": 6972,
      "Want": 6973,
      "##uca": 6974,
      "Pascal": 6975,
      "249": 6976,
      "##iah": 6977,
      "Eugène": 6978,
      "Hero": 6979,
      "Nagy": 6980,
      "cinéma": 6981,
      "Authority": 6982,
      "terrain": 6983,
      "moyenne": 6984,
      "intitulé": 6985,
      "Socorro": 6986,
      "commission": 6987,
      "Malcolm": 6988,
      "matchs": 6989,
      "UN": 6990,
      "ceinture": 6991,
      "Dawn": 6992,
      "épisodes": 6993,
      "Garcia": 6994,
      "Luc": 6995,
      "Gymnasium": 6996,
      "connue": 6997,
      "Belle": 6998,
      "Tang": 6999,
      "Artist": 7000,
      "Chem": 7001,
      "Alba": 7002,
      "##ég": 7003,
      "Beograd": 7004,
      "Nathan": 7005,
      "Globe": 7006,
      "Félix": 7007,
      "##ece": 7008,
      "Stan": 7009,
      "portion": 7010,
      "nuit": 7011,
      "Michele": 7012,
      "##lada": 7013,
      "##att": 7014,
      "Frédéric": 7015,
      "organ": 7016,
      "##stic": 7017,
      "Tá": 7018,
      "##tida": 7019,
      "##jai": 7020,
      "questions": 7021,
      "orientale": 7022,
      "##jt": 7023,
      "wall": 7024,
      "##ivos": 7025,
      "Díaz": 7026,
      "##anan": 7027,
      "Hardy": 7028,
      "euros": 7029,
      "##uin": 7030,
      "##liste": 7031,
      "##eck": 7032,
      "Nina": 7033,
      "Julien": 7034,
      "éditions": 7035,
      "272": 7036,
      "Comté": 7037,
      "petits": 7038,
      "unes": 7039,
      "proto": 7040,
      "##vole": 7041,
      "Make": 7042,
      "Orient": 7043,
      "Advanced": 7044,
      "Far": 7045,
      "Patricia": 7046,
      "##alan": 7047,
      "Bischof": 7048,
      "ratio": 7049,
      "reçoit": 7050,
      "Guitar": 7051,
      "Fund": 7052,
      "##graphie": 7053,
      "##lek": 7054,
      "conte": 7055,
      "suivant": 7056,
      "307": 7057,
      "sign": 7058,
      "Alfredo": 7059,
      "description": 7060,
      "##zés": 7061,
      "Vega": 7062,
      "##dek": 7063,
      "##tai": 7064,
      "élu": 7065,
      "##sida": 7066,
      "orchestra": 7067,
      "logements": 7068,
      "légales": 7069,
      "Beautiful": 7070,
      "1768": 7071,
      "Eugene": 7072,
      "droite": 7073,
      "Nuevo": 7074,
      "coup": 7075,
      "##toria": 7076,
      "ty": 7077,
      "Chuck": 7078,
      "invasion": 7079,
      "Private": 7080,
      "effective": 7081,
      "##lä": 7082,
      "visible": 7083,
      "Luther": 7084,
      "titular": 7085,
      "Richter": 7086,
      "##the": 7087,
      "Martha": 7088,
      "boy": 7089,
      "Pa": 7090,
      "fia": 7091,
      "##tge": 7092,
      "activité": 7093,
      "##rja": 7094,
      "arba": 7095,
      "Nice": 7096,
      "lieutenant": 7097,
      "brigade": 7098,
      "doctor": 7099,
      "##ilen": 7100,
      "##mmer": 7101,
      "iTunes": 7102,
      "IT": 7103,
      "guest": 7104,
      "##jk": 7105,
      "Oblast": 7106,
      "info": 7107,
      "##osta": 7108,
      "##kta": 7109,
      "257": 7110,
      "lama": 7111,
      "rouge": 7112,
      "##tern": 7113,
      "##jia": 7114,
      "##ffe": 7115,
      "##mb": 7116,
      "##halt": 7117,
      "##nam": 7118,
      "mata": 7119,
      "vue": 7120,
      "639": 7121,
      "Honduras": 7122,
      "Edge": 7123,
      "MW": 7124,
      "##uel": 7125,
      "Range": 7126,
      "##mic": 7127,
      "##gge": 7128,
      "Michelle": 7129,
      "arc": 7130,
      "Lorraine": 7131,
      "##hur": 7132,
      "Baseball": 7133,
      "groupes": 7134,
      "Jeremy": 7135,
      "##nds": 7136,
      "##dica": 7137,
      "##owski": 7138,
      "271": 7139,
      "##gat": 7140,
      "courses": 7141,
      "radar": 7142,
      "Comme": 7143,
      "##pon": 7144,
      "Berger": 7145,
      "trad": 7146,
      "##akan": 7147,
      "##IN": 7148,
      "##itus": 7149,
      "##qi": 7150,
      "##arten": 7151,
      "##SA": 7152,
      "Nicole": 7153,
      "Lion": 7154,
      "Dana": 7155,
      "Léon": 7156,
      "Que": 7157,
      "##down": 7158,
      "Sala": 7159,
      "sq": 7160,
      "Magdalena": 7161,
      "303": 7162,
      "bala": 7163,
      "##gni": 7164,
      "Start": 7165,
      "237": 7166,
      "Chine": 7167,
      "##ète": 7168,
      "mandat": 7169,
      "##illo": 7170,
      "##tory": 7171,
      "##verse": 7172,
      "##chy": 7173,
      "Continental": 7174,
      "Terre": 7175,
      "lau": 7176,
      "tao": 7177,
      "MP": 7178,
      "ray": 7179,
      "Jesse": 7180,
      "Montgomery": 7181,
      "Vista": 7182,
      "Omar": 7183,
      "disc": 7184,
      "##anu": 7185,
      "Maritime": 7186,
      "block": 7187,
      "333": 7188,
      "rio": 7189,
      "##eux": 7190,
      "FBI": 7191,
      "##čko": 7192,
      "plata": 7193,
      "##rane": 7194,
      "Marion": 7195,
      "MA": 7196,
      "rejoint": 7197,
      "UCI": 7198,
      "##gno": 7199,
      "##øy": 7200,
      "Liberty": 7201,
      "##iter": 7202,
      "460": 7203,
      "242": 7204,
      "##bing": 7205,
      "##lny": 7206,
      "##nten": 7207,
      "##ender": 7208,
      "Tam": 7209,
      "##hme": 7210,
      "1779": 7211,
      "Emilio": 7212,
      "huit": 7213,
      "##gren": 7214,
      "Munich": 7215,
      "axe": 7216,
      "##nci": 7217,
      "nouveaux": 7218,
      "Petra": 7219,
      "core": 7220,
      "EC": 7221,
      "Angela": 7222,
      "généralement": 7223,
      "Royaume": 7224,
      "Tennis": 7225,
      "##mans": 7226,
      "1740": 7227,
      "populaire": 7228,
      "288": 7229,
      "##lius": 7230,
      "##lava": 7231,
      "talent": 7232,
      "Albrecht": 7233,
      "ore": 7234,
      "##egen": 7235,
      "Communications": 7236,
      "finalement": 7237,
      "Dios": 7238,
      "maig": 7239,
      "##ware": 7240,
      "##cono": 7241,
      "Bien": 7242,
      "Steel": 7243,
      "rend": 7244,
      "EMI": 7245,
      "##ares": 7246,
      "##vez": 7247,
      "1753": 7248,
      "Welsh": 7249,
      "##dle": 7250,
      "Günther": 7251,
      "##nca": 7252,
      "bord": 7253,
      "Ainsi": 7254,
      "285": 7255,
      "##jah": 7256,
      "##stre": 7257,
      "##érer": 7258,
      "noto": 7259,
      "euren": 7260,
      "Jamie": 7261,
      "baza": 7262,
      "Policy": 7263,
      "lès": 7264,
      "Hay": 7265,
      "##ï": 7266,
      "Search": 7267,
      "##ight": 7268,
      "troupes": 7269,
      "disponible": 7270,
      "##cm": 7271,
      "CDU": 7272,
      "##enn": 7273,
      "##öld": 7274,
      "Becker": 7275,
      "visit": 7276,
      "##lini": 7277,
      "Branch": 7278,
      "mine": 7279,
      "translation": 7280,
      "Emilia": 7281,
      "##mission": 7282,
      "##chia": 7283,
      "Evil": 7284,
      "Universe": 7285,
      "##av": 7286,
      "Dieu": 7287,
      "Still": 7288,
      "##eon": 7289,
      "Bratislava": 7290,
      "Yorkshire": 7291,
      "Guillermo": 7292,
      "##quet": 7293,
      "Sieg": 7294,
      "Us": 7295,
      "##ptera": 7296,
      "SD": 7297,
      "244": 7298,
      "Testament": 7299,
      "##awa": 7300,
      "limite": 7301,
      "Chan": 7302,
      "classement": 7303,
      "labor": 7304,
      "étude": 7305,
      "Cannes": 7306,
      "Konrad": 7307,
      "Bo": 7308,
      "##tand": 7309,
      "Brooks": 7310,
      "Tale": 7311,
      "Flying": 7312,
      "CV": 7313,
      "pair": 7314,
      "##yl": 7315,
      "Stade": 7316,
      "Engels": 7317,
      "##olt": 7318,
      "Grove": 7319,
      "Moselle": 7320,
      "##unta": 7321,
      "kat": 7322,
      "##vati": 7323,
      "commander": 7324,
      "instrumental": 7325,
      "Alpha": 7326,
      "dates": 7327,
      "Forbes": 7328,
      "315": 7329,
      "bor": 7330,
      "forest": 7331,
      "pinyin": 7332,
      "champions": 7333,
      "Ex": 7334,
      "Hubert": 7335,
      "##rich": 7336,
      "##odu": 7337,
      "Wahl": 7338,
      "Roosevelt": 7339,
      "Bernardo": 7340,
      "##rlo": 7341,
      "##isto": 7342,
      "Too": 7343,
      "subsp": 7344,
      "Tallinn": 7345,
      "##agi": 7346,
      "hom": 7347,
      "##cre": 7348,
      "##zina": 7349,
      "##mate": 7350,
      "kai": 7351,
      "probablement": 7352,
      "Horse": 7353,
      "##enda": 7354,
      "arrive": 7355,
      "Lower": 7356,
      "##rita": 7357,
      "##iat": 7358,
      "variant": 7359,
      "##rzy": 7360,
      "trop": 7361,
      "Herzog": 7362,
      "girls": 7363,
      "##col": 7364,
      "Choice": 7365,
      "Til": 7366,
      "##tsi": 7367,
      "retrouve": 7368,
      "Shadow": 7369,
      "##low": 7370,
      "Chase": 7371,
      "beat": 7372,
      "##lni": 7373,
      "Pologne": 7374,
      "think": 7375,
      "##put": 7376,
      "Deutsch": 7377,
      "chance": 7378,
      "##ulation": 7379,
      "Stanisław": 7380,
      "critique": 7381,
      "Ellis": 7382,
      "Betty": 7383,
      "étape": 7384,
      "Vienne": 7385,
      "##iae": 7386,
      "##hia": 7387,
      "dis": 7388,
      "hits": 7389,
      "WTA": 7390,
      "##rán": 7391,
      "lit": 7392,
      "Auvergne": 7393,
      "comté": 7394,
      "vede": 7395,
      "Rich": 7396,
      "dollars": 7397,
      "DL": 7398,
      "Flores": 7399,
      "Giro": 7400,
      "Ruiz": 7401,
      "Duncan": 7402,
      "##glia": 7403,
      "##ście": 7404,
      "Axel": 7405,
      "visita": 7406,
      "##iran": 7407,
      "##dum": 7408,
      "F1": 7409,
      "Amazon": 7410,
      "GT": 7411,
      "concernant": 7412,
      "mental": 7413,
      "247": 7414,
      "routes": 7415,
      "##sio": 7416,
      "incident": 7417,
      "Railroad": 7418,
      "Eagle": 7419,
      "##iment": 7420,
      "##jak": 7421,
      "Nama": 7422,
      "##gor": 7423,
      "Trek": 7424,
      "##rija": 7425,
      "##sts": 7426,
      "Deportivo": 7427,
      "##cc": 7428,
      "##orum": 7429,
      "##rla": 7430,
      "##bbe": 7431,
      "Forever": 7432,
      "Jupiter": 7433,
      "##azi": 7434,
      "Newcastle": 7435,
      "##kach": 7436,
      "1660": 7437,
      "Hernandez": 7438,
      "Mk": 7439,
      "406": 7440,
      "##ête": 7441,
      "##ph": 7442,
      "1648": 7443,
      "Lambert": 7444,
      "VL": 7445,
      "Vor": 7446,
      "DS": 7447,
      "##lán": 7448,
      "composé": 7449,
      "##dil": 7450,
      "##nais": 7451,
      "entra": 7452,
      "##sso": 7453,
      "##kis": 7454,
      "Angels": 7455,
      "Palma": 7456,
      "Even": 7457,
      "Jürgen": 7458,
      "ama": 7459,
      "Kids": 7460,
      "Snow": 7461,
      "##jna": 7462,
      "blues": 7463,
      "Jos": 7464,
      "##rge": 7465,
      "##sée": 7466,
      "Professional": 7467,
      "##eja": 7468,
      "##isse": 7469,
      "##graph": 7470,
      "Guido": 7471,
      "serait": 7472,
      "Horn": 7473,
      "centra": 7474,
      "##tim": 7475,
      "Porter": 7476,
      "Croix": 7477,
      "Fast": 7478,
      "##cens": 7479,
      "##ío": 7480,
      "##ovo": 7481,
      "##itate": 7482,
      "##von": 7483,
      "##lü": 7484,
      "bande": 7485,
      "##rent": 7486,
      "bonus": 7487,
      "Évolution": 7488,
      "##cci": 7489,
      "Rang": 7490,
      "peste": 7491,
      "##ith": 7492,
      "amateur": 7493,
      "mix": 7494,
      "Animal": 7495,
      "Gulf": 7496,
      "##ogi": 7497,
      "Ja": 7498,
      "Pokémon": 7499,
      "Dominique": 7500,
      "##asta": 7501,
      "viri": 7502,
      "##colo": 7503,
      "générale": 7504,
      "entrée": 7505,
      "latino": 7506,
      "décide": 7507,
      "livres": 7508,
      "Cristina": 7509,
      "Fiat": 7510,
      "##yes": 7511,
      "Min": 7512,
      "##đe": 7513,
      "##stik": 7514,
      "Stil": 7515,
      "##rti": 7516,
      "##hé": 7517,
      "##rades": 7518,
      "Circle": 7519,
      "Titan": 7520,
      "Jin": 7521,
      "390": 7522,
      "aa": 7523,
      "Nu": 7524,
      "##oan": 7525,
      "heures": 7526,
      "Ottoman": 7527,
      "##vei": 7528,
      "Obama": 7529,
      "Haut": 7530,
      "Broadcasting": 7531,
      "politiques": 7532,
      "espace": 7533,
      "Lille": 7534,
      "Ada": 7535,
      "##ssi": 7536,
      "##èr": 7537,
      "Regina": 7538,
      "adaptation": 7539,
      "passes": 7540,
      "##sne": 7541,
      "disputa": 7542,
      "Market": 7543,
      "Vid": 7544,
      "Filippo": 7545,
      "273": 7546,
      "##eran": 7547,
      "fonte": 7548,
      "cm³": 7549,
      "Circuit": 7550,
      "##fier": 7551,
      "Göteborg": 7552,
      "Amérique": 7553,
      "##sley": 7554,
      "Staat": 7555,
      "asp": 7556,
      "sum": 7557,
      "Without": 7558,
      "draft": 7559,
      "LINEAR": 7560,
      "Russie": 7561,
      "Nationale": 7562,
      "##ceu": 7563,
      "Crystal": 7564,
      "escala": 7565,
      "Hochschule": 7566,
      "##dern": 7567,
      "Simone": 7568,
      "266": 7569,
      "ann": 7570,
      "##aca": 7571,
      "##vna": 7572,
      "Section": 7573,
      "concerts": 7574,
      "solution": 7575,
      "##glio": 7576,
      "spot": 7577,
      "créée": 7578,
      "résultats": 7579,
      "Movement": 7580,
      "##bius": 7581,
      "montre": 7582,
      "##nces": 7583,
      "Flash": 7584,
      "anv": 7585,
      "##quer": 7586,
      "Christina": 7587,
      "##rino": 7588,
      "Chang": 7589,
      "323": 7590,
      "coll": 7591,
      "##cata": 7592,
      "Wellington": 7593,
      "##aco": 7594,
      "Luís": 7595,
      "Aviation": 7596,
      "##quia": 7597,
      "##öl": 7598,
      "##cera": 7599,
      "Eye": 7600,
      "maire": 7601,
      "##ex": 7602,
      "268": 7603,
      "##°C": 7604,
      "absence": 7605,
      "##sak": 7606,
      "personnage": 7607,
      "263": 7608,
      "302": 7609,
      "Hung": 7610,
      "Walk": 7611,
      "façon": 7612,
      "auprès": 7613,
      "Pavel": 7614,
      "##euse": 7615,
      "nº": 7616,
      "##rot": 7617,
      "Castillo": 7618,
      "Mill": 7619,
      "Jake": 7620,
      "##ladi": 7621,
      "##eter": 7622,
      "Novo": 7623,
      "Leeds": 7624,
      "Adventures": 7625,
      "##bah": 7626,
      "Jensen": 7627,
      "Beat": 7628,
      "tank": 7629,
      "6000": 7630,
      "Ghana": 7631,
      "##pak": 7632,
      "Scénario": 7633,
      "Revue": 7634,
      "Bonaparte": 7635,
      "Berry": 7636,
      "rapidement": 7637,
      "Draft": 7638,
      "##nig": 7639,
      "contributions": 7640,
      "astéroïdes": 7641,
      "##cket": 7642,
      "1771": 7643,
      "##rine": 7644,
      "zom": 7645,
      "Maya": 7646,
      "Return": 7647,
      "Guard": 7648,
      "286": 7649,
      "Dreams": 7650,
      "##ót": 7651,
      "##ites": 7652,
      "pt": 7653,
      "arma": 7654,
      "plats": 7655,
      "##rza": 7656,
      "Tribunal": 7657,
      "Manager": 7658,
      "st": 7659,
      "quant": 7660,
      "voyage": 7661,
      "Igor": 7662,
      "Low": 7663,
      "282": 7664,
      "Economics": 7665,
      "issu": 7666,
      "1766": 7667,
      "Laguna": 7668,
      "##tine": 7669,
      "découvert": 7670,
      "fond": 7671,
      "missions": 7672,
      "supérieur": 7673,
      "perform": 7674,
      "##aci": 7675,
      "1769": 7676,
      "Crazy": 7677,
      "##50": 7678,
      "##sca": 7679,
      "Cemetery": 7680,
      "276": 7681,
      "Hann": 7682,
      "Intelligence": 7683,
      "comptait": 7684,
      "conde": 7685,
      "Travel": 7686,
      "##ufen": 7687,
      "##uran": 7688,
      "##xt": 7689,
      "277": 7690,
      "Brand": 7691,
      "Olga": 7692,
      "##spor": 7693,
      "Philippine": 7694,
      "##ID": 7695,
      "Dieter": 7696,
      "Antoni": 7697,
      "clan": 7698,
      "Clube": 7699,
      "##gir": 7700,
      "Block": 7701,
      "##sor": 7702,
      "Bronze": 7703,
      "##pol": 7704,
      "274": 7705,
      "##pare": 7706,
      "occupation": 7707,
      "1765": 7708,
      "##ringen": 7709,
      "Ki": 7710,
      "respect": 7711,
      "Deutscher": 7712,
      "saga": 7713,
      "##olla": 7714,
      "Mass": 7715,
      "dur": 7716,
      "Göttingen": 7717,
      "##pada": 7718,
      "Things": 7719,
      "##kah": 7720,
      "##zko": 7721,
      "Phi": 7722,
      "##nato": 7723,
      "év": 7724,
      "Toyota": 7725,
      "Cada": 7726,
      "Paradise": 7727,
      "##łe": 7728,
      "Pe": 7729,
      "holding": 7730,
      "portant": 7731,
      "Woods": 7732,
      "##enburg": 7733,
      "##museum": 7734,
      "Staff": 7735,
      "Mayer": 7736,
      "##istic": 7737,
      "Aleksandr": 7738,
      "Ti": 7739,
      "##odi": 7740,
      "##vale": 7741,
      "bé": 7742,
      "ends": 7743,
      "Münster": 7744,
      "Herschel": 7745,
      "russo": 7746,
      "vat": 7747,
      "1767": 7748,
      "##tza": 7749,
      "celles": 7750,
      "mente": 7751,
      "Rossi": 7752,
      "##eret": 7753,
      "LA": 7754,
      "##ules": 7755,
      "261": 7756,
      "Tournament": 7757,
      "AU": 7758,
      "Hendrik": 7759,
      "Tell": 7760,
      "##dice": 7761,
      "##kol": 7762,
      "assez": 7763,
      "tua": 7764,
      "##roy": 7765,
      "##lim": 7766,
      "##tava": 7767,
      "##vista": 7768,
      "Richards": 7769,
      "##agem": 7770,
      "user": 7771,
      "1650": 7772,
      "##dla": 7773,
      "##onne": 7774,
      "284": 7775,
      "annonce": 7776,
      "gira": 7777,
      "##tui": 7778,
      "Neal": 7779,
      "Réalisation": 7780,
      "constant": 7781,
      "##moto": 7782,
      "cor": 7783,
      "extensive": 7784,
      "##mpe": 7785,
      "##ody": 7786,
      "Sidney": 7787,
      "départ": 7788,
      "posta": 7789,
      "garde": 7790,
      "simples": 7791,
      "Kun": 7792,
      "Richardson": 7793,
      "##aires": 7794,
      "Stop": 7795,
      "Pendant": 7796,
      "Inside": 7797,
      "281": 7798,
      "tels": 7799,
      "##π": 7800,
      "258": 7801,
      "470": 7802,
      "chemin": 7803,
      "Enterprise": 7804,
      "convertir": 7805,
      "##dé": 7806,
      "##bir": 7807,
      "Monica": 7808,
      "Salt": 7809,
      "Andrzej": 7810,
      "Mills": 7811,
      "Ida": 7812,
      "Ing": 7813,
      "semble": 7814,
      "##fn": 7815,
      "##lal": 7816,
      "287": 7817,
      "##sburg": 7818,
      "dessus": 7819,
      "##bridge": 7820,
      "personne": 7821,
      "##oku": 7822,
      "##vere": 7823,
      "testa": 7824,
      "Trois": 7825,
      "capable": 7826,
      "statistique": 7827,
      "Bradley": 7828,
      "agriculture": 7829,
      "##iau": 7830,
      "comprend": 7831,
      "hoc": 7832,
      "##osti": 7833,
      "##torio": 7834,
      "Jeffrey": 7835,
      "mah": 7836,
      "##lant": 7837,
      "pal": 7838,
      "object": 7839,
      "##vana": 7840,
      "Fighter": 7841,
      "Ph": 7842,
      "##fia": 7843,
      "Milton": 7844,
      "##hard": 7845,
      "Denver": 7846,
      "##elen": 7847,
      "##fin": 7848,
      "##bina": 7849,
      "Archives": 7850,
      "Prior": 7851,
      "##poli": 7852,
      "Orléans": 7853,
      "Brad": 7854,
      "régiment": 7855,
      "transporte": 7856,
      "##hm": 7857,
      "1762": 7858,
      "##tki": 7859,
      "##ûn": 7860,
      "Comedy": 7861,
      "proche": 7862,
      "278": 7863,
      "##nc": 7864,
      "##ñas": 7865,
      "Nokia": 7866,
      "##aus": 7867,
      "Pato": 7868,
      "##ienne": 7869,
      "gay": 7870,
      "338": 7871,
      "##war": 7872,
      "Bryant": 7873,
      "##tata": 7874,
      "marketing": 7875,
      "rose": 7876,
      "297": 7877,
      "##dies": 7878,
      "292": 7879,
      "Churchill": 7880,
      "Bus": 7881,
      "économique": 7882,
      "1764": 7883,
      "Acta": 7884,
      "Homo": 7885,
      "##łu": 7886,
      "Brisbane": 7887,
      "Cell": 7888,
      "Provincial": 7889,
      "##kola": 7890,
      "Trinity": 7891,
      "Mail": 7892,
      "##lín": 7893,
      "##teil": 7894,
      "Ultimate": 7895,
      "560": 7896,
      "Adventure": 7897,
      "Bezirk": 7898,
      "##phus": 7899,
      "Norfolk": 7900,
      "##vés": 7901,
      "rail": 7902,
      "profile": 7903,
      "CF": 7904,
      "##raf": 7905,
      "Connor": 7906,
      "259": 7907,
      "Deus": 7908,
      "parque": 7909,
      "##eder": 7910,
      "Dante": 7911,
      "Leone": 7912,
      "enfant": 7913,
      "Picture": 7914,
      "Andrews": 7915,
      "Together": 7916,
      "##yne": 7917,
      "Train": 7918,
      "##luk": 7919,
      "intérieur": 7920,
      "Trans": 7921,
      "Moreno": 7922,
      "##escu": 7923,
      "##tini": 7924,
      "##acht": 7925,
      "Sulawesi": 7926,
      "familiar": 7927,
      "Palais": 7928,
      "##yard": 7929,
      "##ović": 7930,
      "Bosnia": 7931,
      "OH": 7932,
      "produits": 7933,
      "308": 7934,
      "Vita": 7935,
      "Johanna": 7936,
      "MB": 7937,
      "formula": 7938,
      "##dler": 7939,
      "##bund": 7940,
      "##uso": 7941,
      "##eru": 7942,
      "permanente": 7943,
      "particulièrement": 7944,
      "LL": 7945,
      "##rique": 7946,
      "interna": 7947,
      "hot": 7948,
      "##pad": 7949,
      "##ree": 7950,
      "Rede": 7951,
      "vit": 7952,
      "321": 7953,
      "Marino": 7954,
      "éléments": 7955,
      "évêque": 7956,
      "Galaxy": 7957,
      "symbol": 7958,
      "##posto": 7959,
      "267": 7960,
      "Sociedad": 7961,
      "##far": 7962,
      "##cut": 7963,
      "##rme": 7964,
      "269": 7965,
      "contrôle": 7966,
      "##ification": 7967,
      "activités": 7968,
      "média": 7969,
      "Bailey": 7970,
      "Rodrigo": 7971,
      "Randy": 7972,
      "vallée": 7973,
      "##ligen": 7974,
      "311": 7975,
      "##há": 7976,
      "##rand": 7977,
      "Anglo": 7978,
      "Airways": 7979,
      "##aza": 7980,
      "##llas": 7981,
      "maires": 7982,
      "Against": 7983,
      "Série": 7984,
      "Quest": 7985,
      "##nach": 7986,
      "336": 7987,
      "remix": 7988,
      "##ulus": 7989,
      "Ensemble": 7990,
      "##TE": 7991,
      "publications": 7992,
      "Rat": 7993,
      "Singer": 7994,
      "Trump": 7995,
      "Nur": 7996,
      "283": 7997,
      "Architecture": 7998,
      "Saints": 7999,
      "Futebol": 8000,
      "universal": 8001,
      "##ček": 8002,
      "Parc": 8003,
      "italien": 8004,
      "##usan": 8005,
      "Gilles": 8006,
      "Trail": 8007,
      "titres": 8008,
      "Date": 8009,
      "##sul": 8010,
      "faisant": 8011,
      "noms": 8012,
      "##dige": 8013,
      "Isla": 8014,
      "Uppsala": 8015,
      "Fédération": 8016,
      "##idi": 8017,
      "offices": 8018,
      "Lied": 8019,
      "Watch": 8020,
      "normale": 8021,
      "tours": 8022,
      "##enz": 8023,
      "cens": 8024,
      "compilation": 8025,
      "Negro": 8026,
      "##raz": 8027,
      "ri": 8028,
      "512": 8029,
      "fie": 8030,
      "Robertson": 8031,
      "Made": 8032,
      "Fl": 8033,
      "Anhalt": 8034,
      "bara": 8035,
      "##tland": 8036,
      "URSS": 8037,
      "municipalité": 8038,
      "##RA": 8039,
      "ose": 8040,
      "950": 8041,
      "Lennon": 8042,
      "Kenny": 8043,
      "Bourgogne": 8044,
      "##lí": 8045,
      "Malmö": 8046,
      "##vert": 8047,
      "Pau": 8048,
      "Maison": 8049,
      "##oen": 8050,
      "Henderson": 8051,
      "##xar": 8052,
      "##nner": 8053,
      "##ank": 8054,
      "##yal": 8055,
      "##II": 8056,
      "propose": 8057,
      "##tno": 8058,
      "Gay": 8059,
      "Grad": 8060,
      "Willy": 8061,
      "compétition": 8062,
      "Italiana": 8063,
      "prop": 8064,
      "gradu": 8065,
      "Superman": 8066,
      "mail": 8067,
      "Morrison": 8068,
      "Lou": 8069,
      "##ław": 8070,
      "reforma": 8071,
      "1730": 8072,
      "##uren": 8073,
      "session": 8074,
      "Banco": 8075,
      "bâtiment": 8076,
      "Kinshasa": 8077,
      "##hung": 8078,
      "##ror": 8079,
      "motion": 8080,
      "vidéo": 8081,
      "Murder": 8082,
      "sexu": 8083,
      "##avo": 8084,
      "Beethoven": 8085,
      "##ON": 8086,
      "Bon": 8087,
      "Ur": 8088,
      "##hood": 8089,
      "Fan": 8090,
      "640": 8091,
      "Yellow": 8092,
      "Reynolds": 8093,
      "##dez": 8094,
      "Ion": 8095,
      "Franche": 8096,
      "Latina": 8097,
      "gali": 8098,
      "tota": 8099,
      "##oor": 8100,
      "intelligence": 8101,
      "Championnat": 8102,
      "suba": 8103,
      "Caesar": 8104,
      "Peters": 8105,
      "##lier": 8106,
      "Einstein": 8107,
      "##vs": 8108,
      "abbaye": 8109,
      "A1": 8110,
      "Vittorio": 8111,
      "Ko": 8112,
      "trei": 8113,
      "##lee": 8114,
      "Stern": 8115,
      "##rix": 8116,
      "pH": 8117,
      "droits": 8118,
      "##hang": 8119,
      "difficile": 8120,
      "monuments": 8121,
      "oni": 8122,
      "##rut": 8123,
      "Blanco": 8124,
      "##place": 8125,
      "vision": 8126,
      "##uge": 8127,
      "planning": 8128,
      "##hlen": 8129,
      "Triple": 8130,
      "Need": 8131,
      "Boyer": 8132,
      "##avi": 8133,
      "divisions": 8134,
      "335": 8135,
      "Trio": 8136,
      "1755": 8137,
      "Lynn": 8138,
      "##chus": 8139,
      "référence": 8140,
      "345": 8141,
      "Columbus": 8142,
      "##inda": 8143,
      "sections": 8144,
      "##lling": 8145,
      "##ead": 8146,
      "Strasbourg": 8147,
      "Montevideo": 8148,
      "Khi": 8149,
      "Floyd": 8150,
      "##ift": 8151,
      "piti": 8152,
      "##uten": 8153,
      "Person": 8154,
      "##pole": 8155,
      "##IP": 8156,
      "modèle": 8157,
      "316": 8158,
      "grec": 8159,
      "Abbey": 8160,
      "##AC": 8161,
      "évolution": 8162,
      "Rise": 8163,
      "Fish": 8164,
      "PT": 8165,
      "wiki": 8166,
      "émission": 8167,
      "##kreis": 8168,
      "aucun": 8169,
      "AA": 8170,
      "Claudia": 8171,
      "Swift": 8172,
      "Nine": 8173,
      "Amanda": 8174,
      "standards": 8175,
      "299": 8176,
      "ind": 8177,
      "##chas": 8178,
      "##vine": 8179,
      "Ni": 8180,
      "1720": 8181,
      "internationales": 8182,
      "##inio": 8183,
      "Dale": 8184,
      "##jung": 8185,
      "spin": 8186,
      "Bio": 8187,
      "395": 8188,
      "##table": 8189,
      "293": 8190,
      "faut": 8191,
      "##try": 8192,
      "Jaime": 8193,
      "Piper": 8194,
      "279": 8195,
      "##ises": 8196,
      "parole": 8197,
      "Département": 8198,
      "institution": 8199,
      "Józef": 8200,
      "Gerald": 8201,
      "1640": 8202,
      "offre": 8203,
      "Tore": 8204,
      "##sort": 8205,
      "Benz": 8206,
      "##lka": 8207,
      "##view": 8208,
      "message": 8209,
      "Heroes": 8210,
      "gr": 8211,
      "adult": 8212,
      "hors": 8213,
      "Rhein": 8214,
      "Philosophie": 8215,
      "Aquitaine": 8216,
      "Rivera": 8217,
      "##urt": 8218,
      "##lée": 8219,
      "AT": 8220,
      "##tres": 8221,
      "##rici": 8222,
      "atteint": 8223,
      "Jackie": 8224,
      "##aut": 8225,
      "##rali": 8226,
      "Ingrid": 8227,
      "##rke": 8228,
      "Brunswick": 8229,
      "empat": 8230,
      "Tan": 8231,
      "##eke": 8232,
      "Pass": 8233,
      "Rod": 8234,
      "##xos": 8235,
      "Monster": 8236,
      "pale": 8237,
      "##valo": 8238,
      "##pre": 8239,
      "##pra": 8240,
      "##ntar": 8241,
      "##rso": 8242,
      "McCartney": 8243,
      "exception": 8244,
      "##cou": 8245,
      "Jam": 8246,
      "nombres": 8247,
      "Yo": 8248,
      "##aos": 8249,
      "309": 8250,
      "ol": 8251,
      "318": 8252,
      "##gare": 8253,
      "Fraser": 8254,
      "##pil": 8255,
      "nations": 8256,
      "particuliers": 8257,
      "aspects": 8258,
      "Français": 8259,
      "331": 8260,
      "##MA": 8261,
      "##rop": 8262,
      "##oro": 8263,
      "Osaka": 8264,
      "##iese": 8265,
      "##đa": 8266,
      "Raw": 8267,
      "postal": 8268,
      "Gate": 8269,
      "Campus": 8270,
      "324": 8271,
      "Ibrahim": 8272,
      "Glen": 8273,
      "Sonic": 8274,
      "signe": 8275,
      "##ccia": 8276,
      "Laboratory": 8277,
      "Financial": 8278,
      "##cky": 8279,
      "##ress": 8280,
      "retire": 8281,
      "Faith": 8282,
      "##eal": 8283,
      "terrestre": 8284,
      "delta": 8285,
      "Friday": 8286,
      "Ljubljana": 8287,
      "##nay": 8288,
      "demo": 8289,
      "Jens": 8290,
      "GNU": 8291,
      "antica": 8292,
      "mala": 8293,
      "Telegraph": 8294,
      "##gers": 8295,
      "##tele": 8296,
      "View": 8297,
      "Westminster": 8298,
      "Rus": 8299,
      "Pri": 8300,
      "context": 8301,
      "Gerais": 8302,
      "nomination": 8303,
      "##hing": 8304,
      "feu": 8305,
      "Volta": 8306,
      "##tari": 8307,
      "Derek": 8308,
      "Ji": 8309,
      "Newman": 8310,
      "##sent": 8311,
      "Farm": 8312,
      "ell": 8313,
      "astéroïde": 8314,
      "Fellow": 8315,
      "##sés": 8316,
      "Drake": 8317,
      "tas": 8318,
      "##kki": 8319,
      "##ution": 8320,
      "##tivi": 8321,
      "##lice": 8322,
      "divers": 8323,
      "Corte": 8324,
      "##IC": 8325,
      "angle": 8326,
      "Kiev": 8327,
      "##lun": 8328,
      "AP": 8329,
      "salle": 8330,
      "319": 8331,
      "##tty": 8332,
      "Amb": 8333,
      "Cox": 8334,
      "Every": 8335,
      "Ignacio": 8336,
      "criminal": 8337,
      "Tre": 8338,
      "##where": 8339,
      "ambas": 8340,
      "rede": 8341,
      "##rike": 8342,
      "##dah": 8343,
      "Kill": 8344,
      "György": 8345,
      "Celtic": 8346,
      "Speed": 8347,
      "maître": 8348,
      "Agriculture": 8349,
      "chapelle": 8350,
      "Aleksander": 8351,
      "##xia": 8352,
      "Andersen": 8353,
      "Admiral": 8354,
      "##para": 8355,
      "Salon": 8356,
      "##bok": 8357,
      "Isle": 8358,
      "peintre": 8359,
      "317": 8360,
      "lec": 8361,
      "##tid": 8362,
      "##vice": 8363,
      "industrie": 8364,
      "##gol": 8365,
      "dicho": 8366,
      "enter": 8367,
      "Mus": 8368,
      "Rocky": 8369,
      "Labor": 8370,
      "allemande": 8371,
      "##iff": 8372,
      "Colonia": 8373,
      "radi": 8374,
      "Champagne": 8375,
      "322": 8376,
      "Schiff": 8377,
      "vient": 8378,
      "##front": 8379,
      "cœur": 8380,
      "##dó": 8381,
      "Christophe": 8382,
      "Herald": 8383,
      "1759": 8384,
      "Wings": 8385,
      "Sporting": 8386,
      "CE": 8387,
      "##alle": 8388,
      "##play": 8389,
      "domestic": 8390,
      "##eman": 8391,
      "Sid": 8392,
      "onto": 8393,
      "totalité": 8394,
      "Sang": 8395,
      "##edd": 8396,
      "##rani": 8397,
      "##ád": 8398,
      "##voli": 8399,
      "CNN": 8400,
      "Polo": 8401,
      "sal": 8402,
      "sorte": 8403,
      "##mani": 8404,
      "Cricket": 8405,
      "charges": 8406,
      "affaires": 8407,
      "##jd": 8408,
      "Wii": 8409,
      "collections": 8410,
      "##nburg": 8411,
      "Arrondissement": 8412,
      "historiques": 8413,
      "Bi": 8414,
      "Electronic": 8415,
      "##uir": 8416,
      "##fra": 8417,
      "pièces": 8418,
      "##ob": 8419,
      "##gata": 8420,
      "conserva": 8421,
      "##rale": 8422,
      "Hello": 8423,
      "##tani": 8424,
      "##lai": 8425,
      "##fie": 8426,
      "Gang": 8427,
      "Sebastián": 8428,
      "##hren": 8429,
      "exhibition": 8430,
      "corona": 8431,
      "provinces": 8432,
      "print": 8433,
      "situe": 8434,
      "##nch": 8435,
      "carte": 8436,
      "UFC": 8437,
      "satellite": 8438,
      "291": 8439,
      "##taire": 8440,
      "Rai": 8441,
      "arm": 8442,
      "##zea": 8443,
      "##gram": 8444,
      "Infanterie": 8445,
      "Cincinnati": 8446,
      "296": 8447,
      "##hti": 8448,
      "##sant": 8449,
      "##gner": 8450,
      "##cak": 8451,
      "mettre": 8452,
      "relief": 8453,
      "EN": 8454,
      "##huis": 8455,
      "Vida": 8456,
      "##mpa": 8457,
      "##äs": 8458,
      "##bne": 8459,
      "##dje": 8460,
      "Saône": 8461,
      "brown": 8462,
      "Mad": 8463,
      "Crime": 8464,
      "flat": 8465,
      "Fredrik": 8466,
      "dispute": 8467,
      "talk": 8468,
      "Nacht": 8469,
      "##sze": 8470,
      "Jura": 8471,
      "taux": 8472,
      "Trinidad": 8473,
      "Gun": 8474,
      "##vora": 8475,
      "Jenny": 8476,
      "vide": 8477,
      "##zhou": 8478,
      "Monroe": 8479,
      "Lei": 8480,
      "Édouard": 8481,
      "##rag": 8482,
      "##vus": 8483,
      "##him": 8484,
      "ego": 8485,
      "##rano": 8486,
      "Rolf": 8487,
      "##cles": 8488,
      "MVP": 8489,
      "##bana": 8490,
      "Elvis": 8491,
      "##wand": 8492,
      "Vasco": 8493,
      "basse": 8494,
      "anciens": 8495,
      "##sum": 8496,
      "##cast": 8497,
      "meurt": 8498,
      "Rice": 8499,
      "franchise": 8500,
      "Homer": 8501,
      "Sandra": 8502,
      "orbite": 8503,
      "##bby": 8504,
      "Filip": 8505,
      "tunnel": 8506,
      "Émile": 8507,
      "colonel": 8508,
      "##ndet": 8509,
      "Kyle": 8510,
      "##base": 8511,
      "##uis": 8512,
      "Argentine": 8513,
      "MIT": 8514,
      "Ole": 8515,
      "##rga": 8516,
      "352": 8517,
      "Zo": 8518,
      "Indo": 8519,
      "##sc": 8520,
      "Nothing": 8521,
      "##long": 8522,
      "##rei": 8523,
      "nor": 8524,
      "savoir": 8525,
      "Chu": 8526,
      "##eka": 8527,
      "##yana": 8528,
      "Solomon": 8529,
      "##rce": 8530,
      "catalogue": 8531,
      "constante": 8532,
      "vingt": 8533,
      "404": 8534,
      "298": 8535,
      "570": 8536,
      "385": 8537,
      "Rotten": 8538,
      "powiat": 8539,
      "Stephan": 8540,
      "Look": 8541,
      "Nicola": 8542,
      "##ești": 8543,
      "Palestine": 8544,
      "ska": 8545,
      "##hel": 8546,
      "Lago": 8547,
      "attaque": 8548,
      "1756": 8549,
      "##porte": 8550,
      "fruit": 8551,
      "##nés": 8552,
      "##lva": 8553,
      "##krat": 8554,
      "##plan": 8555,
      "Judge": 8556,
      "Defence": 8557,
      "Thing": 8558,
      "try": 8559,
      "##vier": 8560,
      "##inos": 8561,
      "Reyes": 8562,
      "##eix": 8563,
      "##mico": 8564,
      "Jerzy": 8565,
      "##xen": 8566,
      "##kamp": 8567,
      "Suite": 8568,
      "Bear": 8569,
      "angl": 8570,
      "##uva": 8571,
      "##chap": 8572,
      "##ngi": 8573,
      "##çe": 8574,
      "Darmstadt": 8575,
      "##ax": 8576,
      "737": 8577,
      "Sheffield": 8578,
      "Suzuki": 8579,
      "##kra": 8580,
      "##osan": 8581,
      "##ω": 8582,
      "Barnes": 8583,
      "##kala": 8584,
      "##uck": 8585,
      "##bly": 8586,
      "Perth": 8587,
      "comic": 8588,
      "##bl": 8589,
      "##tych": 8590,
      "européenne": 8591,
      "flag": 8592,
      "huis": 8593,
      "RCA": 8594,
      "##lines": 8595,
      "Hauts": 8596,
      "Mohamed": 8597,
      "bron": 8598,
      "Contest": 8599,
      "Emploi": 8600,
      "script": 8601,
      "mondial": 8602,
      "328": 8603,
      "Lund": 8604,
      "offensive": 8605,
      "Vi": 8606,
      "Vision": 8607,
      "arrivée": 8608,
      "Haven": 8609,
      "Johnston": 8610,
      "larga": 8611,
      "dom": 8612,
      "##ril": 8613,
      "Wonder": 8614,
      "##rry": 8615,
      "Oise": 8616,
      "##rias": 8617,
      "Blanc": 8618,
      "valeur": 8619,
      "##gica": 8620,
      "step": 8621,
      "Saturn": 8622,
      "1757": 8623,
      "Gerard": 8624,
      "mando": 8625,
      "Mari": 8626,
      "##lter": 8627,
      "Weimar": 8628,
      "##lado": 8629,
      "Irene": 8630,
      "blog": 8631,
      "##menta": 8632,
      "##esis": 8633,
      "Bertrand": 8634,
      "Stock": 8635,
      "Heavy": 8636,
      "Truth": 8637,
      "Bella": 8638,
      "territorial": 8639,
      "1761": 8640,
      "Mustafa": 8641,
      "Álvarez": 8642,
      "332": 8643,
      "ouvrage": 8644,
      "530": 8645,
      "##ox": 8646,
      "##tron": 8647,
      "##cto": 8648,
      "Elliott": 8649,
      "Glass": 8650,
      "289": 8651,
      "radical": 8652,
      "##yre": 8653,
      "Count": 8654,
      "##AL": 8655,
      "Talk": 8656,
      "343": 8657,
      "##mena": 8658,
      "##omi": 8659,
      "##fon": 8660,
      "buts": 8661,
      "Ritter": 8662,
      "adjacent": 8663,
      "##zma": 8664,
      "Salticidae": 8665,
      "Nashville": 8666,
      "314": 8667,
      "##dja": 8668,
      "##dam": 8669,
      "##ogen": 8670,
      "Motion": 8671,
      "##vä": 8672,
      "##hill": 8673,
      "McDonald": 8674,
      "##aman": 8675,
      "##bri": 8676,
      "Moscou": 8677,
      "Res": 8678,
      "##AT": 8679,
      "Burns": 8680,
      "##emi": 8681,
      "##som": 8682,
      "##witz": 8683,
      "capture": 8684,
      "Dorothy": 8685,
      "INE": 8686,
      "Marta": 8687,
      "Brook": 8688,
      "joueurs": 8689,
      "##cula": 8690,
      "MD": 8691,
      "exist": 8692,
      "agents": 8693,
      "devenir": 8694,
      "Nantes": 8695,
      "Johns": 8696,
      "##zal": 8697,
      "##yce": 8698,
      "Chad": 8699,
      "##bria": 8700,
      "##onda": 8701,
      "##48": 8702,
      "##hara": 8703,
      "relativ": 8704,
      "charts": 8705,
      "##ód": 8706,
      "Nuclear": 8707,
      "Harbor": 8708,
      "petites": 8709,
      "Lucia": 8710,
      "ESPN": 8711,
      "Lotus": 8712,
      "##enza": 8713,
      "##nai": 8714,
      "Ponte": 8715,
      "##vid": 8716,
      "Abdullah": 8717,
      "##hre": 8718,
      "##edi": 8719,
      "tr": 8720,
      "Porta": 8721,
      "Hit": 8722,
      "337": 8723,
      "Chef": 8724,
      "##nea": 8725,
      "##oge": 8726,
      "##aient": 8727,
      "Ernesto": 8728,
      "##ison": 8729,
      "Constantin": 8730,
      "GB": 8731,
      "Till": 8732,
      "publique": 8733,
      "Woody": 8734,
      "opinion": 8735,
      "Vale": 8736,
      "Assistant": 8737,
      "golf": 8738,
      "cricket": 8739,
      "wild": 8740,
      "##maker": 8741,
      "Burgos": 8742,
      "ferro": 8743,
      "Reid": 8744,
      "pun": 8745,
      "##beck": 8746,
      "##born": 8747,
      "Tours": 8748,
      "##leben": 8749,
      "##zou": 8750,
      "Kiel": 8751,
      "Nicaragua": 8752,
      "Mao": 8753,
      "bureau": 8754,
      "PA": 8755,
      "Alexandria": 8756,
      "405": 8757,
      "Ost": 8758,
      "##rao": 8759,
      "gaf": 8760,
      "Theodore": 8761,
      "iron": 8762,
      "disso": 8763,
      "##zona": 8764,
      "##tige": 8765,
      "Lange": 8766,
      "pur": 8767,
      "Lara": 8768,
      "fines": 8769,
      "Monument": 8770,
      "poc": 8771,
      "##rates": 8772,
      "marché": 8773,
      "Kao": 8774,
      "##esti": 8775,
      "Mohammed": 8776,
      "Chamber": 8777,
      "tournée": 8778,
      "##nov": 8779,
      "##itor": 8780,
      "Exchange": 8781,
      "Timothy": 8782,
      "##sien": 8783,
      "Metz": 8784,
      "##edo": 8785,
      "lorsqu": 8786,
      "Eugen": 8787,
      "490": 8788,
      "##ngo": 8789,
      "##oji": 8790,
      "Vincenzo": 8791,
      "tur": 8792,
      "##ève": 8793,
      "384": 8794,
      "##ğ": 8795,
      "passé": 8796,
      "##GB": 8797,
      "Bro": 8798,
      "##berger": 8799,
      "##anta": 8800,
      "Journey": 8801,
      "##mée": 8802,
      "##hta": 8803,
      "Mariano": 8804,
      "apa": 8805,
      "##cita": 8806,
      "##rth": 8807,
      "Euskal": 8808,
      "##not": 8809,
      "##eros": 8810,
      "##ind": 8811,
      "##yama": 8812,
      "Gottfried": 8813,
      "ronde": 8814,
      "Geoffrey": 8815,
      "##formes": 8816,
      "Cornell": 8817,
      "Matthias": 8818,
      "326": 8819,
      "Gen": 8820,
      "option": 8821,
      "Markus": 8822,
      "Janet": 8823,
      "Net": 8824,
      "meilleure": 8825,
      "Logement": 8826,
      "401": 8827,
      "Mendoza": 8828,
      "Hook": 8829,
      "##oki": 8830,
      "Artists": 8831,
      "Bengal": 8832,
      "Hannah": 8833,
      "##dens": 8834,
      "Pereira": 8835,
      "##US": 8836,
      "##gler": 8837,
      "Gott": 8838,
      "écrivain": 8839,
      "##hol": 8840,
      "Bali": 8841,
      "save": 8842,
      "##nco": 8843,
      "laid": 8844,
      "Guerrero": 8845,
      "rete": 8846,
      "Piotr": 8847,
      "boys": 8848,
      "sp": 8849,
      "Süd": 8850,
      "##gun": 8851,
      "##nico": 8852,
      "Carey": 8853,
      "vertical": 8854,
      "mezzo": 8855,
      "##horn": 8856,
      "designer": 8857,
      "1680": 8858,
      "Versailles": 8859,
      "WC": 8860,
      "Jiří": 8861,
      "Lynch": 8862,
      "Nikolai": 8863,
      "##urus": 8864,
      "lettres": 8865,
      "partit": 8866,
      "Maxwell": 8867,
      "Joy": 8868,
      "investigation": 8869,
      "Rouge": 8870,
      "Players": 8871,
      "contrario": 8872,
      "##teurs": 8873,
      "Dictionnaire": 8874,
      "occur": 8875,
      "Chester": 8876,
      "turi": 8877,
      "##mere": 8878,
      "##cola": 8879,
      "412": 8880,
      "Seconde": 8881,
      "##hall": 8882,
      "##fest": 8883,
      "##tale": 8884,
      "##sir": 8885,
      "Occidental": 8886,
      "Casey": 8887,
      "Tito": 8888,
      "devenu": 8889,
      "##iation": 8890,
      "chain": 8891,
      "Corona": 8892,
      "Kraft": 8893,
      "noble": 8894,
      "Fleet": 8895,
      "##rain": 8896,
      "pet": 8897,
      "##lana": 8898,
      "##30": 8899,
      "taille": 8900,
      "promote": 8901,
      "dirige": 8902,
      "##kli": 8903,
      "médico": 8904,
      "ménages": 8905,
      "1745": 8906,
      "##alen": 8907,
      "vitesse": 8908,
      "Oskar": 8909,
      "##gil": 8910,
      "##lone": 8911,
      "Excel": 8912,
      "##lach": 8913,
      "Paraná": 8914,
      "##isan": 8915,
      "Mystery": 8916,
      "courts": 8917,
      "permettant": 8918,
      "township": 8919,
      "Ligi": 8920,
      "##mene": 8921,
      "Sy": 8922,
      "##iras": 8923,
      "cent": 8924,
      "Turin": 8925,
      "apparaît": 8926,
      "Normal": 8927,
      "humano": 8928,
      "Pieter": 8929,
      "1550": 8930,
      "1754": 8931,
      "##nement": 8932,
      "##sai": 8933,
      "Sono": 8934,
      "trio": 8935,
      "Ashley": 8936,
      "Roth": 8937,
      "Mini": 8938,
      "Milli": 8939,
      "##nare": 8940,
      "Alban": 8941,
      "##cial": 8942,
      "ill": 8943,
      "##cel": 8944,
      "Crawford": 8945,
      "protect": 8946,
      "František": 8947,
      "rod": 8948,
      "##ogie": 8949,
      "Heat": 8950,
      "##rij": 8951,
      "Lions": 8952,
      "##ssant": 8953,
      "Joshua": 8954,
      "##qua": 8955,
      "##ligi": 8956,
      "wave": 8957,
      "##ital": 8958,
      "CO": 8959,
      "##gine": 8960,
      "##ST": 8961,
      "Midi": 8962,
      "Lai": 8963,
      "RS": 8964,
      "##didae": 8965,
      "##lto": 8966,
      "quinquennal": 8967,
      "1715": 8968,
      "Indians": 8969,
      "Austro": 8970,
      "294": 8971,
      "Freeman": 8972,
      "Medina": 8973,
      "Oil": 8974,
      "##tab": 8975,
      "##reu": 8976,
      "Campos": 8977,
      "##borough": 8978,
      "Hood": 8979,
      "rat": 8980,
      "Communist": 8981,
      "##kara": 8982,
      "soul": 8983,
      "Chapman": 8984,
      "segment": 8985,
      "Monde": 8986,
      "ponto": 8987,
      "Burke": 8988,
      "partiellement": 8989,
      "cour": 8990,
      "Split": 8991,
      "##ndt": 8992,
      "##nil": 8993,
      "Half": 8994,
      "jap": 8995,
      "télévision": 8996,
      "orbital": 8997,
      "Critics": 8998,
      "##ating": 8999,
      "Eve": 9000,
      "Péter": 9001,
      "hectares": 9002,
      "Wheeler": 9003,
      "Ground": 9004,
      "Arturo": 9005,
      "##ack": 9006,
      "Rex": 9007,
      "HK": 9008,
      "##ström": 9009,
      "romans": 9010,
      "pure": 9011,
      "agricoles": 9012,
      "Juventus": 9013,
      "##usse": 9014,
      "jury": 9015,
      "morts": 9016,
      "##rai": 9017,
      "##eny": 9018,
      "aspect": 9019,
      "355": 9020,
      "##nberg": 9021,
      "Tonight": 9022,
      "continental": 9023,
      "pratique": 9024,
      "1630": 9025,
      "Sumatra": 9026,
      "Zao": 9027,
      "##mur": 9028,
      "rich": 9029,
      "Winston": 9030,
      "Greene": 9031,
      "natal": 9032,
      "Construction": 9033,
      "##alis": 9034,
      "Somme": 9035,
      "Gardner": 9036,
      "580": 9037,
      "##logo": 9038,
      "Nils": 9039,
      "1620": 9040,
      "Sándor": 9041,
      "couleur": 9042,
      "##uze": 9043,
      "356": 9044,
      "##station": 9045,
      "magnitude": 9046,
      "##ț": 9047,
      "367": 9048,
      "Alfa": 9049,
      "##ems": 9050,
      "##fers": 9051,
      "Mickey": 9052,
      "pièce": 9053,
      "plutôt": 9054,
      "Them": 9055,
      "lignes": 9056,
      "Abel": 9057,
      "##echt": 9058,
      "racial": 9059,
      "##redo": 9060,
      "##umen": 9061,
      "Brother": 9062,
      "##tato": 9063,
      "Hearts": 9064,
      "##rp": 9065,
      "1710": 9066,
      "Memphis": 9067,
      "##pati": 9068,
      "Oswald": 9069,
      "Nicolás": 9070,
      "enquête": 9071,
      "##card": 9072,
      "Prag": 9073,
      "610": 9074,
      "PP": 9075,
      "Tradition": 9076,
      "Carroll": 9077,
      "Rush": 9078,
      "425": 9079,
      "candidates": 9080,
      "Slam": 9081,
      "##iak": 9082,
      "carga": 9083,
      "Jong": 9084,
      "Whitney": 9085,
      "Paulus": 9086,
      "##reo": 9087,
      "Strange": 9088,
      "ach": 9089,
      "officiel": 9090,
      "##ési": 9091,
      "Rand": 9092,
      "##position": 9093,
      "##iner": 9094,
      "Camera": 9095,
      "rosa": 9096,
      "compris": 9097,
      "##udo": 9098,
      "##olta": 9099,
      "Musique": 9100,
      "mention": 9101,
      "Pere": 9102,
      "Midnight": 9103,
      "assistance": 9104,
      "dor": 9105,
      "##sser": 9106,
      "##iler": 9107,
      "1748": 9108,
      "plaça": 9109,
      "Isabella": 9110,
      "354": 9111,
      "##wich": 9112,
      "Abd": 9113,
      "##nese": 9114,
      "##unk": 9115,
      "Rue": 9116,
      "Sven": 9117,
      "##isin": 9118,
      "firme": 9119,
      "##mber": 9120,
      "animales": 9121,
      "##cara": 9122,
      "##eca": 9123,
      "357": 9124,
      "Australie": 9125,
      "célèbre": 9126,
      "derniers": 9127,
      "##rid": 9128,
      "Vuelta": 9129,
      "mines": 9130,
      "##vod": 9131,
      "kara": 9132,
      "##zze": 9133,
      "corner": 9134,
      "##bed": 9135,
      "Into": 9136,
      "Brien": 9137,
      "##polis": 9138,
      "Essex": 9139,
      "Sally": 9140,
      "maso": 9141,
      "##zda": 9142,
      "files": 9143,
      "Agnes": 9144,
      "##lân": 9145,
      "##right": 9146,
      "##oid": 9147,
      "##wat": 9148,
      "Joey": 9149,
      "antic": 9150,
      "Alger": 9151,
      "sil": 9152,
      "kor": 9153,
      "sel": 9154,
      "##ppa": 9155,
      "italiani": 9156,
      "destruction": 9157,
      "747": 9158,
      "##dai": 9159,
      "dro": 9160,
      "accès": 9161,
      "##wall": 9162,
      "##iaceae": 9163,
      "Prague": 9164,
      "Donna": 9165,
      "Oliveira": 9166,
      "##master": 9167,
      "##gard": 9168,
      "Bilbao": 9169,
      "Kampf": 9170,
      "Gustavo": 9171,
      "STS": 9172,
      "##lund": 9173,
      "Penn": 9174,
      "Gill": 9175,
      "ponte": 9176,
      "##ñu": 9177,
      "##cana": 9178,
      "Alexis": 9179,
      "baron": 9180,
      "##had": 9181,
      "Av": 9182,
      "cabinet": 9183,
      "##ED": 9184,
      "Recording": 9185,
      "colore": 9186,
      "Elles": 9187,
      "##berry": 9188,
      "Dietrich": 9189,
      "Smithsonian": 9190,
      "416": 9191,
      "presse": 9192,
      "Panzer": 9193,
      "##vite": 9194,
      "Bart": 9195,
      "inscrit": 9196,
      "Hernández": 9197,
      "##old": 9198,
      "Visual": 9199,
      "Brno": 9200,
      "futur": 9201,
      "##fur": 9202,
      "Levi": 9203,
      "##uts": 9204,
      "##yet": 9205,
      "tons": 9206,
      "Fr": 9207,
      "personnages": 9208,
      "##OW": 9209,
      "Ramon": 9210,
      "Wald": 9211,
      "##rait": 9212,
      "Cry": 9213,
      "sols": 9214,
      "Auckland": 9215,
      "329": 9216,
      "Stones": 9217,
      "Ch": 9218,
      "Bates": 9219,
      "Desert": 9220,
      "prise": 9221,
      "##DS": 9222,
      "##vist": 9223,
      "334": 9224,
      "viser": 9225,
      "Dortmund": 9226,
      "Waters": 9227,
      "Percy": 9228,
      "Typ": 9229,
      "Drug": 9230,
      "camps": 9231,
      "ADN": 9232,
      "Rhin": 9233,
      "Challenger": 9234,
      "br": 9235,
      "##ydi": 9236,
      "contrast": 9237,
      "mariage": 9238,
      "Doug": 9239,
      "Frances": 9240,
      "Baru": 9241,
      "##mbre": 9242,
      "##gara": 9243,
      "##ifs": 9244,
      "630": 9245,
      "Self": 9246,
      "contrat": 9247,
      "Gone": 9248,
      "##enze": 9249,
      "##šo": 9250,
      "Fight": 9251,
      "Lopez": 9252,
      "gaz": 9253,
      "présent": 9254,
      "##NG": 9255,
      "501": 9256,
      "##tano": 9257,
      "Frost": 9258,
      "##box": 9259,
      "Joint": 9260,
      "Willie": 9261,
      "Petrus": 9262,
      "acte": 9263,
      "Blu": 9264,
      "Perfect": 9265,
      "##mite": 9266,
      "344": 9267,
      "##rial": 9268,
      "Bauer": 9269,
      "Ley": 9270,
      "fusion": 9271,
      "##cil": 9272,
      "##aes": 9273,
      "romance": 9274,
      "##eln": 9275,
      "Queens": 9276,
      "Webster": 9277,
      "##tier": 9278,
      "malgré": 9279,
      "Genève": 9280,
      "Explorer": 9281,
      "actives": 9282,
      "pilota": 9283,
      "##ids": 9284,
      "##sper": 9285,
      "aucune": 9286,
      "##rest": 9287,
      "machines": 9288,
      "toma": 9289,
      "Rainbow": 9290,
      "Alma": 9291,
      "Tina": 9292,
      "Arroyo": 9293,
      "casu": 9294,
      "sécurité": 9295,
      "327": 9296,
      "##tna": 9297,
      "Hip": 9298,
      "##rons": 9299,
      "quatrième": 9300,
      "qualité": 9301,
      "##mand": 9302,
      "Ronde": 9303,
      "##17": 9304,
      "Tech": 9305,
      "stands": 9306,
      "##lev": 9307,
      "utilisation": 9308,
      "##onte": 9309,
      "Graz": 9310,
      "Nun": 9311,
      "seconds": 9312,
      "##rig": 9313,
      "1751": 9314,
      "##rez": 9315,
      "Thunder": 9316,
      "limit": 9317,
      "Stella": 9318,
      "##ear": 9319,
      "##quée": 9320,
      "interne": 9321,
      "##mun": 9322,
      "##voir": 9323,
      "Strauss": 9324,
      "##grada": 9325,
      "Révolution": 9326,
      "##ilis": 9327,
      "Word": 9328,
      "Marguerite": 9329,
      "mon": 9330,
      "##vol": 9331,
      "411": 9332,
      "Cu": 9333,
      "principaux": 9334,
      "##stri": 9335,
      "demand": 9336,
      "##sid": 9337,
      "inch": 9338,
      "##lder": 9339,
      "Delaware": 9340,
      "Romance": 9341,
      "##utan": 9342,
      "##yta": 9343,
      "Bowie": 9344,
      "SG": 9345,
      "##inae": 9346,
      "##lyn": 9347,
      "Table": 9348,
      "Luftwaffe": 9349,
      "Latino": 9350,
      "342": 9351,
      "##tni": 9352,
      "1707": 9353,
      "olympiques": 9354,
      "451": 9355,
      "##gene": 9356,
      "Basic": 9357,
      "Diane": 9358,
      "gouverneur": 9359,
      "Giulio": 9360,
      "Bolton": 9361,
      "attend": 9362,
      "Riga": 9363,
      "instance": 9364,
      "Ramos": 9365,
      "Fly": 9366,
      "mig": 9367,
      "##grad": 9368,
      "351": 9369,
      "HTML": 9370,
      "##dés": 9371,
      "bill": 9372,
      "##itaire": 9373,
      "##lique": 9374,
      "vald": 9375,
      "fest": 9376,
      "##olu": 9377,
      "##lino": 9378,
      "Heights": 9379,
      "Serge": 9380,
      "##dition": 9381,
      "Kingston": 9382,
      "Manfred": 9383,
      "Vainqueur": 9384,
      "café": 9385,
      "##vette": 9386,
      "alias": 9387,
      "Boulevard": 9388,
      "Bahia": 9389,
      "##hart": 9390,
      "Style": 9391,
      "Zimbabwe": 9392,
      "revue": 9393,
      "##stro": 9394,
      "moyen": 9395,
      "##vest": 9396,
      "##âm": 9397,
      "pu": 9398,
      "Rail": 9399,
      "tel": 9400,
      "Drew": 9401,
      "Goethe": 9402,
      "##ians": 9403,
      "1714": 9404,
      "##ivat": 9405,
      "Anschluss": 9406,
      "Aurora": 9407,
      "Dee": 9408,
      "Kara": 9409,
      "##rón": 9410,
      "Massimo": 9411,
      "passer": 9412,
      "Tomás": 9413,
      "avo": 9414,
      "Motors": 9415,
      "1580": 9416,
      "##bur": 9417,
      "##ners": 9418,
      "##kkel": 9419,
      "Quinn": 9420,
      "Lionel": 9421,
      "Fou": 9422,
      "dura": 9423,
      "##wyn": 9424,
      "##dl": 9425,
      "##weit": 9426,
      "Alive": 9427,
      "pad": 9428,
      "##simo": 9429,
      "##pense": 9430,
      "601": 9431,
      "##tros": 9432,
      "Progress": 9433,
      "Porsche": 9434,
      "Care": 9435,
      "Tribune": 9436,
      "martie": 9437,
      "Formation": 9438,
      "1741": 9439,
      "Touch": 9440,
      "339": 9441,
      "##gai": 9442,
[...]
