[PAD]
[unused1]
[unused2]
[unused3]
[unused4]
[unused5]
[unused6]
[unused7]
[unused8]
[unused9]
[UNK]
[CLS]
[SEP]
[MASK]
!
"
#
$
%
&
'
(
)
*
+
,
-
.
/
0
1
2
3
4
5
6
7
8
9
:
;
<
=
>
?
@
A
B
C
D
E
F
G
H
I
J
K
L
M
N
O
P
Q
R
S
T
U
V
W
X
Y
Z
[
\
]
^
_
a
b
c
d
e
f
g
h
i
j
k
l
m
n
o
p
q
r
s
t
u
v
w
x
y
z
{
|
}
~
£
§
«
°
±
²
·
»
À
Á
Â
Ä
Å
Æ
Ç
È
É
Ê
Í
Ó
Ô
Ö
×
Ø
Ú
Ü
Þ
à
â
æ
ç
è
é
ê
ô
ā
Ć
Č
Đ
İ
Ł
Ō
Œ
œ
Ś
Ş
Š
Ż
Ž
Ș
ˈ
ː
Δ
Κ
Π
α
β
γ
δ
ε
θ
κ
λ
μ
π
σ
τ
φ
В
Г
К
М
Р
С
„
†
•
‰
′
€
ℝ
→
−
中
区
县
大
山
王
de
the
in
##s
of
la
en
and
##e
##a
to
##n
##i
The
der
un
di
que
##t
is
el
se
del
die
##r
und
et
na
##o
was
on
##en
##u
des
den
le
for
da
je
van
as
##m
sa
do
10
an
les
una
il
by
og
##y
2011
La
at
##l
##d
er
al
##er
von
In
du
with
av
##es
med
con
##k
2010
est
per
2000
som
los
por
2012
12
het
from
that
De
no
11
2014
2009
es
20
su
ja
2007
2008
km
##an
2013
15
om
im
com
##ta
2006
dan
##te
18
##na
para
mit
2015
als
El
como
his
ha
##da
##ing
une
24
Den
Die
##h
##ne
##g
das
En
30
##in
##re
14
par
13
16
##us
2005
##de
2016
és
au
25
000
dans
he
che
##on
2004
em
dem
##ch
19
it
2001
17
°C
til
2002
han
##ia
Le
Il
##le
las
della
New
##ra
##is
um
si
2003
21
ist
var
Species
are
2017
op
zu
##z
22
für
##et
##os
od
son
An
26
World
##do
##ja
va
pour
ve
1999
##ti
sur
23
auf
##la
là
##é
II
##ed
Life
war
za
##to
##se
##ni
##no
or
be
28
##c
##ar
qui
He
az
te
##va
1998
27
mm
##nt
##ma
##ka
Catalogue
had
##ng
It
so
##je
29
1996
##li
1997
am
has
km²
dos
ur
##ie
##ri
entre
##as
University
lo
100
##p
31
ni
##al
##j
##ce
1990
John
first
##ca
##ment
os
met
ou
2018
all
1995
##ko
aus
1991
##ó
1994
Der
non
foi
##si
1992
##em
af
har
##ly
ar
##b
film
avec
50
1993
one
##um
##sa
bis
Les
San
##ă
not
but
##v
ir
who
ny
York
##ga
##ς
her
##it
ang
Mexico
over
bei
ser
www
dei
##mi
##ki
alla
po
History
UK
1989
##ge
##at
dat
have
this
40
American
##ba
1980
ed
##í
##ur
este
1988
ya
##ke
parte
ne
http
Ang
amb
bir
##st
plus
ITIS
##ro
Press
##el
##f
On
1986
1987
1985
men
##man
dell
ini
familia
din
1984
##ci
Saint
sua
##ul
##ndo
album
1970
qu
United
ao
##mente
##ve
mais
seu
##ą
Kirk
oli
##me
fra
Reading
Los
Michael
sie
##den
time
##za
##io
Bourgoin
NASA
1982
1983
##ów
Bailly
sont
III
1981
National
No
##á
1975
Det
##or
part
01
1945
dia
Das
1979
##nya
1972
come
##ya
red
##ten
Na
##x
France
sobre
##om
1978
William
tot
1968
1960
##di
1976
##kan
##ek
into
60
##ak
till
##ı
##lo
##ung
ble
06
1977
1974
1973
May
Paris
##2
ka
##S
1971
org
Mer
August
zur
mai
##A
dal
up
ng
This
new
aux
##ny
500
##ho
##1
##ju
sind
1969
Jean
International
Paul
City
##lar
##ji
200
April
att
ce
sin
Im
##go
more
nan
1967
pas
35
David
ei
##ts
US
1950
##co
TV
04
##ler
##à
man
Han
Robert
##tion
ma
1944
45
1962
London
lui
05
80
she
##ir
##ía
delle
St
1965
ad
32
65
été
sus
due
##ku
cu
1964
1966
##C
States
fan
NGC
Het
##ze
##w
1961
##ter
07
ki
1941
As
Al
##3
##ë
County
1940
##ns
1939
##ik
James
##ers
1963
kan
03
##ry
me
Es
Er
##sen
90
##des
##ha
##ção
70
Charles
##ban
##0
pa
ze
##rs
can
1958
out
wie
George
him
Inga
sono
##ę
noten
##ben
juli
alle
##ren
##sta
ses
1956
##rt
about
Peter
1959
02
School
comme
1943
##tu
33
1948
fu
##am
##ou
##4
Earth
##ä
ben
1942
made
##ria
ye
##ov
00
1957
1930
1920
##il
1954
##mo
09
vom
##wa
Un
##jo
forma
##és
##ica
##be
Se
##ion
deux
08
36
South
ta
nie
USA
##ken
1946
You
Maria
##ina
34
final
1955
League
population
##land
1938
##lla
than
nu
1953
##ine
##T
300
IV
1949
Thomas
1918
India
1952
All
State
##un
Oxford
familie
club
1947
##zione
més
elle
Richard
##che
June
team
Az
1936
44
##P
##ner
##ic
care
second
##ł
zen
ca
Nel
##ok
##ig
##th
March
##nu
She
##ada
Santa
##ste
##ut
British
pe
Film
ke
West
data
##5
gli
##án
co
38
1937
born
400
##dos
##ton
##que
place
Berlin
##ty
##tes
1951
pod
##ble
37
##das
cm
##gi
##6
##nen
General
##ní
North
##nte
##ll
doi
##ea
##res
Martin
##ant
Park
##ò
##vo
##ée
##né
1933
Love
##id
hat
ko
##ssa
Po
Society
cho
##E
##ck
tra
pero
##les
##ning
##lle
1935
##ado
##R
##B
##ske
42
War
##gen
##I
##zi
1934
pro
1919
Em
##ot
##ist
64
bij
##nie
##ista
48
After
39
##der
##7
1914
nord
pp
##vi
Europa
Club
Music
radie
Grand
ci
Museum
prima
fait
volt
1932
Louis
##nia
1929
will
total
One
bi
Man
1928
them
ai
##berg
41
dalla
##pe
world
ab
55
##pa
amin
original
won
1917
##L
43
ale
##9
José
single
ont
Joseph
commune
##nde
1931
cui
may
general
##tas
Records
school
sous
solo
##8
Art
For
##ski
##O
base
##ent
via
nom
47
1924
75
##men
ex
people
gran
##lu
local
mars
grande
America
Lake
1927
##ky
##ger
##G
##ão
##ý
College
Union
Ny
##du
1922
##cia
1925
cette
##ura
1921
To
wa
1926
contra
Van
##ii
##sk
sein
##ol
##ón
##ā
##ć
##ska
##ad
##D
nombre
##nes
##mento
bu
Am
esta
Nach
1912
System
Award
King
anni
##M
Las
bat
hi
1923
partir
51
52
Nacional
##tt
46
FC
##by
sem
##lt
##nd
##N
ay
##ien
##ai
Elle
Cup
House
sig
Italia
same
##F
aber
1900
band
end
nos
River
49
Sie
city
1910
Washington
##ach
Me
My
##are
China
même
Tour
Royal
His
four
##son
ing
Henry
ile
##ert
1913
village
##len
Pierre
Dr
li
English
tre
vid
##ron
California
##ita
##ies
##ire
56
##ian
##ana
nome
Canada
##ě
##ú
re
##cht
Red
##he
était
##bi
CD
IC
principal
54
sud
game
degli
##lich
##so
anno
##ische
Smith
version
##ks
après
##ud
##ru
tres
1915
public
être
Juan
dit
long
They
Cambridge
At
England
##q
Air
##au
##ier
##cy
##mu
Center
BBC
There
##ida
Madrid
Australia
Best
sau
##K
ut
1911
Company
Don
Si
ville
ans
##ls
Black
Association
53
Christian
dont
##im
use
84
Hall
150
Europe
Hans
ten
Festival
land
former
##ini
##V
UTC
##han
cada
go
Mai
1916
system
##bo
Do
Daniel
pela
Roma
group
600
Francisco
##nin
wat
Jan
leur
##ation
1905
##tor
où
home
57
Da
1908
##dae
58
station
fin
##ius
East
Marie
Star
augusti
music
post
national
high
set
Island
##dor
like
1907
##ux
mas
##vat
ra
##nda
Karl
##lik
##idae
59
fut
Frank
Antonio
##iu
Stadt
##ker
Central
##ė
ga
##ang
Japan
French
kg
XIX
show
off
800
pelo
##ige
##ua
##chen
##ico
##ted
premier
European
ban
Bu
##ice
Open
site
major
##hi
vida
Band
Journal
1906
Od
art
1904
day
##ive
1909
##ling
##ity
##ej
we
##ata
High
##dir
District
Street
##sti
Als
##át
##gan
##ven
Zeit
95
novembre
Per
Edward
##zen
Division
net
service
##ui
autres
Population
Mark
##ei
Time
Land
aussi
Nord
Lee
##°
song
##rio
back
##era
85
Times
hans
##U
##rd
German
##nik
bien
Institute
Is
sul
hun
##ville
##sch
120
Carlos
Group
##lan
depuis
onde
##tan
nad
##ene
alors
Alexander
Live
62
XX
88
large
video
Modern
mot
Radio
Os
casa
age
##lor
également
##zo
##cie
##ure
life
##ley
district
Rio
##ran
Barcelona
São
production
line
72
meg
##ere
##ris
main
fr
First
##kin
##tte
mi
ali
Index
White
ainsi
Team
##ting
social
Information
##dan
Science
Una
##nce
left
siècle
##ně
Rock
Data
Op
ordo
série
did
1903
Mary
##bu
première
82
capital
1000
99
form
habitants
##tta
Friedrich
##té
Ein
fa
##ber
250
66
News
From
##ale
86
Carl
lan
pre
zona
Angeles
##val
Simon
tempo
finale
kom
famili
When
INSEE
##ère
##burg
rock
side
play
1901
63
##ah
partie
sy
VI
Brasil
Su
Von
banda
Tom
##age
if
##sche
##tus
primo
Atlas
water
##ksi
Hill
##ique
##ła
bio
Jones
##ás
Anna
##ano
1902
##ido
96
1890
61
67
Chicago
mar
81
98
97
point
##ð
##ros
Santiago
##liche
mort
List
Championship
Jack
Bureau
##ino
##mann
##cu
##nek
##dy
match
Awards
temps
Roman
Day
mu
top
Juli
700
##ü
68
##mer
etc
Juni
pri
mens
Real
##ms
##ito
##tet
Son
##H
central
##inen
Por
Sa
83
record
España
##jen
Internet
##ego
Albert
Culture
Marine
76
radio
orang
provincia
##ate
##nje
##ima
six
puis
important
##ium
##ens
92
##jos
PDF
Texas
million
Album
##ari
Young
93
Big
program
football
What
1898
78
pel
Williams
##kt
Football
français
années
best
Walter
##ono
contre
71
Este
##ő
bila
media
91
##aan
##wy
##ι
77
Party
international
74
##lis
##leri
lors
jo
Indian
73
Vol
##zy
1897
1896
##rat
##lig
zo
vo
death
##ver
DVD
air
peut
1899
##gt
69
##ceae
vers
##we
Academy
87
##nja
##sten
##gu
satu
Great
Under
Sant
importante
##nis
1895
popular
Lac
lang
id
mis
Of
With
##č
##ld
Brown
##let
Johann
##ques
services
89
tym
Nam
Werner
Road
##ν
trois
##ké
##rum
Bei
Wilhelm
centre
##X
##pi
##ara
col
Cerro
##od
##ys
##tti
Top
fou
And
Church
Mit
Night
##ite
##pen
##per
vol
##ez
By
##og
ter
##ato
1889
country
vier
1880
##nak
ia
##use
Version
##ele
jusqu
Jacques
book
94
##nti
##ser
né
María
Army
lat
##ster
##schen
##ue
##ť
##sia
Asia
##ras
##ret
Super
causa
points
79
wo
ano
1870
Grande
##än
##ova
##sko
##chi
type
##ile
President
Scott
tai
Luis
##isch
##sse
##tar
just
Council
##ane
##ija
Social
Australian
##iva
Prix
Guerra
Centre
twee
tour
##ş
ces
Con
Pedro
avant
Sir
Argentina
Max
led
Ende
We
##bar
##ye
piano
Africa
So
ovat
##su
Liga
1886
Iran
##rie
Windows
1885
très
##kom
##sel
Harry
Mr
Verlag
##ona
##mas
dar
1894
##one
information
##ade
Department
down
Little
Arts
Portugal
Di
nas
##ák
Power
##line
sen
##van
position
Research
1893
##ft
live
Meyer
##cha
Jr
1892
##dd
groupe
Blue
##net
ich
fins
Sciences
1891
##ais
##eur
VII
##ça
Israel
François
##aren
web
car
late
tout
##ey
##ira
bet
Deutschland
##uk
poi
##lin
grand
##ore
Men
you
Dans
##ena
##W
Global
##ise
Teil
##vu
##est
1888
tu
110
XVIII
##ika
##rn
Joe
##uje
plan
durant
Green
Lo
Adam
Good
Els
fel
##zu
hai
Wilson
XVI
##uri
grandes
studio
##able
Co
plusieurs
Creek
Manuel
##sis
monde
ez
Ed
sans
##ité
##ná
Nova
##vel
##een
##ali
Arthur
##ring
##ves
Instituto
##α
support
Bay
##ses
Copa
Chris
##ges
Bill
avril
quatre
Western
##ard
Jackson
way
Afrika
ho
##ente
ils
Song
power
##ih
##ín
gant
model
musical
##ham
##ende
##tra
##ž
Au
Serie
##ncia
similar
Two
house
Law
##lia
Chile
##ps
html
fois
ary
##eri
Her
##ès
1878
##rea
berg
Series
Mae
Johnson
1883
maj
##ées
law
Li
##ati
article
États
##sh
##ds
Mike
Gran
Michel
##ix
##tic
1887
Thompson
##nom
face
Giovanni
Cette
Chinese
far
Ben
Register
##ì
Long
Steve
##ami
##ula
suite
##ide
norr
##tos
vil
##ee
##ala
Philip
##ons
hier
##cs
opera
1860
cap
Ce
##tà
##è
Media
##ły
Dit
Office
##met
style
Sud
circa
##het
Paulo
##op
##tik
1884
##fa
##nza
##via
Heinrich
full
##yn
came
Force
##mos
##ford
130
##cher
##ism
Taylor
##issa
##ç
construction
##field
sai
gan
list
php
##ss
1848
1882
1881
juin
##tis
fine
##ici
Lord
Show
##heid
lub
avait
famille
Columbia
##nan
##rna
année
case
##eg
tous
##urs
Russell
ru
min
##tat
Service
Anne
Are
##tura
Para
##ous
##ell
avoir
Une
1st
1871
Roger
lain
##ës
##ο
Ali
##po
Billboard
##mus
UEFA
janvier
##rer
Bank
Women
##nn
Kim
900
##mes
##nim
Your
fire
septembre
##ingen
##ese
Year
round
Otto
##že
head
##ù
##bra
Bob
##cio
origine
morte
dort
class
##ht
##ral
##ți
Inc
hay
saison
Ohio
octobre
1861
Henri
story
ac
1864
ging
1857
1879
##én
Virginia
modo
##tica
##yi
Empire
##vé
Entre
That
1800
##ket
plu
##eren
1876
Up
fer
Wien
##llo
Victoria
date
Esta
Florida
yo
tal
Republic
Seine
Boston
design
sia
Special
##ungen
##tz
mer
Queen
dai
FIFA
VIII
##iem
Program
short
pop
term
contro
##hu
##bre
Foi
forces
Alfred
Ottawa
##rte
Francis
##ero
Ha
##igen
Ma
Francesco
##ement
Tony
division
Franz
Unis
##gang
Lewis
##bus
Een
##bel
vie
Old
1877
titre
##rin
autre
##ili
ara
juillet
##los
1873
1863
1810
metal
Je
1875
##ila
Book
1633
##ging
Des
Commons
1865
Natural
##nosti
##erd
##ff
1867
Digital
communes
André
##ét
African
Sky
##vis
##ram
160
pays
##dia
professor
arte
##rar
1868
##ede
Stephen
Patrick
sei
Saison
Ray
ima
Villa
half
1850
##iv
Some
Google
##ën
##ong
XIII
Robinson
Home
Universidad
Costa
##iti
##ando
Miguel
dy
Johannes
180
##jas
##if
project
1500
##rus
See
structure
##iques
Buenos
décembre
route
ass
Nature
1866
1872
SS
XVII
1859
équipe
vita
vir
vi
sos
140
Ia
Aires
free
Airport
notamment
##Z
Sun
Act
##nym
##ding
Brian
1869
##ern
##heim
##las
général
##ett
sub
août
1862
lieu
##jon
Georg
##ña
##nas
##ay
Andrew
##elle
tarde
Books
Lady
Jawa
##ness
Mario
actual
##ani
God
Amsterdam
Pro
Fernando
Canadian
Studies
race
Bad
1874
Oscar
bol
party
fi
aj
125
XIV
Online
Eric
##ella
municipio
Game
##tre
##nts
Za
##lus
Institut
##tive
Londres
##dad
Guide
open
##lli
Fue
Hot
Publishing
##ék
run
Korea
XII
XV
Court
##nus
2nd
Dictionary
EP
Ludwig
##uta
https
101
possible
faire
##way
##nica
##bach
color
Wales
Oslo
##vas
Point
Library
miles
pola
business
Mission
guerre
Marco
civil
Jakarta
inte
Elizabeth
Victor
nationale
dag
Jim
human
Pour
Second
##erte
Auf
Prince
forme
Entertainment
##tal
##ae
##ń
##ties
Como
française
action
##ál
##her
##zer
cours
##una
##iro
Après
##xa
tant
eus
gab
magyar
superficie
##ové
People
én
##tro
Set
dette
Miss
Ta
anti
##illa
Ford
##vá
leurs
##owe
Dan
Century
Sam
##osa
##bles
films
Davis
dio
nouveau
Mount
Wolfgang
Station
Project
office
ok
principale
Alan
track
moment
Claude
##cus
Be
chi
Fort
roman
Carolina
vai
body
##ori
IX
province
Nueva
##bia
Line
Most
Gold
##rne
él
encore
##jan
ere
syn
Town
ti
##hin
##nos
région
Professor
Valley
autor
##š
##wan
##ās
Model
kas
##ich
##fi
##ins
##ré
##gar
##lui
##ille
news
##lige
Việt
Auch
Golden
performance
##lse
##san
Cruz
Carlo
Go
nam
Enrique
moins
eu
##ful
DC
Jersey
Bernard
Zealand
Sur
Corporation
##feld
active
bug
##nost
##haus
##ntes
Stone
sama
Sydney
Susan
##ći
Austria
ora
Committee
##uar
##set
Other
Federal
##del
##bb
##lio
##isme
put
Games
Development
histoire
Out
février
##kel
Princeton
Who
qua
Um
105
##ag
Roy
Girl
##ct
##kou
1830
If
Post
sent
##ments
##zie
##isi
##dal
Foundation
Ernst
Sin
mange
##nog
Space
##ose
hag
peu
Kong
Government
##nar
soit
##ões
##ces
front
##up
Rome
Pacific
##ait
##fe
stand
Stockholm
san
Master
tard
Miller
Latin
common
XI
Web
Ireland
##oi
##oni
##ante
Hollywood
ligne
##gas
Public
Kingdom
##sson
##ño
##ean
Story
lu
##ło
Diego
embargo
##υ
novel
##mar
mondiale
Bruce
Review
1840
##Y
##pus
Order
eng
Premier
##rono
Va
##eta
Pennsylvania
Islam
Alex
science
Yn
official
##nta
Port
##kat
Sea
Board
Budapest
##še
Anthony
##and
##ggio
##wood
addition
##ete
##zia
Part
Navy
##oa
Network
Movie
##hen
mare
recensement
América
Regional
devient
Battle
Last
Milano
102
Can
Janeiro
Samuel
Family
topon
##isen
##ette
Ort
lett
##fer
NBA
##tie
Douglas
neu
Its
##ivo
court
parti
celui
Rose
##ao
map
1858
Fox
##dá
Main
disco
Non
##dt
section
##nou
Gordon
park
##ö
collection
##werk
Civil
##get
Disney
pendant
##ši
Monte
ant
tam
Illinois
hon
Final
Du
##ary
sea
municipal
Commission
selon
##ora
hit
Roberto
filme
##ych
##dra
Georges
Santo
##lag
##min
Summer
##vano
How
Country
exemple
##pt
standard
donc
##less
vs
Major
cas
##iya
350
Video
##my
nich
##zza
Trade
Anderson
##ans
##ká
Norte
leader
##če
dois
fils
particular
##ör
Hamburg
Microsoft
##cos
##tions
##ść
##vet
politique
force
mil
police
fast
person
black
río
pot
1856
dua
Sport
Education
##owa
Leipzig
polo
##ého
1854
Report
classification
Casa
Hong
##don
diverse
Howard
##ē
kang
##nto
Heart
File
Allen
##zh
Like
##ela
Internacional
Plant
104
##pan
Southern
aver
Massachusetts
my
ham
Ltd
Mountain
process
Three
##tto
Nations
start
##ama
1849
opp
##ola
chef
Theatre
culture
square
hy
##ast
##det
books
tan
##ava
samo
aby
##tek
##lari
##iste
mal
##kar
##ota
Joan
inn
##cion
Planet
sang
Anh
début
Village
##ân
Colombia
1855
hand
Georgia
Volume
##mis
##rsi
festival
Christopher
zone
source
##ön
genre
Marc
Toronto
##iden
homme
Catherine
##º
Québec
Soviet
Business
##ī
ada
minutes
less
1852
Tokyo
cause
Tim
dira
gen
Norman
3000
terra
sold
##sto
cao
##iga
##vy
drama
course
Manchester
Northern
415
gave
##tin
stage
située
##ije
##sin
Magazine
Moore
Kevin
upon
Will
##ō
Boy
##ries
Deutsche
Harper
##art
##tzen
##ping
Stanley
alto
Minor
##vos
Philippe
170
Hotel
nouvelle
##gia
##J
##aria
Human
État
Walker
##ott
Pakistan
magazine
Middle
ani
Gabriel
change
grad
oa
FM
##dar
##ias
Death
##lta
##hus
Catholic
Hoa
Michigan
##vin
Universal
road
##imo
sale
##nne
ouest
sé
Finland
ins
alt
Sports
##its
quali
Burton
##či
Gary
##port
Bell
##asi
##ish
quelques
m²
Ze
té
##ség
Small
1851
text
##heit
ordre
Jane
Johnny
103
ger
issue
##fen
Maurice
##dom
##house
1853
sol
parts
shows
tae
ensemble
##wie
Coppa
##leg
celle
##tore
##ios
##yo
Ab
Est
direction
range
Beach
mid
mod
usa
##din
##ient
##ial
format
Irish
low
##king
center
Ivan
vu
tri
église
##tel
Hitler
##bile
##că
Denne
##čka
nova
1846
Way
Province
Cross
##tum
##ñ
##liga
Giuseppe
115
roi
Light
##mia
ba
Venezuela
ku
##tur
##lé
Centro
coach
classe
##gs
Over
##ev
Johan
##lon
##red
##jes
##ngen
disse
##menti
##ński
Historia
##ngan
Name
Mar
Clark
##tori
Mais
Josef
Fall
1847
light
García
##mit
##gh
1815
##usi
âge
Kelly
double
##rak
##cal
Alberto
##hn
##zar
Milan
Loire
dalle
220
Marcus
Institution
##yon
111
Ontario
uns
importantes
Alpes
terme
Jesus
Hermann
##iz
Dance
bad
test
pag
107
108
Hamilton
##oli
zou
##gio
cargo
mise
ISO
##well
cinq
ante
##bau
permet
Ann
##ions
Stand
sue
Billy
dir
Mann
Wild
semi
volume
cara
##smo
##rik
##ê
1845
##tico
bod
Back
##wi
Ferdinand
père
Health
##lde
360
moderne
##oon
Vietnam
verso
étant
Hugo
More
1842
##ec
Nelson
##zio
Technology
immer
Puerto
trouve
##uit
Del
page
##yan
Philadelphia
##car
Congress
Edition
##eo
oro
Field
surface
Down
membres
cum
Barbara
Fire
##ades
240
##ture
transport
Hospital
Britain
##ków
##gel
Not
Studio
1844
Stuttgart
Sul
##dem
époque
ABC
sites
DJ
Alice
close
##ones
##ap
Dave
##xe
membre
individual
##hed
106
Moon
##ša
gas
près
##uan
Sri
Andrea
##sy
##tud
contract
##jem
##ule
##sky
week
##shi
##mal
Free
Nick
112
##ony
président
love
Near
##ρ
Jazz
1814
dernier
elles
1837
Jorge
Vincent
##tia
bay
Val
Dark
128
Lawrence
space
##ech
chez
Dat
##ult
Rudolf
simple
##stein
még
rôle
##nden
termine
##bes
##ô
##sed
##fall
1839
Theater
Jimmy
Zu
##wski
Et
Adolf
département
##rse
Anton
situé
Med
##uto
Hun
##ał
bili
##lah
1834
niveau
About
##int
Single
Sherman
hab
primordial
1835
##ches
Code
##mon
Missouri
Nobel
Baden
bin
##rta
109
##ving
##rk
Township
Charlie
pol
Minnesota
##dur
Eastern
##ort
##itat
##nh
Khan
##oja
gang
Come
Barat
fram
##å
formation
1838
Dead
##pes
PC
##sing
Guy
135
Jordan
##bor
##nio
Era
##led
Ana
##ors
##gue
##gos
Blues
Jonathan
##film
##ères
##ming
##tle
Porto
##ová
Ten
Junior
##dre
Pape
##ab
##nice
Mas
Conference
##èt
plant
Boys
##kov
1843
Donald
##kas
##nna
Nicolas
##rice
gibi
##ár
##ance
Ryan
##bin
cases
Management
##eti
Jacob
##nder
1831
rue
existe
unit
wis
Amt
Course
Río
Duke
centrale
sta
##iche
##sal
eau
vice
Tod
Sarah
sera
casi
##aire
Channel
Ele
Magyar
étaient
Indiana
self
hos
Terra
##cho
Ian
##pp
1812
1836
##rit
##ül
ul
##ow
1644
Levy
nature
presso
certain
1841
star
normal
117
##dorf
Stadium
planta
kommune
anu
Franco
##kim
Winter
##var
##ovi
Museo
##ić
Bruno
190
deuxième
##over
Harris
Rosa
grote
western
compte
##vad
Com
Keith
Ross
##lat
León
camp
René
clubs
1600
future
seme
450
ver
ensuite
##az
Gesellschaft
##ania
Chief
Kansas
fort
Atlantic
##py
Harvard
##uma
Railway
mao
1832
Girls
Apollo
##hr
1833
Pays
##ská
##elt
Four
1820
End
ancien
##ario
Germania
Frau
MTV
Third
Jason
Haus
Teatro
Andy
uk
##ute
Benjamin
gmina
Renaissance
##bio
##llen
##eno
##ef
##sus
##pis
##wo
wel
Head
##eu
##ires
Opera
Salvador
Ils
Machine
Segunda
environ
##ře
##ί
Herbert
Baker
pay
És
provide
Islands
port
Oliver
scène
publication
nombreux
##ats
Leo
tien
Fred
230
##ym
1793
##ase
##ped
Sierra
Asian
Scotland
night
##och
canal
dues
Mac
toute
digital
Erik
##ća
Form
Graham
direct
manager
ayant
Kreis
don
ag
Lincoln
Sein
##aux
jour
Collins
Adams
bass
bilan
forte
code
river
123
déi
Matt
But
114
Wright
##ics
label
Songs
Hy
##ward
113
ami
##dio
##weg
##rii
tog
##ța
Body
Prize
##umi
##ned
##xo
##gal
carrière
HMS
mission
Tag
##oma
1821
ran
arts
##wer
750
##ük
##hl
corpo
Fu
##ento
##logie
Castle
porte
Baby
##lles
Champion
mois
Justice
##ides
Nazionale
dr
116
##lte
Arizona
Another
bisa
Welt
Colorado
##gy
Just
Jewish
División
Now
Regiment
espèce
210
Frederick
Morgan
##ets
##bal
Gustav
Let
##ır
##isten
management
Sainte
petit
Musik
Today
Morris
##kog
Revolution
Liste
Historical
Robin
##dus
##igt
Charlotte
Studios
UNESCO
Pablo
Bayern
##dig
Object
costa
Apple
complex
Jeff
Santos
##inin
##ður
Cuba
Gallery
##sme
##rde
quasi
1200
Express
cel
Straße
##und
Many
epi
Corps
##ż
Wang
##hausen
Daily
mat
##iai
König
CIA
Edwards
Christmas
Contemporary
Luigi
##sz
##ament
3D
1825
pak
hui
Mars
parents
##pin
période
influence
Remix
ship
souvent
Fritz
conditions
Dream
1700
Raymond
commercial
rest
jeu
Andreas
Paolo
ob
Ces
Survey
Medal
João
##sar
island
##lang
Vilnius
doit
Arab
##fica
Stati
soll
Doctor
reste
principales
mans
Age
##ča
##ord
##aa
1829
Stefan
##tiva
##sie
kW
armée
##stan
##any
sector
121
AS
##ß
##kon
Bridge
##gne
Papa
stati
Sound
Par
5000
##ip
Cultural
Champions
##dis
1828
our
Captain
001
Ett
Place
1806
##kal
##sion
##kus
Orchestra
Memorial
Pietro
##mat
##cida
122
américain
ua
##pu
Stewart
##gus
Coast
##jar
##cer
rapport
Laura
##bil
##out
118
##non
##teur
LP
##mm
Euro
figure
Sultan
##ction
traditional
Gray
Get
Coupe
internationale
report
jazz
outside
##endo
Pop
Angel
Steven
basa
Muhammad
Bishop
##èrent
Wrestling
##esi
originale
Garden
127
corps
honor
Ez
Grant
Ao
##nel
##ib
##ät
##ical
##ande
Société
Miami
gouvernement
Woman
Kr
##eli
musique
Bull
##lie
##nal
afin
YouTube
Forest
Berg
##ione
##ró
rata
Rafael
Route
liste
bit
Jerry
champion
Dutch
Dom
##ži
Water
##pel
score
Marshall
figura
Play
SM
##mba
Collection
donne
Silva
##inde
Catalunya
López
Design
Arnold
continue
Haute
significa
minor
Sons
femme
Jon
##yer
EU
##aja
##ude
jadi
##nk
anglais
Mix
train
Airlines
##czy
enn
##dat
Pas
past
Gli
Melbourne
libre
##ologie
str
##jer
1802
##sos
finales
tuli
Dame
épisode
Primera
126
Area
Kennedy
##eurs
toujours
##nici
1824
dog
lingua
##pia
González
senior
stal
featuring
issues
aller
Warner
Springer
##chten
280
Standard
145
##ška
mètres
Sommer
Chart
chaque
Avenue
##hip
1789
château
##ein
1813
##erne
Stars
Academia
nou
Köppen
##lly
view
##ual
Wisconsin
1826
##town
jours
Murray
sport
Antoine
##ém
##gon
##worth
bronze
##zet
1818
AG
bang
##ndi
administration
##tua
Lucas
124
260
hommes
Arena
Olympic
porta
mes
119
##our
Etter
Wolf
Lyon
Bij
Alle
Peel
Lost
##ã
Franklin
##log
Alexandre
##rato
arrondissement
Margaret
Canal
##rata
Born
155
##borg
ji
Fame
fall
##bili
Carter
Police
Kinder
Classification
Sony
association
##ular
auteur
##rios
Municipal
##bert
##ain
Mal
WWE
Mitte
Sen
##eva
##time
Mei
##ema
##ology
175
##side
##ène
##esa
##eko
##rek
##pat
Barry
bar
millions
Vladimir
##yen
AC
1790
SC
industrial
hospital
amor
Phil
intentions
Julie
Peru
combat
##nga
charge
Matthew
image
Campbell
##ales
##rdi
Helsinki
##nge
Kurt
##mt
plans
USS
sports
Dal
##ists
##cat
location
##oda
unique
effet
Dies
##bat
prix
##eth
##ost
##ím
Warren
Here
Rhône
Cover
##sé
auto
matches
ibn
Page
Children
totale
Holland
Brothers
esto
##ndan
##inger
##ller
Aus
1801
heavy
##mé
270
##ac
##zed
access
Wood
ATP
1816
##cies
better
##gé
##tir
global
Abu
##mine
1822
##gd
129
PlayStation
##els
Turner
##mek
rate
##rant
nous
toutes
##oje
##iera
Medical
##ures
##yle
hari
131
Madonna
enfants
##istes
Liverpool
rural
132
##ža
##har
Amor
##cis
144
##cas
OS
Metal
administrative
Evans
nommé
##tter
articles
mode
Iowa
Plan
##lands
##iana
Racing
papa
tok
##ør
Fernández
##bt
key
1819
ministre
##etan
coma
##hal
Denis
Müller
système
capita
##ué
##iska
Our
études
Roberts
1827
Marcel
distribution
Ar
##mie
##esta
fille
##itas
##ence
Tennessee
##uda
Durant
Java
droit
##kai
effect
##tina
Bis
personnes
##nier
##vit
œuvre
Pictures
distance
##aka
##jet
Television
euro
JR
prend
##bie
134
Wayne
##nut
sex
Houston
Dia
Community
Zur
##kor
Jay
liga
1758
##ric
##mp
##vio
##logy
situation
société
152
stations
##uh
##rad
jeune
20th
Louise
##ciu
1792
Gilbert
Early
insect
VM
##essa
Tras
Fra
fact
##atan
Cape
ch
##idos
logo
Dean
##yd
Pan
Highway
diverses
133
##back
Lima
##cks
##usa
premiers
##TV
##eni
##vić
folk
1817
##aba
Spring
Julius
parties
Catalog
Popular
Stuart
peuvent
Delhi
Bau
Hockey
cet
##tig
Only
Eva
basen
Allan
##rade
Marina
Castro
##bahn
##cki
projet
Broadway
Zagreb
Afghanistan
##rado
Lorenzo
##rium
Parker
Chr
records
sexe
##lsen
##ings
Temple
livre
##wana
ana
Record
136
##gin
Mrs
##ged
1808
Yang
kon
1809
demi
##kos
Austin
##nant
##itz
cost
Blood
Om
sino
CBS
Earl
Scottish
animal
##zat
cosa
Hills
Cooper
Deep
Alto
Valencia
font
##nger
trade
Jana
##ün
voir
320
cast
turn
##iko
vote
staff
lagu
##enia
internet
cha
137
territoire
Years
Engineering
Systems
vain
poste
1795
##ator
Bach
##ame
mana
##adi
Federation
albums
agent
militaire
Zone
##icos
##lerin
HD
1803
##icu
##num
Bot
##vre
##all
Allemagne
##ós
##ont
##atu
##nski
##vala
notable
Rodríguez
Silver
Guerre
sources
##ża
##ney
##ues
153
recent
##uer
##eus
##tak
Elisabeth
##nse
##ías
journal
Arte
##uti
Christ
Ernest
maison
Sau
Economic
voi
speed
anh
##IS
##ür
##pet
dès
École
bas
1823
##cing
##dag
hard
Fischer
favor
Martín
Eduardo
tom
aujourd
##olo
Kunst
##eria
##ime
##cker
##til
Valle
##rada
types
Days
##ega
Parliament
Wars
##hat
##ize
##dit
192
##ær
value
Vice
fosse
##bury
Italien
Class
DDR
##ër
##tique
Bulletin
##stes
concept
Watson
Nintendo
##ering
165
##oto
##pie
Front
##rre
édition
Iron
##lom
tendo
Plus
places
dire
##ust
Five
##är
mano
##hy
sociale
##Q
##ulu
sit
prime
Nicholas
musica
Linux
##eve
troisième
1811
sound
villages
##zing
Complete
host
Before
Bir
Parks
##zin
Julia
##iri
Kota
Spider
##rm
##end
##lem
Lloyd
Conservation
Ken
##aga
travail
##vor
##rel
Ari
bus
Bobby
Or
Rolling
BC
Domenico
Yu
##mel
Kent
Reich
Pérez
née
##af
##isa
##riu
Unión
Leon
certains
école
Eddie
Ne
concert
marine
##ň
Military
##iel
serve
Hon
##zel
tête
##rz
149
Motor
Som
présente
anime
Taiwan
Raja
bli
championnat
138
Square
##ration
Napoli
perché
Mont
##cle
Ball
Language
Desa
Guatemala
Site
réalisé
Rolle
2019
##lne
Secret
Position
mille
##zik
##ill
##lad
148
1804
shot
content
143
Bergen
##ško
Sankt
##etta
Wall
##bs
Films
##tant
##sm
Nouvelle
Dragon
##pun
got
Ve
141
##zes
##wen
Oklahoma
##ço
classes
Lisa
Ciudad
Discovery
##more
GmbH
1807
Atlanta
temple
tim
##ży
##stadt
Gruppen
joueur
latin
programme
île
139
sexual
Schmidt
Maryland
us
Kentucky
Larry
cross
##ois
##aal
pie
Imperial
Parti
ak
idi
Sol
##une
1805
##tem
Lan
Ai
Italie
Harold
146
##shire
Kenya
Neil
organisation
1794
##bare
##for
Histoire
##eau
République
##lation
Mayor
monument
Soul
Oregon
Detroit
Met
Sunday
positive
##mise
Sebastian
##ines
Torino
##vou
##erna
##jä
##form
Box
Original
Magic
tv
OL
nombreuses
Mississippi
Urban
index
aid
##rate
Alfonso
##zt
##rem
Australien
##ridae
##hon
Bird
application
Mi
##bos
##ball
sister
Roland
147
rugby
Wagner
meeting
relations
lot
kur
act
altitude
Harrison
deve
Knight
Ligue
Geographic
185
villa
note
multiple
Alabama
rus
extra
Dennis
Ralph
Ukraine
142
Shakespeare
Publications
notes
Terry
##hes
Mitchell
hin
deal
Unit
##nem
Prime
##icus
##ace
Base
Isabel
grâce
Abraham
##ug
Mans
##gn
Henrik
capitale
directeur
##iano
Osten
##stra
Laurent
Zürich
##ep
##stu
Dick
Hier
##die
##jn
##nsa
Dallas
Queensland
versi
Hughes
##ére
Camp
Kaiser
##kk
comte
native
Din
gare
##cem
canton
subject
##air
succès
##dea
Hunter
##lja
tradition
##qué
##cca
Hi
Nancy
##rá
Novi
Control
##pas
##oe
hau
Rick
##sat
##ís
1798
pouvoir
Tu
Singles
campus
diri
Selon
##tone
##bet
##oz
Tommy
UA
amo
##nic
tenir
##teen
pr
Sint
##als
##sas
longer
stat
Boeing
NFL
##ores
Fe
Perry
##dh
pat
##ppen
Independent
Jules
ancienne
##hof
Guardian
engl
question
##oso
##rou
Ho
diversi
##yla
Services
Note
203
dus
fill
##eda
##yt
politico
##tein
##rg
pages
nota
##nz
meno
Ricardo
##see
##rka
côté
##ên
##èn
Foreign
Carmen
programma
##lot
jer
##ako
##iers
1799
Re
##10
##por
##isation
##ól
##osi
Leonard
##tien
##of
##ole
Prima
151
développement
##yang
##gua
##mana
Danny
protection
Rey
furent
##unda
création
##tate
cô
1791
sort
Ron
ultima
##ët
mère
Rob
##head
phase
##wn
virus
##gie
vest
159
Unter
156
dance
##pur
##trice
Dei
sik
1400
##lage
168
zones
your
Baron
Alain
seul
Comics
Never
##zas
fiction
assim
##anie
Schloss
##ume
Naval
loi
Felipe
Limited
##dou
154
1797
pois
Frauen
Notre
##cco
azt
Dublin
##uz
Ocean
bo
sala
stock
sou
stop
singles
##maa
##chte
##gem
César
##lara
Mercedes
cadre
prison
Uruguay
Classic
Emma
Singh
Orange
##stad
330
Ye
religion
EM
##lum
##xi
call
rond
##has
##bank
##off
Ferrari
Krieg
Alaska
##iet
##uch
laquelle
Flora
##jana
Maine
Six
existence
Graf
pilot
Guillaume
populations
##rica
Masters
races
Torre
##unt
Congo
contact
Metro
pl
connu
deu
Buch
##ub
devant
Medicine
Berliner
##wald
550
Computer
terre
##ght
sat
Bar
massa
Peace
##wel
##ved
raz
##oy
versions
##tok
Oriental
mag
ball
201
##yr
##platz
Burg
agit
##ř
écrit
cell
Hand
Anders
Side
Mare
stars
vila
##fu
Philippines
union
##rian
Colin
##bit
Production
dû
Introduction
allo
architecture
domaine
Historic
##band
##kap
FA
quand
##nska
Martínez
##ann
gouf
Federico
université
1796
Meister
##iger
command
siège
##mir
Lanka
Rica
nave
225
Lane
1775
Hugh
Theo
##ún
ceux
##dere
205
Sánchez
##cz
Joachim
##rkan
bal
##nidae
##kka
##ös
vivo
locale
moi
boli
Due
##iki
##ick
vert
Seattle
Willem
167
##rana
##nat
##recht
Université
##bro
Security
Karel
mam
##imi
##yk
tennis
Hudson
border
fans
##oko
Lors
vann
##kie
Grammy
##ggi
Kate
1300
couple
prior
Both
##idas
Jo
##gli
aire
Montreal
Dam
##zos
assistant
Edgar
Giorgio
##onia
hall
Rico
##gut
MS
Ich
##ché
157
##dent
##lingen
##ctor
press
hockey
##scher
Belgique
##nça
##onal
##tou
sui
##eb
Energy
figures
##00
Seven
Newton
sam
##rra
##ars
Vicente
##ppe
allemand
##water
Phoenix
##lam
Cook
bridge
##gg
mile
650
Ved
290
Electric
raison
Bush
##vil
Angola
viz
##gna
vocal
##mina
161
Batman
Jesús
##aj
##ove
Software
Marvel
##cken
##uo
Operation
Emmanuel
Zum
Feb
cabo
Delta
##gde
Take
Solo
##nud
fora
Action
##mme
état
Drama
interview
##ssen
Teresa
opposition
##lje
Bas
nim
Rom
158
Sus
Braun
multi
sing
Caroline
Galerie
##ε
163
dernière
Theory
##straße
SK
Via
sortie
##lina
##rda
Sean
PS
sien
permanent
Beatles
Type
##gate
Petit
##lica
##nze
##aya
impact
SA
##bas
passa
pole
##rst
##fo
##jin
Ba
occasion
Helen
attention
Cleveland
Ward
Grace
tropical
Sachsen
Klaus
##ike
Afrique
voix
Jennifer
Depuis
basso
renda
déjà
Edinburgh
manga
Sophie
passe
Conform
Sarajevo
comes
Baltimore
Sofia
Tower
plants
##dik
##vam
##wr
machine
Capital
Pero
Dakota
Bundesliga
torre
Eduard
Minh
##rina
Sweet
##meister
Chelsea
Te
##row
milieu
Formula
##rius
Boris
Potter
Tra
Nguyễn
Ronald
256
##list
Round
##iros
bl
Run
Luke
Sex
##ory
##iar
166
Future
box
##lit
##noj
Théâtre
Nation
##vik
product
Mundo
Vancouver
sens
##ship
ring
Ring
femmes
##tri
Mart
Lars
164
Wiener
252
Vegas
prendre
##ök
##hez
##ded
##uf
##sation
##ū
Japon
cut
176
Bretagne
##cke
##lata
tin
Building
Ban
fuit
fit
162
Isaac
Child
dina
Heritage
##rico
AB
##psis
217
224
4000
Wide
Holy
Key
chanson
##hold
Cameron
Felix
##enti
IBM
Canton
ata
joue
##tation
Hal
technique
rencontre
Craig
Emil
##pte
##uga
initial
meilleur
206
##üm
Hawaii
ala
Connecticut
##eid
asi
##łów
chart
participe
coa
##jat
minute
NBC
Espagne
Kane
##lay
Alessandro
sorti
Ouest
table
documents
##ilo
##OS
##oj
retour
Rugby
##rier
##lade
Store
travers
Transport
Justin
ailleurs
195
1780
factor
Again
##enne
Renault
##hir
1784
além
Door
Cet
##uro
junior
vel
235
##ock
1787
Holstein
##cka
dock
208
##ston
##kes
Agency
Shaw
##ters
Alliance
Forum
sciences
##stas
##igo
##gó
172
kata
Brigade
importance
##rien
lor
Places
182
Plaza
beaucoup
##mma
##jska
##rni
Bee
Chi
##hos
1783
Côte
##rée
grade
##aar
##este
travaux
Alter
cos
177
luz
##że
Butler
Bonn
##mont
##etti
##med
Kings
remporte
##lak
lies
Administration
##iny
VF
master
Palace
Éditions
inter
212
Cristo
Was
##kem
mass
##àn
Uma
##ttu
Nigeria
215
Spencer
1788
##ctus
haut
##fication
213
musicale
Metropolitan
Calais
169
##fel
Hope
##ess
##tidae
rivière
candidate
Jakob
basketball
##elo
actions
efforts
##ése
##zzi
Hansen
Grupo
##oir
Sergio
Study
Glasgow
selle
Wallace
##ago
##ří
produit
Hell
jamais
202
grandi
Domingo
##iji
Chen
##vina
big
Campo
recherche
Challenge
Tartu
commence
##pio
##lies
hal
Youth
Rainer
##skie
##ór
Berkeley
##alo
Organisation
Linda
##ees
frère
##eit
##ple
Works
consiste
##dde
204
##rf
##vali
corte
##²
Trust
seconde
nation
##care
ud
Productions
Kiss
MM
Short
Princess
Helena
380
##itu
Herman
Roll
Rights
kilomètres
indica
##enden
##ivi
Forces
petite
seulement
Freedom
Facebook
##tten
##bora
pai
Elena
188
Hart
István
données
Diana
Kenneth
Brooklyn
désa
Olivier
langue
Gregory
maximum
##hs
##cima
179
##ști
##sco
340
##gens
Deux
Utah
parfois
donna
##rati
Murphy
bois
num
Greg
Player
##kla
211
baseball
##ome
##iten
##nji
ton
ll
##aki
##ioni
techniques
178
dess
171
Tamil
##bla
images
Test
Theodor
##gent
##js
eux
183
##dale
Marne
servir
193
quel
##ible
##com
Leopold
181
##ulo
##rca
NY
##èl
##sza
1785
ID
crime
##iere
SP
##bon
Leonardo
argent
##owi
Squadron
##ants
alternative
Commonwealth
partire
pare
##ensis
##rno
Rebecca
1776
##eel
##ldi
duc
##ther
##ló
savo
commerce
##schule
Alla
##20
Jonas
journalist
##vent
posterior
##oo
équipes
184
Venezia
Bond
##år
catalog
Happy
trains
Avec
Local
Ice
##rol
Source
grands
Fantasy
##nation
Birmingham
acteur
Lucky
222
passage
##mark
cancer
Frans
##gis
##nsi
##bol
207
Torres
Allah
Harvey
##zon
performances
occidental
##tva
sob
János
##ème
##ām
174
Tot
Race
##arna
Conseil
romano
Auguste
particulier
##par
Gene
Titre
tat
bataille
Alta
Oh
Petersburg
##nent
FK
Mind
##pos
173
Orleans
##jus
Ain
Wind
##lare
Île
##tera
##cina
##isé
197
Javier
##ér
théâtre
quelle
bon
Klein
nouvelles
##fte
##lls
##chu
##tiques
##dora
##ffer
Aircraft
##alt
Senior
Indien
abord
Upper
Marx
oriental
Clarke
Provence
historique
pont
Magnus
ina
Nombre
Luna
##yar
##ossa
##eron
Heaven
Uni
Angelo
Ted
##gere
##erer
Swiss
AD
Musée
##nau
duo
Price
ju
Bowl
extension
conta
Xbox
communauté
Jose
##asa
SR
##ovat
Baptiste
##inu
wi
Rangers
##fort
card
objet
SE
##idea
Carol
Common
Wu
Once
Creative
potential
Sara
##aron
Clara
##rze
gminy
gun
Soc
Pete
bolo
Armee
Albums
Friends
Manhattan
Vila
Falls
Reserve
##pta
##uni
##buch
formal
##ery
aide
Nell
sole
480
dun
Gerhard
Amy
##juk
Julian
##but
promotion
##eto
##ode
##zne
positions
Grund
file
##oka
aurait
espèces
bases
dix
##ík
américaine
187
##rov
longitud
##zan
Noord
Notes
Paz
##gle
OF
##iad
Landes
punk
blue
##iidae
Malta
Auto
vant
utilisé
Toledo
##éu
##uden
surtout
Florence
##ény
Rain
Philipp
186
##lma
Change
##nium
##stone
##sha
parmi
Dog
Pod
équipements
SPD
Irlanda
Through
Nash
Finale
Lieutenant
autour
urban
##eten
Autor
Sci
221
Stein
199
Halle
Musical
##ln
##nova
Ses
##lda
pass
1100
Madison
209
Heinz
Generation
construit
Pink
Rogers
##enta
except
Alejandro
principe
Bahn
blanc
##ray
##ever
Holmes
Alexandra
##km
vis
198
Minas
lac
Liu
1786
brand
Düsseldorf
Christoph
Sullivan
##có
1770
##kia
##con
Right
Off
pou
algo
##rah
sons
Mobile
expression
##tit
Atlético
collaboration
Where
1750
Académie
189
241
Davies
##ø
terminal
Call
Ramón
ibi
parc
##ép
grave
##zka
quais
Christine
viel
sets
ig
Miles
2020
##mai
Executive
##zni
191
Julio
##isti
réseau
Mother
Cinema
##tif
desse
gut
##ave
Abdul
##ense
Full
##eken
Double
secret
##anza
quartier
loc
Evolution
créé
196
Morning
216
moral
Serra
Beck
audio
Nga
Heidelberg
Text
historic
join
Punta
XXI
auteurs
##cum
##bou
Jefferson
##rés
Eurovision
Peak
##onen
Angleterre
HC
mouvement
Córdoba
monte
214
##rim
Rachel
say
Xavier
diffusion
226
MHz
Wie
épouse
Lang
Cole
##uu
Château
540
Pittsburgh
##sberg
Irak
Beijing
Schleswig
László
PR
street
##oti
Parque
Bros
Dos
Owen
dessa
Lu
Virgin
##ttes
NCAA
##eer
Golf
Pope
##tino
Ankara
thu
Yale
personnel
introduction
##mak
Storm
275
##rir
Augustus
rare
Luxembourg
##nir
Neue
mang
##ével
angol
Koch
##eng
Adrian
Organization
##cé
esti
Gino
##park
232
Command
Hard
Rural
##late
royal
Arkansas
##gues
Première
Car
##bé
##vie
Portal
parking
Ruth
Bass
Pont
310
différents
BMW
Money
##kle
Pyrénées
##tio
##jal
##gruppe
##tare
##entes
255
##rch
gauche
Stanford
##nit
##fan
##dera
Grey
queste
##dang
Mercury
##cada
##enie
##bourg
Wasser
Cap
##uce
##ington
##uka
True
Bangladesh
pris
##ER
Phillips
##iant
Église
thi
Mountains
Walt
pi
prince
##ages
Jeanne
Mason
fonction
IP
prie
##rów
##sit
Performance
split
Clinton
##ied
##rang
370
##vers
##can
leaders
Sua
Constitution
compagnie
Esto
##ncy
##jima
Religion
Nos
##aine
Jeux
##sce
Shanghai
Food
##sma
Weekly
##pers
break
Link
##fy
##ví
##uli
##iza
Bachelor
Bruxelles
victoire
honneur
##kker
##cular
##wang
Suisse
420
##assa
##tea
##kur
rad
Étienne
Know
Mozart
dias
campagne
Internationale
pari
##cta
Got
Enrico
hora
##enberg
##sman
Twitter
##light
acid
Cependant
vari
##eld
Industrial
Blake
##lk
##tors
##iek
##etto
##lir
##chter
Piano
AM
britannique
Alonso
##bis
instrument
Tres
seule
Avery
saint
Aaron
##dzie
Case
Sub
Inter
##aran
Living
##zak
##ums
Athletic
##ents
##rini
238
Paula
Dylan
##ives
Montana
habitat
districts
Erich
223
Edmund
Palazzo
Mali
Trophy
##aceae
##anti
offer
Tor
Claire
Zeitung
Bang
musée
gara
Wikipédia
Alt
Joel
Tal
Armstrong
obtient
##inn
##aro
Shah
194
Spirit
Résumé
Bryan
##tika
1774
obtenir
Pradesh
1782
mari
##lama
##dien
demande
cura
Plata
Zhang
cela
torna
Montréal
##cchi
CEO
Weber
##day
visual
Karen
##eden
##enen
Simpson
Stevens
Dollar
Away
218
cars
##tag
##icht
Mayo
civile
conflict
##bad
Say
##lna
##ussa
rive
##esse
ice
Nevada
MC
440
votes
branch
Monaco
mobile
composition
Face
varie
institutions
##kse
Laut
Zuid
Scientific
##ière
##zte
##tów
girl
pista
##nsis
Derby
CA
Todd
##zna
condition
Pat
Ahmad
Next
Symphony
hour
##owo
Bristol
##12
##win
Kongo
publié
##gina
Ville
##nad
Rev
##book
Why
Colonel
premières
rival
oblast
1772
Comité
lequel
1778
armes
##él
##hte
##wick
hindi
sociales
plupart
##ello
##ote
##ám
2500
expansion
##rten
Voice
cependant
##vien
Romano
Fine
Map
Saturday
##rul
Have
##nka
Reed
Bernhard
##bres
Prof
USD
Kind
##jev
##rri
##sun
##nelle
248
Utrecht
força
Bible
circuit
conseil
provincial
dau
hen
##inga
Fisher
gene
effort
structures
continua
##yev
Charts
Col
Number
vous
Ferenc
850
Marcos
Greatest
##ș
Frederik
tar
##TA
##rist
1781
pan
foot
##ations
234
##gono
##tad
Viktor
Andrés
Ángel
Rei
mor
communication
tandis
Voor
IF
Panama
##iser
plantes
##upa
##esen
1777
Marseille
##bot
tome
##coli
##ckt
##tom
231
accident
frac
archive
Augusta
Thomson
##bek
formes
##ES
russe
Cat
##uses
Ellen
DE
Americans
Gómez
Mesa
manière
volumes
##ws
profit
guide
kar
##ious
##uno
Cold
##aste
sept
texte
dark
mini
312
Rita
305
Paraguay
leadership
Bern
253
##oc
##cze
##pora
Gibson
##usta
##cza
Rotterdam
Late
mesure
Ya
##iku
look
Oro
document
Hits
Bordeaux
Stage
Diamond
##nien
##tka
Cao
Andre
Insee
##zor
##née
##oga
amour
isola
super
Istanbul
Total
Nielsen
Drive
Week
##oru
GP
relation
##tne
##rma
##itt
##sey
##pit
Toulouse
continues
Legend
Tage
##lea
##uru
Emily
##yu
##mbo
Honda
budget
CC
##lash
##lic
##vant
relative
Convention
territori
##ition
##lene
Wells
##ünde
gh
principalement
Ini
##zett
239
Raven
Springs
possède
Foster
##drag
Ulrich
264
227
responsable
Tel
artistes
hip
Portland
Tales
365
##tha
##kke
375
##eza
Devil
Hunt
appelé
Birds
importants
##dge
##erie
##xes
Powell
József
Ka
##nter
baie
Richmond
SV
properties
val
ort
##ít
##zem
tax
Eyes
ro
Ad
Harald
lago
avaient
Alberta
##rski
suivante
signal
##lung
##cano
Venus
##logi
##sini
aga
outra
ait
roll
265
##room
mora
Ahmed
yards
Industry
##uhan
##ellen
Kultur
Flight
Nebraska
Castilla
##öt
##oria
liv
1773
Arsenal
##ots
##nae
##rdo
Labour
262
##hou
Wing
Crown
##fat
Nat
Tyler
Quan
Tai
Fiction
##gra
##elli
Yves
Annie
Work
228
##wing
##omo
##niki
Curtis
Chemical
##amen
Jessica
520
##mond
Tout
joint
##oh
##board
##nata
Basketball
jam
rang
Fair
mg
##éré
chose
##eh
##iy
capo
243
##uen
soldats
conquista
occidentale
##kers
##fs
##lés
##gger
##rom
##dina
##cato
##fera
##lav
Normandie
##ders
causes
Commander
participation
##î
justice
différentes
Otte
##mata
Around
Liebe
Conrad
Tree
233
##antes
Nei
Cohen
RAF
Nazi
Miranda
Schneider
325
variable
lai
Stadion
##rile
cycle
voie
245
##šte
lever
Kid
219
élections
Nie
gain
1760
##nii
Madame
noir
Tiger
background
Ridge
##ugh
##cent
##ús
Soccer
##lane
naval
cal
Norton
resta
##otta
313
Leslie
présence
##hem
Jung
Stories
Hof
1763
Pearl
##ief
##ři
patients
##star
Helmut
##key
Orlando
établissements
##zek
##yat
Android
##uja
Buffalo
œuvres
teu
Madagascar
Luca
jeunes
##igh
Ziel
##ahan
##alla
certaines
##ond
Kuala
marque
Hampshire
Ca
acres
ven
##isce
České
##onie
##cate
Stalin
Infantry
##selt
Sr
applications
audience
gisa
Bennett
##zone
Kosovo
Augusto
Server
##tul
Josh
295
##gre
instruments
colonial
##yor
copies
donné
Loma
Defense
306
##umu
##tati
##tog
251
##eres
Emmy
##eris
##ew
Verde
##ops
Beyond
Match
Nassau
entreprise
Palmer
Mine
##ij
Ghost
##ates
Eo
##ír
Zero
##führer
Romeo
Jun
##ël
graf
##naire
Glenn
##cen
Thai
Gloria
Darwin
locales
##rts
229
ap
301
##rman
PTT
terres
prof
##phone
restaurant
statue
##vara
##tés
Illustrated
##pper
##dro
254
Edwin
Concert
430
304
##git
Anti
Ela
##cation
Germain
Article
##ště
actrice
##orn
vive
##atus
suit
236
Vera
professeur
Hopkins
Giacomo
Hai
##rida
Dio
##ś
##bang
Josep
lorsque
violence
Father
Honor
Gérard
hop
architect
Ibn
Stefano
##tr
Bois
Intel
Kai
##iens
##ake
int
Tibet
Solar
désormais
Seu
Claudio
Track
410
##tics
télévisée
##zzo
##iam
##stel
propre
Banks
##inas
##aw
facto
coi
246
##dium
##dita
Training
##aries
Ella
usage
##ńska
Gil
Then
voit
Anno
composer
##lidae
Lucy
##zki
##ók
Uno
Rosario
##verein
outre
minimum
##rden
hu
##dura
Fútbol
##lov
Room
AFC
##dí
villes
##inis
Want
##uca
Pascal
249
##iah
Eugène
Hero
Nagy
cinéma
Authority
terrain
moyenne
intitulé
Socorro
commission
Malcolm
matchs
UN
ceinture
Dawn
épisodes
Garcia
Luc
Gymnasium
connue
Belle
Tang
Artist
Chem
Alba
##ég
Beograd
Nathan
Globe
Félix
##ece
Stan
portion
nuit
Michele
##lada
##att
Frédéric
organ
##stic
Tá
##tida
##jai
questions
orientale
##jt
wall
##ivos
Díaz
##anan
Hardy
euros
##uin
##liste
##eck
Nina
Julien
éditions
272
Comté
petits
unes
proto
##vole
Make
Orient
Advanced
Far
Patricia
##alan
Bischof
ratio
reçoit
Guitar
Fund
##graphie
##lek
conte
suivant
307
sign
Alfredo
description
##zés
Vega
##dek
##tai
élu
##sida
orchestra
logements
légales
Beautiful
1768
Eugene
droite
Nuevo
coup
##toria
ty
Chuck
invasion
Private
effective
##lä
visible
Luther
titular
Richter
##the
Martha
boy
Pa
fia
##tge
activité
##rja
arba
Nice
lieutenant
brigade
doctor
##ilen
##mmer
iTunes
IT
guest
##jk
Oblast
info
##osta
##kta
257
lama
rouge
##tern
##jia
##ffe
##mb
##halt
##nam
mata
vue
639
Honduras
Edge
MW
##uel
Range
##mic
##gge
Michelle
arc
Lorraine
##hur
Baseball
groupes
Jeremy
##nds
##dica
##owski
271
##gat
courses
radar
Comme
##pon
Berger
trad
##akan
##IN
##itus
##qi
##arten
##SA
Nicole
Lion
Dana
Léon
Que
##down
Sala
sq
Magdalena
303
bala
##gni
Start
237
Chine
##ète
mandat
##illo
##tory
##verse
##chy
Continental
Terre
lau
tao
MP
ray
Jesse
Montgomery
Vista
Omar
disc
##anu
Maritime
block
333
rio
##eux
FBI
##čko
plata
##rane
Marion
MA
rejoint
UCI
##gno
##øy
Liberty
##iter
460
242
##bing
##lny
##nten
##ender
Tam
##hme
1779
Emilio
huit
##gren
Munich
axe
##nci
nouveaux
Petra
core
EC
Angela
généralement
Royaume
Tennis
##mans
1740
populaire
288
##lius
##lava
talent
Albrecht
ore
##egen
Communications
finalement
Dios
maig
##ware
##cono
Bien
Steel
rend
EMI
##ares
##vez
1753
Welsh
##dle
Günther
##nca
bord
Ainsi
285
##jah
##stre
##érer
noto
euren
Jamie
baza
Policy
lès
Hay
##ï
Search
##ight
troupes
disponible
##cm
CDU
##enn
##öld
Becker
visit
##lini
Branch
mine
translation
Emilia
##mission
##chia
Evil
Universe
##av
Dieu
Still
##eon
Bratislava
Yorkshire
Guillermo
##quet
Sieg
Us
##ptera
SD
244
Testament
##awa
limite
Chan
classement
labor
étude
Cannes
Konrad
Bo
##tand
Brooks
Tale
Flying
CV
pair
##yl
Stade
Engels
##olt
Grove
Moselle
##unta
kat
##vati
commander
instrumental
Alpha
dates
Forbes
315
bor
forest
pinyin
champions
Ex
Hubert
##rich
##odu
Wahl
Roosevelt
Bernardo
##rlo
##isto
Too
subsp
Tallinn
##agi
hom
##cre
##zina
##mate
kai
probablement
Horse
##enda
arrive
Lower
##rita
##iat
variant
##rzy
trop
Herzog
girls
##col
Choice
Til
##tsi
retrouve
Shadow
##low
Chase
beat
##lni
Pologne
think
##put
Deutsch
chance
##ulation
Stanisław
critique
Ellis
Betty
étape
Vienne
##iae
##hia
dis
hits
WTA
##rán
lit
Auvergne
comté
vede
Rich
dollars
DL
Flores
Giro
Ruiz
Duncan
##glia
##ście
Axel
visita
##iran
##dum
F1
Amazon
GT
concernant
mental
247
routes
##sio
incident
Railroad
Eagle
##iment
##jak
Nama
##gor
Trek
##rija
##sts
Deportivo
##cc
##orum
##rla
##bbe
Forever
Jupiter
##azi
Newcastle
##kach
1660
Hernandez
Mk
406
##ête
##ph
1648
Lambert
VL
Vor
DS
##lán
composé
##dil
##nais
entra
##sso
##kis
Angels
Palma
Even
Jürgen
ama
Kids
Snow
##jna
blues
Jos
##rge
##sée
Professional
##eja
##isse
##graph
Guido
serait
Horn
centra
##tim
Porter
Croix
Fast
##cens
##ío
##ovo
##itate
##von
##lü
bande
##rent
bonus
Évolution
##cci
Rang
peste
##ith
amateur
mix
Animal
Gulf
##ogi
Ja
Pokémon
Dominique
##asta
viri
##colo
générale
entrée
latino
décide
livres
Cristina
Fiat
##yes
Min
##đe
##stik
Stil
##rti
##hé
##rades
Circle
Titan
Jin
390
aa
Nu
##oan
heures
Ottoman
##vei
Obama
Haut
Broadcasting
politiques
espace
Lille
Ada
##ssi
##èr
Regina
adaptation
passes
##sne
disputa
Market
Vid
Filippo
273
##eran
fonte
cm³
Circuit
##fier
Göteborg
Amérique
##sley
Staat
asp
sum
Without
draft
LINEAR
Russie
Nationale
##ceu
Crystal
escala
Hochschule
##dern
Simone
266
ann
##aca
##vna
Section
concerts
solution
##glio
spot
créée
résultats
Movement
##bius
montre
##nces
Flash
anv
##quer
Christina
##rino
Chang
323
coll
##cata
Wellington
##aco
Luís
Aviation
##quia
##öl
##cera
Eye
maire
##ex
268
##°C
absence
##sak
personnage
263
302
Hung
Walk
façon
auprès
Pavel
##euse
nº
##rot
Castillo
Mill
Jake
##ladi
##eter
Novo
Leeds
Adventures
##bah
Jensen
Beat
tank
6000
Ghana
##pak
Scénario
Revue
Bonaparte
Berry
rapidement
Draft
##nig
contributions
astéroïdes
##cket
1771
##rine
zom
Maya
Return
Guard
286
Dreams
##ót
##ites
pt
arma
plats
##rza
Tribunal
Manager
st
quant
voyage
Igor
Low
282
Economics
issu
1766
Laguna
##tine
découvert
fond
missions
supérieur
perform
##aci
1769
Crazy
##50
##sca
Cemetery
276
Hann
Intelligence
comptait
conde
Travel
##ufen
##uran
##xt
277
Brand
Olga
##spor
Philippine
##ID
Dieter
Antoni
clan
Clube
##gir
Block
##sor
Bronze
##pol
274
##pare
occupation
1765
##ringen
Ki
respect
Deutscher
saga
##olla
Mass
dur
Göttingen
##pada
Things
##kah
##zko
Phi
##nato
év
Toyota
Cada
Paradise
##łe
Pe
holding
portant
Woods
##enburg
##museum
Staff
Mayer
##istic
Aleksandr
Ti
##odi
##vale
bé
ends
Münster
Herschel
russo
vat
1767
##tza
celles
mente
Rossi
##eret
LA
##ules
261
Tournament
AU
Hendrik
Tell
##dice
##kol
assez
tua
##roy
##lim
##tava
##vista
Richards
##agem
user
1650
##dla
##onne
284
annonce
gira
##tui
Neal
Réalisation
constant
##moto
cor
extensive
##mpe
##ody
Sidney
départ
posta
garde
simples
Kun
Richardson
##aires
Stop
Pendant
Inside
281
tels
##π
258
470
chemin
Enterprise
convertir
##dé
##bir
Monica
Salt
Andrzej
Mills
Ida
Ing
semble
##fn
##lal
287
##sburg
dessus
##bridge
personne
##oku
##vere
testa
Trois
capable
statistique
Bradley
agriculture
##iau
comprend
hoc
##osti
##torio
Jeffrey
mah
##lant
pal
object
##vana
Fighter
Ph
##fia
Milton
##hard
Denver
##elen
##fin
##bina
Archives
Prior
##poli
Orléans
Brad
régiment
transporte
##hm
1762
##tki
##ûn
Comedy
proche
278
##nc
##ñas
Nokia
##aus
Pato
##ienne
gay
338
##war
Bryant
##tata
marketing
rose
297
##dies
292
Churchill
Bus
économique
1764
Acta
Homo
##łu
Brisbane
Cell
Provincial
##kola
Trinity
Mail
##lín
##teil
Ultimate
560
Adventure
Bezirk
##phus
Norfolk
##vés
rail
profile
CF
##raf
Connor
259
Deus
parque
##eder
Dante
Leone
enfant
Picture
Andrews
Together
##yne
Train
##luk
intérieur
Trans
Moreno
##escu
##tini
##acht
Sulawesi
familiar
Palais
##yard
##ović
Bosnia
OH
produits
308
Vita
Johanna
MB
formula
##dler
##bund
##uso
##eru
permanente
particulièrement
LL
##rique
interna
hot
##pad
##ree
Rede
vit
321
Marino
éléments
évêque
Galaxy
symbol
##posto
267
Sociedad
##far
##cut
##rme
269
contrôle
##ification
activités
média
Bailey
Rodrigo
Randy
vallée
##ligen
311
##há
##rand
Anglo
Airways
##aza
##llas
maires
Against
Série
Quest
##nach
336
remix
##ulus
Ensemble
##TE
publications
Rat
Singer
Trump
Nur
283
Architecture
Saints
Futebol
universal
##ček
Parc
italien
##usan
Gilles
Trail
titres
Date
##sul
faisant
noms
##dige
Isla
Uppsala
Fédération
##idi
offices
Lied
Watch
normale
tours
##enz
cens
compilation
Negro
##raz
ri
512
fie
Robertson
Made
Fl
Anhalt
bara
##tland
URSS
municipalité
##RA
ose
950
Lennon
Kenny
Bourgogne
##lí
Malmö
##vert
Pau
Maison
##oen
Henderson
##xar
##nner
##ank
##yal
##II
propose
##tno
Gay
Grad
Willy
compétition
Italiana
prop
gradu
Superman
mail
Morrison
Lou
##ław
reforma
1730
##uren
session
Banco
bâtiment
Kinshasa
##hung
##ror
motion
vidéo
Murder
sexu
##avo
Beethoven
##ON
Bon
Ur
##hood
Fan
640
Yellow
Reynolds
##dez
Ion
Franche
Latina
gali
tota
##oor
intelligence
Championnat
suba
Caesar
Peters
##lier
Einstein
##vs
abbaye
A1
Vittorio
Ko
trei
##lee
Stern
##rix
pH
droits
##hang
difficile
monuments
oni
##rut
Blanco
##place
vision
##uge
planning
##hlen
Triple
Need
Boyer
##avi
divisions
335
Trio
1755
Lynn
##chus
référence
345
Columbus
##inda
sections
##lling
##ead
Strasbourg
Montevideo
Khi
Floyd
##ift
piti
##uten
Person
##pole
##IP
modèle
316
grec
Abbey
##AC
évolution
Rise
Fish
PT
wiki
émission
##kreis
aucun
AA
Claudia
Swift
Nine
Amanda
standards
299
ind
##chas
##vine
Ni
1720
internationales
##inio
Dale
##jung
spin
Bio
395
##table
293
faut
##try
Jaime
Piper
279
##ises
parole
Département
institution
Józef
Gerald
1640
offre
Tore
##sort
Benz
##lka
##view
message
Heroes
gr
adult
hors
Rhein
Philosophie
Aquitaine
Rivera
##urt
##lée
AT
##tres
##rici
atteint
Jackie
##aut
##rali
Ingrid
##rke
Brunswick
empat
Tan
##eke
Pass
Rod
##xos
Monster
pale
##valo
##pre
##pra
##ntar
##rso
McCartney
exception
##cou
Jam
nombres
Yo
##aos
309
ol
318
##gare
Fraser
##pil
nations
particuliers
aspects
Français
331
##MA
##rop
##oro
Osaka
##iese
##đa
Raw
postal
Gate
Campus
324
Ibrahim
Glen
Sonic
signe
##ccia
Laboratory
Financial
##cky
##ress
retire
Faith
##eal
terrestre
delta
Friday
Ljubljana
##nay
demo
Jens
GNU
antica
mala
Telegraph
##gers
##tele
View
Westminster
Rus
Pri
context
Gerais
nomination
##hing
feu
Volta
##tari
Derek
Ji
Newman
##sent
Farm
ell
astéroïde
Fellow
##sés
Drake
tas
##kki
##ution
##tivi
##lice
divers
Corte
##IC
angle
Kiev
##lun
AP
salle
319
##tty
Amb
Cox
Every
Ignacio
criminal
Tre
##where
ambas
rede
##rike
##dah
Kill
György
Celtic
Speed
maître
Agriculture
chapelle
Aleksander
##xia
Andersen
Admiral
##para
Salon
##bok
Isle
peintre
317
lec
##tid
##vice
industrie
##gol
dicho
enter
Mus
Rocky
Labor
allemande
##iff
Colonia
radi
Champagne
322
Schiff
vient
##front
cœur
##dó
Christophe
Herald
1759
Wings
Sporting
CE
##alle
##play
domestic
##eman
Sid
onto
totalité
Sang
##edd
##rani
##ád
##voli
CNN
Polo
sal
sorte
##mani
Cricket
charges
affaires
##jd
Wii
collections
##nburg
Arrondissement
historiques
Bi
Electronic
##uir
##fra
pièces
##ob
##gata
conserva
##rale
Hello
##tani
##lai
##fie
Gang
Sebastián
##hren
exhibition
corona
provinces
print
situe
##nch
carte
UFC
satellite
291
##taire
Rai
arm
##zea
##gram
Infanterie
Cincinnati
296
##hti
##sant
##gner
##cak
mettre
relief
EN
##huis
Vida
##mpa
##äs
##bne
##dje
Saône
brown
Mad
Crime
flat
Fredrik
dispute
talk
Nacht
##sze
Jura
taux
Trinidad
Gun
##vora
Jenny
vide
##zhou
Monroe
Lei
Édouard
##rag
##vus
##him
ego
##rano
Rolf
##cles
MVP
##bana
Elvis
##wand
Vasco
basse
anciens
##sum
##cast
meurt
Rice
franchise
Homer
Sandra
orbite
##bby
Filip
tunnel
Émile
colonel
##ndet
Kyle
##base
##uis
Argentine
MIT
Ole
##rga
352
Zo
Indo
##sc
Nothing
##long
##rei
nor
savoir
Chu
##eka
##yana
Solomon
##rce
catalogue
constante
vingt
404
298
570
385
Rotten
powiat
Stephan
Look
Nicola
##ești
Palestine
ska
##hel
Lago
attaque
1756
##porte
fruit
##nés
##lva
##krat
##plan
Judge
Defence
Thing
try
##vier
##inos
Reyes
##eix
##mico
Jerzy
##xen
##kamp
Suite
Bear
angl
##uva
##chap
##ngi
##çe
Darmstadt
##ax
737
Sheffield
Suzuki
##kra
##osan
##ω
Barnes
##kala
##uck
##bly
Perth
comic
##bl
##tych
européenne
flag
huis
RCA
##lines
Hauts
Mohamed
bron
Contest
Emploi
script
mondial
328
Lund
offensive
Vi
Vision
arrivée
Haven
Johnston
larga
dom
##ril
Wonder
##rry
Oise
##rias
Blanc
valeur
##gica
step
Saturn
1757
Gerard
mando
Mari
##lter
Weimar
##lado
Irene
blog
##menta
##esis
Bertrand
Stock
Heavy
Truth
Bella
territorial
1761
Mustafa
Álvarez
332
ouvrage
530
##ox
##tron
##cto
Elliott
Glass
289
radical
##yre
Count
##AL
Talk
343
##mena
##omi
##fon
buts
Ritter
adjacent
##zma
Salticidae
Nashville
314
##dja
##dam
##ogen
Motion
##vä
##hill
McDonald
##aman
##bri
Moscou
Res
##AT
Burns
##emi
##som
##witz
capture
Dorothy
INE
Marta
Brook
joueurs
##cula
MD
exist
agents
devenir
Nantes
Johns
##zal
##yce
Chad
##bria
##onda
##48
##hara
relativ
charts
##ód
Nuclear
Harbor
petites
Lucia
ESPN
Lotus
##enza
##nai
Ponte
##vid
Abdullah
##hre
##edi
tr
Porta
Hit
337
Chef
##nea
##oge
##aient
Ernesto
##ison
Constantin
GB
Till
publique
Woody
opinion
Vale
Assistant
golf
cricket
wild
##maker
Burgos
ferro
Reid
pun
##beck
##born
Tours
##leben
##zou
Kiel
Nicaragua
Mao
bureau
PA
Alexandria
405
Ost
##rao
gaf
Theodore
iron
disso
##zona
##tige
Lange
pur
Lara
fines
Monument
poc
##rates
marché
Kao
##esti
Mohammed
Chamber
tournée
##nov
##itor
Exchange
Timothy
##sien
Metz
##edo
lorsqu
Eugen
490
##ngo
##oji
Vincenzo
tur
##ève
384
##ğ
passé
##GB
Bro
##berger
##anta
Journey
##mée
##hta
Mariano
apa
##cita
##rth
Euskal
##not
##eros
##ind
##yama
Gottfried
ronde
Geoffrey
##formes
Cornell
Matthias
326
Gen
option
Markus
Janet
Net
meilleure
Logement
401
Mendoza
Hook
##oki
Artists
Bengal
Hannah
##dens
Pereira
##US
##gler
Gott
écrivain
##hol
Bali
save
##nco
laid
Guerrero
rete
Piotr
boys
sp
Süd
##gun
##nico
Carey
vertical
mezzo
##horn
designer
1680
Versailles
WC
Jiří
Lynch
Nikolai
##urus
lettres
partit
Maxwell
Joy
investigation
Rouge
Players
contrario
##teurs
Dictionnaire
occur
Chester
turi
##mere
##cola
412
Seconde
##hall
##fest
##tale
##sir
Occidental
Casey
Tito
devenu
##iation
chain
Corona
Kraft
noble
Fleet
##rain
pet
##lana
##30
taille
promote
dirige
##kli
médico
ménages
1745
##alen
vitesse
Oskar
##gil
##lone
Excel
##lach
Paraná
##isan
Mystery
courts
permettant
township
Ligi
##mene
Sy
##iras
cent
Turin
apparaît
Normal
humano
Pieter
1550
1754
##nement
##sai
Sono
trio
Ashley
Roth
Mini
Milli
##nare
Alban
##cial
ill
##cel
Crawford
protect
František
rod
##ogie
Heat
##rij
Lions
##ssant
Joshua
##qua
##ligi
wave
##ital
CO
##gine
##ST
Midi
Lai
RS
##didae
##lto
quinquennal
1715
Indians
Austro
294
Freeman
Medina
Oil
##tab
##reu
Campos
##borough
Hood
rat
Communist
##kara
soul
Chapman
segment
Monde
ponto
Burke
partiellement
cour
Split
##ndt
##nil
Half
jap
télévision
orbital
Critics
##ating
Eve
Péter
hectares
Wheeler
Ground
Arturo
##ack
Rex
HK
##ström
romans
pure
agricoles
Juventus
##usse
jury
morts
##rai
##eny
aspect
355
##nberg
Tonight
continental
pratique
1630
Sumatra
Zao
##mur
rich
Winston
Greene
natal
Construction
##alis
Somme
Gardner
580
##logo
Nils
1620
Sándor
couleur
##uze
356
##station
magnitude
##ț
367
Alfa
##ems
##fers
Mickey
pièce
plutôt
Them
lignes
Abel
##echt
racial
##redo
##umen
Brother
##tato
Hearts
##rp
1710
Memphis
##pati
Oswald
Nicolás
enquête
##card
Prag
610
PP
Tradition
Carroll
Rush
425
candidates
Slam
##iak
carga
Jong
Whitney
Paulus
##reo
Strange
ach
officiel
##ési
Rand
##position
##iner
Camera
rosa
compris
##udo
##olta
Musique
mention
Pere
Midnight
assistance
dor
##sser
##iler
1748
plaça
Isabella
354
##wich
Abd
##nese
##unk
Rue
Sven
##isin
firme
##mber
animales
##cara
##eca
357
Australie
célèbre
derniers
##rid
Vuelta
mines
##vod
kara
##zze
corner
##bed
Into
Brien
##polis
Essex
Sally
maso
##zda
files
Agnes
##lân
##right
##oid
##wat
Joey
antic
Alger
sil
kor
sel
##ppa
italiani
destruction
747
##dai
dro
accès
##wall
##iaceae
Prague
Donna
Oliveira
##master
##gard
Bilbao
Kampf
Gustavo
STS
##lund
Penn
Gill
ponte
##ñu
##cana
Alexis
baron
##had
Av
cabinet
##ED
Recording
colore
Elles
##berry
Dietrich
Smithsonian
416
presse
Panzer
##vite
Bart
inscrit
Hernández
##old
Visual
Brno
futur
##fur
Levi
##uts
##yet
tons
Fr
personnages
##OW
Ramon
Wald
##rait
Cry
sols
Auckland
329
Stones
Ch
Bates
Desert
prise
##DS
##vist
334
viser
Dortmund
Waters
Percy
Typ
Drug
camps
ADN
Rhin
Challenger
br
##ydi
contrast
mariage
Doug
Frances
Baru
##mbre
##gara
##ifs
630
Self
contrat
Gone
##enze
##šo
Fight
Lopez
gaz
présent
##NG
501
##tano
Frost
##box
Joint
Willie
Petrus
acte
Blu
Perfect
##mite
344
##rial
Bauer
Ley
fusion
##cil
##aes
romance
##eln
Queens
Webster
##tier
malgré
Genève
Explorer
actives
pilota
##ids
##sper
aucune
##rest
machines
toma
Rainbow
Alma
Tina
Arroyo
casu
sécurité
327
##tna
Hip
##rons
quatrième
qualité
##mand
Ronde
##17
Tech
stands
##lev
utilisation
##onte
Graz
Nun
seconds
##rig
1751
##rez
Thunder
limit
Stella
##ear
##quée
interne
##mun
##voir
Strauss
##grada
Révolution
##ilis
Word
Marguerite
mon
##vol
411
Cu
principaux
##stri
demand
##sid
inch
##lder
Delaware
Romance
##utan
##yta
Bowie
SG
##inae
##lyn
Table
Luftwaffe
Latino
342
##tni
1707
olympiques
451
##gene
Basic
Diane
gouverneur
Giulio
Bolton
attend
Riga
instance
Ramos
Fly
mig
##grad
351
HTML
##dés
bill
##itaire
##lique
vald
fest
##olu
##lino
Heights
Serge
##dition
Kingston
Manfred
Vainqueur
café
##vette
alias
Boulevard
Bahia
##hart
Style
Zimbabwe
revue
##stro
moyen
##vest
##âm
pu
Rail
tel
Drew
Goethe
##ians
1714
##ivat
Anschluss
Aurora
Dee
Kara
##rón
Massimo
passer
Tomás
avo
Motors
1580
##bur
##ners
##kkel
Quinn
Lionel
Fou
dura
##wyn
##dl
##weit
Alive
pad
##simo
##pense
601
##tros
Progress
Porsche
Care
Tribune
martie
Formation
1741
Touch
339
##gai
##tima
Hammer
apo
##nei
majorité
fe
Walsh
flora
Logan
Bangkok
milli
reform
Essen
laten
##ister
dollar
Nem
Taman
##çu
quitte
belge
capitaine
Lot
Alman
Mick
jeux
##club
crise
Everything
chansons
##gur
empire
Gas
##ngs
exploitation
1690
##chem
##pic
##mot
vite
empereur
presque
Gunnar
Strand
##mare
Vermont
Webb
tests
##mh
Blair
##spel
Qatar
##sil
##pal
Katherine
##rete
lire
##sam
Laurence
termina
sujet
animation
constitution
Padre
510
initiative
Better
##rone
Christie
contribution
##bula
représente
NK
##inus
Wade
Mo
malo
moitié
jau
##ït
Hassan
##yti
plane
Dinamo
Martina
Hoffmann
stages
1752
dre
n°
Kristen
artiste
Arms
Heavyweight
Judith
##hire
Estadio
Aviv
##neb
AE
Conde
branches
##RO
Sand
Teen
api
##oss
Joyce
##iec
##olis
##gile
##qa
Battista
Wehrmacht
haute
vaste
planét
Rhodes
Preston
Blanca
catholique
Indianapolis
Moritz
Past
Portrait
Palm
##lden
Laos
##lau
##atie
historien
##lf
infanterie
Anita
Vigo
##aris
##vida
##elles
##lid
supérieure
802
Lin
centres
##fic
##mbe
##ams
Konstantin
Idaho
##ichi
Factory
accord
1735
##ail
Terminal
Pre
Dubai
1520
##chis
député
##mor
##yy
USB
Ei
transmission
##cian
##ibus
mêmes
mur
alba
##uw
##eller
##lato
##tl
Image
525
opus
longue
##ïda
##yra
##éra
##rose
486
##quin
Romero
Beauty
Left
##tun
pierre
fri
##dors
625
1610
Savoie
##fié
##lida
Dar
Lancaster
##kup
##jel
353
tribunal
Armada
Rider
massive
ond
381
359
##mpi
Eden
ket
Genesis
indem
Hop
distinct
1689
Somerset
##tius
##beli
##cine
##teri
Compagnie
##lp
##ched
Cesare
##arre
kaya
##tara
##zana
##kit
proximité
Luciano
##iol
##burn
doivent
##nius
Warriors
##oren
Windsor
énergie
Lucien
Meer
##tana
Valladolid
Bari
Chapelle
Airbus
Camille
##mera
gestion
Cher
Much
Sharon
rap
Joaquín
##ury
Glory
Wong
##tner
élection
##sement
1670
##tá
kis
automobile
##inge
##lski
Hanna
363
366
enseignement
représentant
Lily
Concerto
##dna
##istan
##mila
##inte
considéré
Riley
IGN
garden
1701
humor
suicide
##lge
1742
##ctic
##holm
participants
secteur
Canyon
Roi
cop
##iq
Mega
##yki
##rl
Dari
arrière
##rito
médaille
Goes
Familia
##lika
361
##pone
construite
BK
aria
Chambers
##izar
bras
Thierry
##bart
publie
Aisne
cousin
Ek
Mama
##udi
Ordre
termes
Edit
##run
Accademia
indicate
##lno
720
documentation
##eim
##irs
Elias
##EC
Veracruz
carica
cité
1743
##orio
carne
1688
fiscaux
Shin
îl
##sima
idée
##pé
défense
Ako
##rais
Hayes
Sandy
##lá
Structure
##nies
régions
prove
##rick
407
réalisée
commandant
Qui
680
Kristian
##hun
plate
1746
Eure
Hey
620
Paper
Iris
##alia
341
Caracas
transition
##nait
007
1713
##IA
Oy
comité
titul
Ming
Biol
secrétaire
##rona
##BA
seigneur
1683
##deki
##lten
WWF
royaume
##rva
##sted
476
1749
Natal
##anya
Tomatoes
dil
##mou
challenge
syna
Canterbury
Memory
##nor
Agent
territoires
mir
##jian
porto
gens
##lers
Chess
Something
##lock
##lib
Médaille
Clay
Metacritic
B2
590
403
côtés
Kerk
1723
chargé
Gregorio
maju
Male
432
Programme
##SC
exposition
##eki
Gustaf
Innsbruck
##rach
Cola
431
##otti
##ouse
1747
##zig
##vt
actuel
##ctive
antico
##onan
##haven
Fighting
##evo
1744
Million
Marianne
##uelle
Operations
Gardens
cei
chaîne
Wesley
##ark
##hra
reçu
##gment
##nów
Liège
##sht
possession
##tsu
Sister
Andersson
465
IEEE
1721
Asie
IN
Sparta
VS
##rene
Baba
drop
##jeva
Gaston
Annales
##lise
conservation
##DA
Martins
Classics
panel
##pass
ago
Said
##rto
Audi
Ferguson
Milwaukee
##kali
##cov
Horst
##hoff
402
Hagen
Arc
##zim
Sing
DOS
Zeus
##ener
Fi
1492
Give
disa
peuple
##ption
travaille
chant
##erse
Viola
phi
reprises
EE
Relations
Nixon
séries
##uil
##ffen
Madeleine
Thor
##odes
catégorie
##vig
##AM
Aïn
Benito
##vise
Viking
##TS
MiG
analyse
hôtel
1530
##sport
##kowski
Lur
##ogo
Phase
Maximilian
Hasan
##wska
##eum
##arte
classic
Baptist
pied
##face
##dda
sah
fonctions
protest
##anos
##lets
Tri
Beverly
##ppi
##rova
Giants
##rup
##sina
vent
Protection
lima
variante
Underground
##tei
##rki
Inn
1718
dominant
appelée
Evan
esso
348
AK
tournoi
Bourbon
##dant
naissance
##NA
##tadt
##pul
Formule
Turn
##tero
##phila
Moses
alliance
soli
1570
##wia
##eis
##lei
##mates
Nov
cultures
##igan
bak
##EA
##ités
##page
##sland
1540
##kum
##won
Twin
choix
1667
960
pick
Independence
##smith
Stad
bout
argument
##bine
reti
Attack
##asti
1736
##br
##ways
1603
##nate
##jam
435
408
376
Fear
carbon
Erwin
Oak
##nha
##alta
Won
##nol
robot
##eme
1727
crimes
##cile
Karlsruhe
1685
8000
oral
##TP
##itis
346
Isabelle
sao
1560
siècles
Hour
Color
Chronicle
path
##pina
Well
##ush
364
##rog
Chance
Tall
Finn
##dak
Ajax
Toni
670
enfin
Café
santé
##tasi
Samsung
##OM
Olsen
1725
1632
##pera
##blatt
1711
statut
##11
Leader
Tracy
##sty
##fre
Peterson
dens
gamma
Iako
Jump
replace
##nni
islam
Audio
Manitoba
iPhone
##eira
##IO
Lives
Read
longueur
Irving
##richt
386
##llar
Dancing
Gard
1739
cita
##ddi
Willis
underground
naturelle
reine
Animation
trans
##ager
1642
##mini
##top
362
##data
##ances
Vargas
Very
##sque
##má
##16
trip
Dem
Kay
NS
autora
##hair
classé
##teli
Luisa
Larsen
Wei
Initiative
parla
##ān
Calgary
Trondheim
Level
##bras
programmes
##sert
Bolívar
Elite
Cancer
##work
dispose
noi
unité
nm
Morales
##bird
##ôn
Comic
kin
Napoléon
Purple
##sive
1737
Sugar
##pidae
660
SMS
##isant
371
Cecil
Marek
##jang
##tici
Brest
##15
Hull
A2
Parmi
##inal
actes
Nouveau
1724
HP
Durham
378
Brandon
Cheng
1654
Alternative
concentration
actuellement
intérêt
##blad
Griffin
##sian
##vai
1672
scientifique
Chapel
Lausanne
rien
actuelle
##even
Dès
##tam
##lement
##tives
##pha
Combat
##tian
contest
##fice
militaires
Eagles
##pot
##IT
Commerce
##cro
Alegre
Marian
Oost
##tles
##viste
##rje
Edith
##ogy
##éry
DB
alpha
409
##zm
##idor
##agen
plante
Tomorrow
7000
Cassini
##dose
##wl
1709
414
##lera
Impact
Springfield
1722
##ané
plein
1728
soprano
358
Má
##chos
rendre
##vir
entreprises
masse
Broken
faible
##jö
classique
client
Pisa
solid
##ijn
Carpenter
Rules
Schumacher
ASV
Punk
##omen
Sous
Béla
Volkswagen
##rious
Save
vont
Emanuel
##bbi
Label
littérature
##law
convention
##rena
IL
lar
##hai
Gibraltar
##anas
999
##èra
tag
##pico
##riva
##cea
##quant
##oke
##zym
Mons
Newport
##wal
##tain
autori
eut
##iver
##hne
Carnegie
sec
verdi
Mode
##lou
1733
Dirty
Chili
Wimbledon
##craft
##unge
dî
Pole
Benny
Banda
Folk
Bibliothèque
##cosa
Gora
##cidae
utilisée
neuf
Herr
Sophia
sert
moteur
apan
##icia
Saga
discipline
##AS
1661
Ride
Bravo
##icio
##ced
Card
Proc
António
##ković
Killer
Montpellier
##fold
McLaren
##nez
Ladies
475
##ieri
royale
##40
syndrome
Borough
Break
Olivia
fondé
##wicz
##mane
participa
##gau
tren
Marcelo
photo
romaine
lance
qué
arra
impossible
concerto
arabe
Tak
##oner
1590
moda
WM
Falcon
##atz
##sby
##brica
##bling
##away
Juden
##naires
permis
Edmond
1732
couples
Neill
SF
##iles
mercato
Baja
Fleming
Keller
##ucht
##vka
litt
fondée
##ils
Marilyn
nomina
Gandhi
GPS
1598
Pi
##cino
Oakland
ouverture
Coach
##FA
Antônio
gi
Mumbai
sculpture
systém
Capitol
cun
Mata
911
Vernon
##nnan
##pter
1717
engage
Cloud
Gaga
probable
lieux
Quentin
régime
##szy
Trevor
##AP
appel
Sussex
Armand
Morton
stable
Pol
##áz
##sem
##forme
Pearson
Valentine
Lumpur
Tübingen
##ccio
##rell
EA
langues
veut
Víctor
##tama
##lex
Br
kim
1618
sl
##ater
##sins
##gian
Finance
Dirk
îles
##chester
##gga
##mik
voto
lap
accessible
visa
Quand
guida
Hold
1708
Ra
pain
Roche
Pierce
Peña
autant
Noel
dimensions
1704
666
Silent
traité
377
patient
HBO
##nale
##serie
coupe
Hidalgo
pape
##ulata
Core
jouer
Shirley
installation
Tigers
421
##gea
372
Reina
Yahoo
pittore
MG
Guru
typ
##phon
Kumar
##rro
SH
utilise
KM
1625
tableau
Catarina
hauteur
dynastie
1250
Verdi
##tch
franco
##ovia
Marathon
Wiesbaden
##ateur
1621
##uche
Reis
##cier
455
Avant
##neur
Lena
Garonne
Leicester
Fields
##esh
Griffith
bonne
montagne
interface
Boot
Communication
1699
Noël
Sahara
##mant
Sisters
A4
##uire
##IL
iOS
##mps
Crisis
identification
1734
NSDAP
pourrait
réalisateur
Ruby
théorie
##itie
filles
Zamora
Rabat
##erin
Arne
Fletcher
Ito
1738
##vern
ide
##udet
Maggie
raso
Chor
##kko
Puebla
##oot
Moss
##BC
##nko
RP
##vare
vin
##sine
##ope
mali
Raúl
##bane
##fire
fai
Gates
Lazio
##vage
Support
##yna
Mussolini
Cabo
Adler
##vila
Donau
Jenkins
##SE
##ood
Kerala
directement
Schwarz
vill
##ritt
##GA
composée
derrière
##rite
##sund
##uko
##gruppen
saisons
##rtu
Savage
sœur
##nell
##nton
Issue
Phantom
dam
novi
##maz
consta
##usz
guitare
Ham
Cardiff
officier
##char
professionnel
fragment
coal
##hale
musicales
loin
elf
##cts
Sharp
Scots
mito
##iono
Baldwin
1703
##hic
Grenoble
##quier
Musa
fantasy
atom
##vra
##abb
Piazza
alma
Ronnie
Ferreira
##wehr
donner
##dot
##ull
##xu
locali
Homme
Reims
Sedan
podium
V8
portrait
nav
continent
piazza
##gée
cai
##OL
joué
Brescia
Kirby
Drei
Françoise
ros
copa
Manufacturing
pos
cappella
Marius
Feel
1675
Guadalajara
Victory
##geber
verse
Alicia
ord
##illes
Wave
Loch
économie
Salem
##uba
conseiller
Jak
Than
Salvatore
Vanessa
affaire
##ssent
res
physique
tonnes
##iato
Coleman
Lama
Gent
puissance
##kins
marcha
##lur
##RS
forêt
Mon
départements
##eries
frères
##onn
##ondo
1521
Sylvia
militari
mol
##aid
variables
1609
Boca
Shannon
##vention
observations
Romana
Kui
##bh
##pse
Cornelius
Junction
Vic
Moyen
##csi
LGBT
Saskatchewan
1702
architecte
RAM
stress
Giant
Fontaine
Sanders
Mirror
##bí
Olympia
Wyoming
Freud
##qui
##inan
Dixon
Communauté
Charente
Perkins
nomi
passant
Pratt
gris
Vest
##emu
SI
1666
##baum
##lech
1605
sm
Lie
Primo
##ink
1697
Welcome
##inar
##post
bâtiments
Ser
1649
Hari
CH
##dala
Associated
rapid
##vation
1450
##edes
tribus
##ices
##rgen
##ester
Herrera
##HL
##cito
réalise
Santana
##íl
##uki
##laze
eaux
perspective
pia
hiver
##ément
Mannheim
mét
##hor
Agustín
D1
##mada
##èle
frazione
Grade
anna
##zano
soutien
Easy
##amo
courant
Acad
bomba
##ssion
##14
##icy
Hesse
##force
VHS
Wildlife
Stark
Terror
Poznań
Blanche
Jet
Timor
1665
toutefois
créer
1712
numéro
##hain
expert
Alone
Bombay
heel
planes
##dine
venue
Close
Fin
anar
##ége
caractéristiques
BA
508
chair
artistique
##rco
1635
Groot
##ndre
##kari
quelque
Mohammad
françaises
giro
##maq
##wu
Lig
RFC
Mel
CP
##gence
##czyk
Higgins
tribu
archives
##rau
RC
##jul
belle
##suke
##dze
##esten
disciplina
1719
concours
GM
ski
Parlement
Karol
baby
Bradford
mieux
Guild
##ître
Circus
intervention
##eed
triple
Direction
balance
seront
Devon
##cit
suivi
##cule
Yuan
Holiday
1655
Buddy
Johansson
Cecilia
IS
1525
Beast
ciel
##dri
diesel
Mio
essi
##njo
Tourism
ov
Cool
Friend
##rve
Philips
##color
1716
arrangement
##posa
dirigent
Industries
Holt
##orte
Autriche
demanda
##nst
capa
##stil
##bru
##ruk
##yx
Access
progress
Natalie
Weiss
Paramount
1572
Ant
##čar
##toi
bits
##cra
objets
Bey
maintenance
Colombo
Holly
##nade
couleurs
##ôme
##turi
Beta
##isée
1729
Rouen
Augustin
Shane
##hima
1643
Meuse
marina
espagnol
Wert
pang
spor
Casino
##ntu
##imin
arme
##onde
Buck
##wé
1658
##uny
Ricky
##court
##fish
##dha
fil
percussion
##cteur
Didier
textes
Yi
Marin
##rsa
Tucker
sér
##tot
505
Toro
Letter
cili
##yong
1731
Interactive
##zam
Nowy
skin
tali
Bere
Brain
voïvodie
Andrei
Globo
Málaga
Ballet
nagu
##logue
favorable
orchestre
Roses
760
Brabant
Rhode
Clarence
##udes
Seth
##mum
Nigel
##iks
##rats
hus
##uela
Yes
##plex
Gallimard
##rage
inspiration
Monday
Principal
Molina
##rds
journaliste
1706
##riff
##holz
Nas
leva
longtemps
##versa
Aston
##oll
Villeneuve
##hit
labour
Barrett
problèmes
infantil
circulation
Troy
##nnen
Tobias
mémoire
##ridge
Ms
alam
Henrique
Voyage
Plymouth
##ggia
##boy
##ély
graves
##ejo
1536
##ardo
##lut
##ngu
Rising
##gente
##ège
511
Ace
portes
##egu
Andes
1629
Álvaro
1526
##ript
Alors
associations
##zare
Hoffman
##rill
Pretty
tombe
penalty
Jordi
##abe
Holocaust
Legion
Strong
##bei
##cole
##CD
assist
Mexique
amis
1645
499
Nicolae
1634
##rante
Petr
Haar
Waffen
1705
Carles
Jiménez
##usu
coalition
##lein
Veronica
Visa
Zoo
Rapid
traditions
Claus
##hle
445
##bano
ROM
##urance
##tler
Gustave
Livre
Brésil
Gare
1726
1676
Bosch
MV
Guadalupe
constitue
Christi
Davidson
Screen
##hand
##aldo
mont
Rahman
commerciale
1622
animaux
cat
##anto
Suzanne
AJ
##atur
##zów
Massa
onze
515
##ovna
Noah
##sik
Rivers
Brussels
intention
##mara
esprit
##ching
patria
Leigh
Judy
##AN
##bud
Cal
Recordings
Complex
##lab
Cash
##tsch
Albany
##china
emploi
Knut
testi
Freddie
Marsh
1623
Samoa
Marko
Tunnel
##cko
##ception
Blind
1664
soccer
Ver
armi
Mia
##itation
Belfast
Gut
1612
découverte
##uais
Clermont
1656
##nibus
taxa
reporter
##nosa
##aru
880
##eil
Assemblée
1086
Botswana
##nthus
divide
Toto
##uwen
orange
Rothschild
avance
io
Calvin
##nul
##lton
dual
Artur
Lola
1638
##onu
##mens
Legacy
cup
Medi
##dka
##mium
Veliki
##bak
frontière
Und
##HC
GO
##anna
Lonely
Spears
##graphique
organisations
minuti
##uant
dernières
##nsen
tell
##mination
##tice
##tista
Factor
##üt
vols
##sei
Zhou
##nana
chambre
##gla
spirit
##ulaire
Industrie
##elet
Nero
Algérie
supports
Bismarck
##rok
avion
##thus
##case
Hyde
Randall
diamètre
##theater
Karin
##vide
colos
discussion
##eze
Guyana
Nissan
Step
bomb
##posta
##cée
##anne
##ucci
##wes
Idol
Galileo
##gong
inscription
japonais
##lita
Sue
Lauren
1652
acquisition
paroisse
sélection
Virtual
Pilot
##cup
ajo
##cot
##scu
##nich
TSR
piste
##dell
485
##gonal
devint
freguesia
Santander
ois
Rodriguez
##tude
##fil
productions
Lucius
paix
##vins
Václav
##landi
fun
campagna
photos
##rish
Pirates
peinture
revient
Carla
ministère
##mation
Eu
hala
##fly
illustrations
Manche
Suárez
Tomas
1682
##sdorf
Hammond
plateau
Gutiérrez
Huang
##lki
##lais
Leningrad
Sm
vas
##urin
##meer
##eso
##dino
Pier
##usion
##ache
##mea
##hoe
Renato
bot
##litz
Kyoto
##anda
Jacobs
Quartet
Reagan
##tral
perd
Glacier
Ramírez
##chs
##yos
coro
palais
dada
playoffs
reprend
##IM
ici
Gore
Gould
##bian
##uste
regard
Cork
Concepción
Lakes
Ever
Mathematical
1651
##ctions
Dawson
##uté
cd
Alte
##rido
Mauro
Org
##rton
métrage
Gia
##FC
frei
Mey
##dder
Dong
bianco
##leti
Edmonton
alter
##hora
##gic
Conan
brick
Rally
##dian
tro
##sle
épreuve
##lha
##kad
##WA
Siemens
##bien
Reform
devait
Ariel
Knights
##mona
Lindsay
sun
780
Mid
Jacqueline
##dau
##itan
Niels
##wig
Hawk
##gny
Gram
propriété
Esti
mesures
Marso
##dida
##kot
Rennes
##chet
institute
Fabio
##siden
##jien
##ndes
reprise
Hank
Attila
##weis
1350
Texte
1493
##tional
##avia
Steiner
419
Syn
Adult
Louvre
Keep
éd
1585
Johannesburg
##stor
Gazette
##dero
décrit
Melissa
##uve
##ît
1616
spiritual
##ME
Gods
##ksa
Gaza
Goodbye
##cules
Piero
Going
restaurants
##stru
1569
Mariana
Bert
##rns
Esteban
Indre
##cision
Satellite
Wilde
Nora
##inne
##lec
##bilité
##jord
Naples
liberté
Nya
restes
maisons
essentiellement
##â
##scope
candidat
Ortiz
BD
Israël
Łódź
anda
Oberliga
Cliff
##bila
##folia
Ruta
Dolores
##lien
##test
pré
##OR
Potsdam
##sies
trouver
Socialist
1627
Byron
##eas
Brock
##gade
Engel
1385
Heath
##ené
##çant
grond
Martino
colonia
1662
##ôr
Cherry
arrêté
sprint
Fabaceae
Pio
Logo
trés
##rath
##wijk
##reta
complet
Tadeusz
CM
Cela
Rama
##mien
##tora
##tage
crash
castell
Sega
refer
Bayer
Vince
suivantes
575
McCarthy
CS
##ssimo
reconnaissance
##nod
##cul
rin
Raoul
Cine
##dini
add
Groß
processus
Surrey
##zd
Molly
##nyi
##bun
Quelle
##lore
##iata
Adolfo
Hist
familles
Matteo
##dul
communications
##real
Sébastien
Ram
840
1698
Anjou
Amateur
##inta
évi
##nzo
Castello
supporters
durée
Own
##lil
##smann
crée
1695
##izi
Disco
correspond
repose
##mad
RTL
##tsen
vio
##iwa
Kew
##chard
Ob
mau
##llon
##zard
parent
1687
Alvarez
Rosenberg
caractère
descriptions
##quel
1668
Batu
Sacramento
Lines
Neumann
contient
Armée
##cin
504
##riz
Geld
navi
Neo
##rome
##heimer
##veld
##sol
européen
Frederic
##cés
##vita
1619
1659
laser
matière
terror
1628
##CE
##uld
Humboldt
compositeur
Shield
lettre
côte
environnement
Cluj
Rochester
Viva
##imu
1626
##liko
Mir
clients
##eak
technologies
##bara
festivals
Doyle
Californie
venir
Aldo
##cid
arriva
1611
Krzysztof
##ffa
participantes
##ander
Duo
Jerome
##nymi
##atra
##odo
Tampa
jeunesse
styles
1641
Travis
Robbie
bassin
Peugeot
pose
##reis
Satu
##rera
rele
Inde
##press
alternate
##uang
permettent
##uman
Nottingham
##dore
Hitchcock
BS
weekend
Ismail
vend
Enfin
Hector
mate
1686
perfect
##pica
éducation
Boom
Stéphane
1636
terminus
Władysław
Mina
Cave
##hum
##rance
Nadu
##ulan
touchdown
##rle
Duque
Sherlock
Words
Hancock
individu
notre
nommée
##elu
1669
1678
Francesca
1604
1679
entraîneur
##lima
LC
Kazakhstan
Essa
Omega
Emerson
industries
Thames
concern
Minneapolis
Oaxaca
chacun
##utu
Lys
fiscal
succession
Chevalier
Mange
sic
FN
nobles
1637
##ié
##oses
Nikola
##mne
Clayton
Distribution
Sit
##esc
Allison
Hu
1595
Navarro
Brett
Lübeck
Esther
aura
##rche
uniforme
1555
Gianni
directe
##ssin
élève
##ūs
disponibles
Engine
##rci
recherches
##roni
Myers
Cena
Eight
Siegfried
##uc
##ndar
Clemente
##zier
##vino
##itto
##parte
Cyrus
Editions
1657
Wake
##chin
1606
Boss
##erta
##phora
Interstate
1592
opération
Kamen
##çon
Beth
Seymour
digitale
Evening
##oire
3500
Sterling
##orf
##two
##vang
Eleanor
lutte
##més
violent
Rivière
##ibe
stade
Such
##atte
Info
Carson
##oun
Shan
mill
##klas
Languedoc
Noble
##link
Passion
1653
Baku
Mess
norma
successivement
##forma
##door
Tate
##80
Prinz
Chiapas
Armando
lumière
##gab
##stique
##mania
utiliser
##onis
Nikolaus
borough
Parade
1558
Transportation
Lam
##oten
##tav
##evi
Libertadores
##oza
##kirchen
##mies
##ely
extrem
1559
##vée
Eugenio
Picasso
Che
Shop
inaugural
Brighton
autonome
tardi
##llos
Kazimierz
FIA
Pain
Zeppelin
Simmons
##mä
intersection
##ath
mots
Chaos
console
officielle
Silvia
##oca
##rac
Rodolfo
##roa
##utti
Benson
usu
Vampire
Vinci
Jaya
architectural
##venir
##itel
Pueblo
Neustadt
Fa
Prado
##ingi
Beaumont
horizontal
FIBA
infrastructure
Nan
506
Aragon
Mitsubishi
FF
##dlo
1596
##igne
évolue
Rovers
1565
##onar
Pub
Cour
##cari
##qués
Fashion
Monsieur
Sonny
explica
Phillip
semaine
Large
##resse
##LA
philosophie
Verband
ouvrages
Jaume
Spiegel
##version
##vica
##llis
yi
nata
Elliot
Grave
Kepler
Ioan
Meilleur
Plusieurs
1694
strip
Tudor
Gonzalo
occupe
Valentin
Ultra
##wd
Twilight
870
##ifica
##rave
Pastor
Apache
Paso
Kreuz
décision
sortir
Kada
Ferry
transformation
##liai
Sinclair
555
565
Auschwitz
capacité
##ajo
##elia
Energie
mia
Nico
##dron
Grandes
Sprint
1684
engagement
Lights
##mano
Niger
Salah
guerres
Linyphiidae
dite
ordres
Reporter
Riccardo
cardinal
Marvin
Volk
inner
1696
relevant
occasions
##arda
1646
##tono
##raq
défaite
Yan
Believe
##lova
orbita
##wart
##ikos
Corp
Alsace
UE
##ative
murs
Margarita
##ature
Rupert
##jl
Blade
Kramer
1674
tient
Puy
immigrants
Pál
Âge
Stephanie
##ldo
apparition
##sou
rounds
Comte
##gant
Cornelis
Vie
distinction
ori
Rao
Silence
##zil
duca
Isto
Shi
Ona
##kab
970
##SI
1568
Afonso
Qing
soviétique
morale
##lasi
004
##hari
Mehmet
Calcio
instruction
Kang
Lega
signature
##icz
1588
Wendy
Loir
##ube
1624
Codex
Hurricane
##ifa
##éta
Catalina
##ntino
distingue
luna
pianist
Bath
soft
solutions
##nist
##dun
CR
Muñoz
external
##OP
##ymi
1566
##voi
Vidal
Pride
Smart
Horror
ouvert
Rodrigues
1693
##cchio
502
LLC
Transit
Rest
colonies
patron
Gaulle
##lent
##mbra
traces
##mons
Canon
XML
Dino
row
Tank
Lance
posti
##hiro
##mala
Ju
Sabah
##toma
##dito
1681
1663
1615
chinois
Bonnie
Linz
Pointe
Malgré
marathon
##erre
otto
Pretoria
##ança
##dim
autorité
lecture
Rudolph
conversion
ballet
Southampton
extérieur
Sancti
Lagu
##čan
fair
Lublin
Fortune
arab
footballeur
studios
##visi
réalité
##zoa
##igny
##rdia
##yse
naturel
religieux
datt
##enstein
arrest
Crew
missile
730
##tiche
API
progressive
dominante
Clifford
507
##chine
##nage
accept
Dalton
Chevrolet
Fitzgerald
##hout
Ferrer
licence
stan
tube
##pée
régi
Quatre
##gnes
1613
comporte
Unie
genres
535
remplacé
augmentation
tentera
marqués
##sig
1673
Krishna
Kit
##mang
##illon
bona
##nere
sessions
Dragons
Swan
cartes
##cale
Carr
Situation
##toire
Grimm
##iman
circonscription
indépendance
##dicat
Romans
##tru
##13
officiellement
##raj
beach
##abad
calor
Use
tend
écoles
##tere
rapide
Pine
##ières
Oct
820
##gato
faisait
Doris
Warrior
##cir
DR
vente
##tric
##upe
##aard
Groupe
1602
Luz
1671
critiques
##lti
##tse
CT
CSI
##vodi
##kien
##alu
Pauline
avions
conduct
##hea
libres
règne
aviation
##ková
##ppo
lande
slave
Writers
annuelle
sommet
sis
semaines
Longchamp
Sante
##idd
##arde
##oce
Bol
telenovela
juste
lys
##entu
tenan
terras
Darkness
Corpus
##hul
Jury
Tracks
Hastings
##dzi
##cán
problème
Were
diplomat
##cello
JP
##coe
##lmi
1547
##pris
##quista
##point
Abbas
Atari
Goodman
Experience
sample
Ash
atelier
batterie
##oba
Tolkien
##oste
##uff
cargos
Parsons
Ulster
XP
Jozef
appelle
Mile
Basse
Ranger
Guns
thriller
rasa
777
Malik
##iate
##ression
##mund
Engineers
IAAF
618
exact
##èse
##core
Reinhard
##jil
##oar
wol
Clyde
Benedetto
##gul
##lman
polar
temporal
##rige
PSOE
observation
##dier
##riti
variation
costume
Kant
danger
##lati
Has
##ables
##vera
740
##hner
##pite
##dach
##sang
Daniela
##cini
SMA
##eaux
entièrement
##uid
1601
##amine
##sna
Brady
##18
sand
Mondo
Epic
Dall
Blackburn
complexe
##rí
expérience
Ivo
1617
Velika
maritime
informations
Nilsson
paru
Celle
Pinto
Wolff
Mora
Greenwich
808
##ulat
##gl
##ishi
##ife
scénario
Bajo
##itia
Boyd
Noir
1571
Pic
##tut
##etter
##rren
champ
##rod
Libre
arti
##rika
signifie
##plo
peul
##iani
retraite
destination
Dec
1607
1692
PM
Chair
Jill
##riques
##igi
##vani
Shawn
assume
##wice
Hara
##sses
pilote
conduit
ane
Breslau
Lea
holl
Lil
Comes
doubles
##bola
1578
980
nic
Petersen
Stevenson
BE
##hut
##adh
Benoît
Azur
moto
Norbert
vene
##jun
prototype
1631
##eiz
##rque
##pino
Cycling
Sp
obtenu
##kna
1614
Ante
Carta
##SF
##gnet
##rc
doute
##kop
Waterloo
Huber
Wanna
##ficat
croix
redes
Univ
Guglielmo
Neu
Chambre
Promotion
Francesc
Canberra
Brooke
conception
Sousa
Isère
formé
##ege
##kota
rejoindre
Kerry
boca
municipales
édifice
influences
joc
respective
Olav
ge
gros
façade
vector
Clemens
Nadal
##nami
Maiden
Durée
##holt
##eois
nouvel
univers
##esso
Aziz
Sunshine
##rock
Toutefois
##zky
##rama
Henryk
animali
Heather
##fini
##lose
établissement
Reuters
Aix
##tko
1582
Winchester
Barker
Luiz
Tato
Monthly
Fest
Lagos
##zz
lycée
Nights
##zit
##dhi
##gro
objectif
##hak
culte
Miroslav
Presse
##ried
parce
##rande
fondateur
tanks
1535
Howe
##opus
ONU
Vers
##kerk
##hidae
##kam
Bund
Royce
tir
##apa
Madre
##omis
860
visite
##rero
##xy
1564
MGM
##rupt
Athletics
étudiants
##stedt
Iz
Edo
Starr
réserve
Marcello
traitement
1553
fortes
##orde
Marketing
maintenant
##ront
1608
Mato
##gou
##RI
Olympique
débuts
710
##dab
construire
Eddy
##CA
Arctic
Maar
mo
##cento
##iac
Marche
##ook
Medio
Jungle
Portsmouth
##RT
journée
Samantha
pus
Turbo
##cite
remporté
Reno
##corre
seri
##yli
Umberto
##PS
##gué
##kir
cimetière
##aden
Origin
##chan
Moment
exemplaires
Druck
heure
##sters
##ério
##lano
Opus
originaire
##lua
simplement
poids
Ou
##cet
fonds
##nique
traduit
##dol
Manning
##lost
1567
Rostock
##iss
Matthews
Rhythm
##onale
HR
##rib
Ke
##oes
##pida
Elsa
Ea
##ards
##tay
##oise
##male
ave
##ssus
Azul
1556
Certains
projets
##got
OK
Tempo
##VA
basket
Funk
qualification
Itt
U2
Lightning
##ool
Bel
Française
##telle
formant
navire
uniquement
Hahn
1691
##gam
##rli
Foot
Laval
compose
gar
atteindre
##žan
Strike
##cte
##lap
sto
AL
Edison
dispositif
Amazonas
##tröm
##race
Scala
Python
Quercus
##deo
experts
meetings
Presley
Agua
##ués
##dolo
##uée
phrase
Kali
Knox
élèves
##ało
Any
noire
utilisés
Rousseau
fruits
Óscar
1515
Hampton
sultan
mains
##halle
##tili
Dag
Daniels
##rasi
##sure
Sonora
##kg
Chandler
##ènes
Wan
ME
1453
##biu
1639
Brunei
##alter
##rese
##aban
suisse
excentricité
Pilar
1575
1584
Lockheed
##poda
Lodge
##21
Walking
forum
Titanic
##cati
##tade
##tido
Reggio
Leur
successive
Trent
Kino
##rava
conforme
##agu
Burkina
##uali
Harbour
1080
##rling
1542
Kung
##lico
Shell
diu
##ném
1647
##šić
1599
##gale
1524
socialiste
##nina
##mez
commun
Cardinal
quen
interviews
express
armées
1001
Shadows
##ugu
##esch
chanteur
##world
moments
Estate
poche
varia
ports
taba
B1
trouvent
##hala
##wind
combats
Cage
Joaquim
Lugo
Pie
##cura
##rr
réalisation
Gregor
##bai
Talbot
Marty
##rett
débute
Fanny
finit
##bler
Herb
##nisse
Euskadi
1488
conclusion
Centrale
##qvist
##xel
##lya
Hale
Flag
Chung
galerie
Numéro
##zs
##llet
Planck
stella
beaux
##jit
##rolle
Holding
690
Britney
##plane
##phe
DA
Garde
Oman
Plate
##iale
##nho
meilleurs
véritable
1480
Mona
cheval
1552
##onica
Britannia
chapel
##tys
Kern
Atlantis
Led
Atlantique
Neville
Zie
##mn
##nées
Destiny
Demo
##nnes
##olle
Rap
Talent
KB
##ufe
largement
Fun
Faso
Hawkins
##bito
abbé
Alphonse
Borussia
Powers
Lester
##ensi
Hat
Echo
##inie
1545
##quez
Ninja
##riss
organisme
finance
Wes
ref
Amazing
##gawa
anciennes
##taria
1583
Belgrade
anglo
connaît
Capo
Honey
pais
pression
DM
commandement
tente
Mt
Società
Alfons
régulièrement
##vind
Hole
interaction
##vic
##mbar
Russo
##imit
##vich
intense
vital
##mida
sh
##70
Lords
Garrett
##hardt
notion
##lass
Rua
plana
##sero
Mathieu
Warwick
##kent
##lande
boss
##tona
Maroc
Carex
##mble
systèmes
##lz
##bris
dié
##ühl
Ned
Brandt
faveur
ion
localité
magazines
notice
descendants
##anus
championnats
Hamlet
##āh
1519
faces
Bright
##kok
##sad
Katie
Snake
##aming
##visa
Trieste
Providence
victoires
Olaf
Florian
ato
Hôtel
Joanna
Quito
##bilis
##inho
vapor
##cott
socio
voiture
##part
Liam
##uat
navires
Él
##leis
Pak
Legends
publics
##mment
Günter
Herz
Tenerife
Lancashire
Titus
MacDonald
Suède
tail
1589
##kh
Moderne
jet
Allegro
830
Kwa
Sales
##rive
Saxon
##kong
##pton
##tol
##raphic
Almeida
ride
clip
1517
##dare
Usa
Arrow
Michał
Chihuahua
locaux
##pla
examen
Mens
Mikhail
Yuri
770
Já
Payne
Commodore
##ébe
Remember
##loge
NWA
##ujo
Beatrice
Licht
Corner
Mara
Sad
Distinguished
Teddy
indique
1527
remake
pares
politici
Orang
##piel
quo
Mall
Var
sest
Faust
documentaire
Mittel
1562
plat
commencé
développé
##kens
Constantinople
Franca
Hartmann
Länder
bai
Escape
##pai
Conway
refuse
Lab
##cce
Tin
Fat
Cornwall
Dina
Roussillon
unités
Breizh
##iso
impose
##olen
Weather
1677
Barton
##bli
##wed
Moun
##vero
##fit
##tris
italienne
surprise
Santi
##chal
##bem
Ton
##fiée
Coca
locomotive
2e
##cun
Tous
Think
ment
1573
Pl
Mouse
1541
Seri
Mack
chute
Adobe
##ród
1534
Job
Eberhard
##clave
Sinn
Légion
collectivités
Millennium
##dele
##celli
hil
explique
résultat
ultime
ES
vainqueur
Dynamo
##dente
Neste
activist
##100
littéraire
Sans
Caterina
hôpital
constitué
Saunders
Winnipeg
arbres
Hussein
Mu
##olia
Carvalho
##èche
Schwartz
Conte
appare
##eline
Gear
Mein
##nella
##posé
polis
##own
Forster
Ferro
maladie
correct
Todo
##amat
appartenant
locomotives
Vogel
##cor
Romani
##sville
Shore
colonne
##ication
##tures
roue
poète
##AF
Crosby
##eler
Patterson
gram
##æ
décédé
conflit
sentence
téléspectateurs
##zón
##úl
Fuller
##ssel
##oom
##SS
##otu
Björn
méthode
amante
##cycle
##diction
##aq
Doom
Fury
Technologies
plasma
dimension
suis
francs
NO
##his
log
Aberdeen
Sami
##erang
Burn
Alien
ono
ON
##firma
producteur
1594
Lorsque
##dence
BR
Animals
Giles
810
##erti
##cena
Alison
##rise
##OC
##lga
FIDE
##liv
Forma
1516
##utus
##iglia
persa
permettre
cinquième
cit
Vier
collective
décret
1563
##adt
cathédrale
##raft
voti
Unix
##nche
##west
quart
déclare
##43
##quent
##upan
##opa
Cortes
##HF
propriétaire
Chico
##ements
Dunn
1597
aut
##nki
##stin
##dici
connaissance
##hay
Points
telles
Bernd
##cev
Reinhold
Ríos
comédie
##phones
civiles
##garo
Mimo
Pool
##kun
##rennen
peine
chim
régional
##lian
Worth
Tears
Burning
1587
Horace
majeur
##anes
Serena
##öping
BB
Maestro
##mest
##tali
comment
Tien
##arat
nécessaire
Kad
thème
Volvo
Liechtenstein
##lona
##dres
viola
Rule
boom
singular
##tli
##kee
charter
Silber
Cristóbal
Avignon
##étique
Gomes
Guinness
Heer
Nou
##oos
1470
disque
LG
participé
quinze
Crash
##jum
1561
institut
Biographie
Faber
##hman
##mberg
parle
moyens
Silvio
##raal
Cabinet
Rosen
permette
Ku
taxes
Sword
Bedford
Parte
707
##ahu
Fowler
Holz
##dene
Row
Sutton
Cyril
arbre
##agan
Trouble
Sutherland
scores
AV
Halifax
NT
##fiques
sida
Fate
MLB
termin
fête
Help
yeux
Königs
caractérisée
Beer
##lve
##tila
héros
Championnats
1576
exclusive
##zno
##gav
Corse
copie
##vey
manier
##ratu
##osto
propos
perdu
##lisen
Rapids
Puis
1510
Meurthe
Uz
Did
##yas
Villages
Dodge
Jérôme
1574
##ange
##mut
##thes
Hélène
##rode
Check
767
fleuve
##esto
##pir
Gabriele
##chor
##hone
##ndra
Martinez
vise
##lude
##mers
##rost
Priest
Frontier
##laus
##rées
Mateo
perdre
##ffy
canon
##ayo
Io
##ymo
##yak
##lain
Sims
Taipei
glas
##sola
Elm
Flower
kr
sponsor
##auer
Zhu
Lorenz
suivants
directo
##trag
##ieu
sportive
excellent
Labrador
agricole
##atio
Wrocław
##landa
##andre
bid
Bergman
##ssé
##bul
##tze
##lho
corruption
Minsk
patrimoine
mobil
Colonial
##vci
lati
##iton
Manga
animale
Protocol
532
serbe
##tao
Tarn
Lukas
##tenant
##elj
Irwin
Chaplin
notables
Miquel
##reau
##giu
polonais
soir
Dudley
Hands
##oft
##xie
##wara
reconstruction
Penny
déroule
##oud
Gross
##stol
étranger
##orce
instal
##sheim
##relli
astronom
Candy
##rb
corsa
tad
variations
formule
Walther
Congrès
slalom
##nali
Acacia
Aux
##sius
Maxim
##rela
Bears
Damon
telle
##aram
Doc
##EN
parvient
##sl
Benedict
Mathias
kanak
##arn
féminin
##arin
Maastricht
lord
Clare
Liber
##vski
Cho
##uita
##cède
##eir
Spike
Enzo
Extreme
##ifolia
Find
Williamson
parcours
1586
Bin
ferme
nazi
vei
1543
##chie
Clan
activa
##bold
collège
Dominic
##utes
mart
médecine
Extra
Gouverneur
910
Pico
##zanie
##pose
##mura
1503
AR
chœur
mener
Revenge
pars
##nima
##60
Novel
##ifer
##sler
rain
SmackDown
1577
Tobago
BP
Summit
Amadeus
##pace
Poitou
AN
publiées
écriture
Tomasz
autorités
Meeting
Maja
opérations
##oms
##tov
Ave
manque
fortement
Caen
##tré
##ilea
Malawi
##nete
éviter
##éo
Ente
##LE
Evelyn
Frankie
Citroën
##pien
Shelley
##ulen
KK
concepts
Éric
dialogue
##della
##rty
Wat
privat
##roll
Bianca
##linger
##slav
déli
##vode
1460
##ennes
##arta
tram
##cami
uniform
##idh
Croce
##ashi
Michal
D2
##cere
anglaise
Holden
##pler
##yah
Constantine
responsables
usine
920
##pira
apparent
Luka
Commercial
##ctes
##ady
Oricon
Scout
Quelques
##ammen
##wain
Cabrera
Nieuw
##rion
Eli
Norma
Pitt
Alam
##ddin
Partners
mira
soient
C1
Soto
Cut
##gari
##mov
Ortega
##tent
##logique
##nera
##sana
Gabriela
Amir
##ôt
Math
##garten
Hamm
##DB
##oat
930
##ération
propres
##strat
Grosso
volo
Oz
élevé
Rocha
##edia
##ʻ
Bacon
##bab
##quist
Avengers
accidente
##ndas
abuse
nest
##gidae
Rocket
Stay
Petite
##flora
##aha
eni
vale
1591
Beaux
Ci
Guzmán
Disc
Cunningham
intera
##gnant
Königsberg
##scal
américains
##fta
##pect
Pamela
membrana
##aks
Chin
##dry
##BS
Dub
##atti
Dear
huile
revenue
Bola
Event
danse
Rolls
##éal
temples
Hogan
Rok
Orion
Wojciech
##bado
Pure
Lucio
##umo
Héctor
Új
Th
fondation
Basin
Lev
Sao
Duck
##64
Butterfly
1°
##cente
Hooker
##icum
##aven
##leen
Ruisseau
##oty
##orie
parlement
médecin
A6
##zine
##sade
Castel
Bautista
Porte
rhythm
Nad
##gae
##sico
##tteri
Wir
informe
##pling
##ezi
##polo
Montes
Juniors
##mental
traduction
Sept
##isson
dorsal
Ship
##ilt
##works
Alpi
Tara
chevalier
##oya
Norwich
##rable
Gareth
Hulk
LED
##reus
diffusée
##hid
basé
offs
1593
Opéra
XXIII
##lod
legs
Macdonald
Garland
Ski
Uttar
Rode
Leopoldo
##orium
##fik
relatives
Secrets
habitats
Spy
1581
glace
##erst
Fontana
##torial
##usement
fame
##urg
Calvados
##hian
Robot
##titude
##lce
##ologist
##web
Reilly
Natalia
1557
Galatasaray
##SL
Bock
Salazar
Basket
Kathleen
##mburg
PHP
technologie
mann
##erto
Cent
Truman
##veri
Journalist
Bone
caps
chasse
##bom
Pia
vieux
Ferdinando
Marines
delà
##eat
Direct
##rif
Dell
1512
711
colonna
compositions
##PA
gigante
##ssement
Highland
skip
##boj
##auta
puisque
Vosges
palace
événements
Cara
Xu
Plateau
Emile
raid
1186
Elton
MR
Goa
##fels
##dane
grades
##lys
Maps
1490
##rtes
##AR
étend
appartient
confine
##agne
Nous
Pioneer
Simple
Ono
##itions
KG
lesquels
##SR
acteurs
orientation
Richie
Osman
##erat
entrant
Aquila
##vado
Basa
##uke
##olin
Keys
Tolosa
Signal
##idan
##pr
##erra
613
mani
Mondial
Hawks
##oux
##hau
##ET
suspension
permit
##rly
1554
Freddy
##pert
Watts
##iye
Regionalliga
Chaque
permission
1529
##ulis
##dana
Minute
avocat
##tene
##èvre
Lettres
##oissa
##ntia
Voyager
##cats
projecte
1204
##uvo
Rojas
##yw
Mercy
##zyn
Clément
##vost
1523
découvre
paras
Gottlieb
Clive
Tomo
rum
sir
Landtag
##ropa
##porta
Frey
voies
Poe
neutral
##tants
Castell
Pen
##ngar
Aber
##istent
##nikov
Franck
Cologne
##meni
##ogique
##mul
tou
effets
Mehmed
Celui
mond
##istique
Ursula
##vici
ITF
codes
##jama
Observer
Choi
Mendes
Natura
sièges
voire
hadi
##dali
SL
brit
pati
##athlon
Bagdad
##chio
descent
Daddy
Ren
Delgado
Selle
##lett
1579
procès
Tristan
1533
fonde
Cotton
Amiens
Wi
##how
Rabbi
##nchi
mama
##liano
Brigitte
Pocket
collecte
Maurizio
Ávila
hommage
pouvait
scientifiques
Ribeiro
Prison
Lois
resp
##kud
##mol
bleu
##mian
##nél
hur
Boulogne
##ndum
situations
risque
Judas
compare
mich
##mper
##pulsion
Henning
##uco
##NI
organisé
##lena
##yoshi
##RC
Linn
devenue
Expo
Gomez
##enten
Christensen
obu
Liszt
Zhao
Charleston
Description
##sim
##ION
##xic
Graves
papier
##chid
##oop
Miracle
##iformes
Aug
explosion
Perez
Yusuf
intero
oppose
KC
Solid
##lme
Wanderers
Bains
##érée
Sv
##mio
Emery
Sturm
##ault
provinciale
##dena
Tottenham
installe
tun
Brill
Petri
romain
##graphe
Hercules
Ready
options
##umes
Babylon
résistance
##eche
enzyme
##str
Antonia
Squad
Père
##laste
douze
##uria
##gr
Bland
Erika
##vec
##ède
IK
tol
1528
Gestapo
tron
UP
Dwight
##vate
Bernardino
##ught
servant
##sif
##ntang
Adriano
##zei
Grèce
##NB
1420
Schubert
##gés
##tium
Norris
##rnen
1150
1537
militer
mara
tiro
cave
Swing
ST
##typ
Paus
Hilton
hardcore
Tango
doctrine
Darren
Adolphe
##MS
Kader
Mika
##tya
margin
pé
Musica
publiée
##24
JA
juge
Imam
Marte
Sent
Sessions
Akira
Ouro
##hane
##site
Archer
Chrysler
##uy
Cha
ouvre
##rire
##ellement
##veen
Deborah
Président
1440
Kaunas
trente
##vall
membrane
##arne
Wyatt
##sfield
##xis
##quis
##thi
Suffolk
Fuji
##jeta
##kui
Pinus
##áv
Carrie
##tah
Sleep
##hil
Tunis
##érés
Souza
##qu
##pping
##messe
Batista
rotation
##avan
##veni
Vázquez
assurer
dessous
##iba
Kitty
##pec
Boat
ker
Hautes
##nose
Holm
Pest
Phys
##IF
Rocks
modernes
##amp
10000
Tem
pouvant
consul
##gaard
Feld
##nati
Denise
Proto
##öll
##gali
##hri
##rap
tué
940
##nke
plates
température
Neptune
##ienda
Rodney
##hong
estudiant
aile
tenta
701
pratica
massacre
Fusion
##hawks
orientalis
shoot
Okinawa
##iges
##xica
Iglesias
Gotha
##vasi
flor
Rudy
##usen
##lii
jardin
traverse
Tomáš
##éi
##kaz
##nah
doua
##bó
BWV
passion
##ppu
##vari
Lowe
Dora
Égypte
Matti
##pier
toi
Senna
##eath
GSM
##midae
Gaetano
éditeur
Desmond
##ckel
attitude
Ova
Dickinson
##thy
##gement
M1
##19
Dogs
##kut
##ivar
Figur
Roque
Ardennes
andro
##vens
##uter
Focus
1539
Beyoncé
##isha
consulté
Goya
Cromwell
Dua
implica
inclinaison
##èvement
##uaire
Claudius
##llia
Bernstein
##toni
MK
Cars
Exposition
Task
Clement
CONCACAF
Pack
AMD
tape
##code
Barney
##oq
Irlande
##fait
coda
Michelangelo
##imus
plural
Cuenca
##loga
##usia
Amour
##sons
électrique
Giulia
##fano
Haas
##grave
saxophone
##duction
##iis
Calcutta
##erea
framework
##shof
micro
trust
écrite
Dijon
présenté
ovo
##plin
Monkey
Sunset
oz
##hod
vivant
Skopje
Romain
Rebel
##viser
##duct
SFR
##gini
toun
Hongrie
Bulls
##glie
Stephens
unan
Belo
Deal
##tration
Vatican
limites
scènes
##mei
universitaire
Sounds
##uré
Zimmer
Gabon
artillerie
##orme
##üs
Pauli
1532
Dracula
Enemy
Locke
1538
universe
##sp
laisse
traf
##tae
##rité
##ôle
clave
Role
effectués
accesso
Machado
Lyons
##lemen
Mikael
##ranno
##×
Nowa
##vd
Olof
lendemain
Must
##DP
Laurie
##gura
##noma
##ntal
Lex
Schumann
##kopf
Dion
Francie
Arch
mena
##uza
consistent
Ara
##dotte
##ald
##mosi
Salomon
erg
##quita
combustible
Hubble
##érie
Sage
ITV
suburb
dessin
sauf
Divine
##neri
##zane
Muller
Vaughan
Dias
limita
##nec
biens
##GC
brillante
Linné
profil
lois
unir
Anak
Royale
fè
Visconti
Référence
##fina
perda
Sigmund
##type
##bbia
Casablanca
##ept
Nichols
touch
Peggy
Electronics
##otes
1260
##brook
##gles
Cartoon
Erfurt
Murat
Sabine
tension
immigration
##TM
Abbott
##ieux
##cade
Braga
Rocco
##bergen
Maple
##rter
Requiem
maximale
Donovan
désigne
Randolph
ingénieur
##novi
organise
##tang
Daisy
##tead
lava
marks
##urde
1522
vivre
TNA
Poitiers
##ffin
##dic
individus
##mil
##lm
bond
Egli
Syracuse
##haa
##ård
##pita
##rants
Vito
Allgemeine
milles
TCP
infection
Colón
##fund
##øn
Networks
##xon
Sc
##cili
##pice
##rnas
pit
##ols
990
cf
kick
Lager
Dalla
##bba
##cades
##dei
Jaguar
OP
Bloom
Oviedo
Melody
spectacle
uri
##vili
##lao
fragments
##jad
##ggen
Witch
##stis
organo
bourg
Syst
Branco
626
Deutsches
Barack
fortune
##yme
simili
##tales
Invasion
##enu
##uzi
somme
pis
deb
##ames
##poste
avenue
Worcester
##brand
Mira
Steam
##lst
##américa
Cable
##AD
DD
essais
Eindhoven
Tommaso
##éria
Bit
##rnes
##veg
1180
repair
##shaw
1551
nat
NASCAR
Duc
Hepburn
assassinat
1549
AF
Nietzsche
Té
##rab
Sung
révolution
Haji
Aude
Euphorbia
##TC
##bele
survive
ens
Sox
Kerr
##leur
Driver
##halte
rares
Shepherd
##gien
relativement
Naruto
Photo
Opel
Boyle
##fus
Wallis
pairs
Har
##iane
##pital
Oder
ep
##meno
favorite
primit
##scription
##hot
##gum
arrêt
Dahl
##gui
Excellence
##rny
##aly
Gama
NC
aéroport
Andrade
Velvet
Cure
##pl
##OH
##sible
2D
##bble
Zurich
##cure
##ilan
Belt
magic
MP3
parco
Sama
Ulm
Salisbury
##pent
##pf
Busch
néanmoins
constituent
ecc
terrestres
1513
##culo
##igata
Rasmussen
sor
##pista
diocèse
##roda
Salle
canons
##mettre
Mort
Rada
Tesla
romane
aim
##nno
##ddy
Arm
##nee
mura
travailler
##wit
Liz
ABS
Tokugawa
Protestant
spatial
##zena
1501
##tait
Rot
##tual
##úr
Villiers
lie
liaison
Bourg
Billie
Gerd
bandes
Surface
##onic
modèles
ramo
##bers
hori
changement
##pine
##enko
##yler
MLS
slaves
##elar
marche
aw
##chon
Gloucester
##vanie
Nolan
Dessa
##mah
C2
##xan
##vaux
Youtube
Amelia
Führer
##nadi
besoin
Flynn
##rema
Nicholson
vik
ef
bag
Brent
##orten
Honolulu
##eville
##ïa
##unde
##kó
##oper
##eyn
Friedman
FDP
blanche
Abs
##phis
##lke
profession
Della
Booth
nomen
pone
Inner
quarterback
Mighty
Garibaldi
##jni
Audrey
humaine
Pt
annuellement
Naomi
Shu
arrangements
oncle
Cumberland
##éis
Walton
1504
577
Togo
Ala
Sidi
##zus
radiation
Trento
Raj
##dela
##oden
effectue
viens
portraits
trail
Goldberg
abandon
Wish
Lakers
NA
kabupaten
##ators
Sailor
##nque
##tuan
##irat
musulmans
##ruption
##ject
Qua
##aye
communiste
1505
printemps
##ranta
##rust
RI
1546
##inia
##jur
Harriet
Metallica
##uia
Elbe
Vogue
Ah
rebel
soldat
Unicode
veu
##bral
Halloween
##ār
économiques
##čić
participer
Gap
##baret
écliptique
##icis
Cervantes
fala
Chamberlain
##imate
##kawa
Isa
##bord
Crane
fent
##inet
##rala
Steele
dialect
1494
Dann
téléfilm
1380
Lover
bars
##tist
Collège
##urne
Arnaud
##egi
##roi
##acia
Gogh
dirigé
Constance
##mouth
suggest
Albion
riche
##pard
hyd
Mello
##gone
députés
RT
##rley
##gula
##ect
9000
##ndu
Smile
Kazan
ouverte
Ronaldo
Weil
Schwerin
bassist
##lv
Esse
utilisant
1430
Crow
##weiler
Eng
rector
Yamaha
Rihanna
##eds
Jésus
##yba
territoriale
Amos
##fix
Dai
##penses
japonaise
Nickelodeon
##leta
Agostino
##anic
##rgus
##sek
##ingham
##vissa
Nino
zi
Border
##tosa
Adrien
##lons
##ovich
Buda
Prairie
Jörg
Achille
Gavin
Killing
Gibbs
Lao
roller
BMG
Resident
##ipe
Byrne
Hiroshima
Dexter
##life
##nicu
Ludovico
jugu
##sula
##rater
ari
Nippon
1370
##omes
##culture
##here
Yorker
Alicante
intermédiaires
##asia
##vena
Cô
Gian
##losa
mac
Hora
##ndor
narrative
##ncu
Bridges
##nista
endroit
porter
##KO
minimal
##fal
proches
raisons
##lif
domaines
##lci
morti
Diesel
Farmer
##veli
étoiles
Soleil
AAA
##cture
Iván
Lydia
##mosa
##jean
Gud
Tas
creu
##aille
##nç
victimes
##stat
rai
Einar
Adriana
Restaurant
Calle
Sheridan
Lies
UC
surfaces
##ieur
##cq
jaune
Mat
placa
##tend
##wak
##UP
##rdu
fabrication
Greco
Kan
##acha
Albin
Georgetown
##omas
Rwanda
##rista
1485
##rière
Negra
Linden
##posant
##nota
Gong
Cove
1544
Girolamo
envers
##quette
Rim
##drom
Harlem
Simón
attraction
##erno
Jennings
mouvements
##hop
secondes
shi
##dru
tea
resti
Benfica
1548
configuration
##tée
Paola
1514
##emma
##szt
V6
Holdings
canta
##nnie
Odd
docteur
publiés
cercle
administratif
##lave
faits
1495
##fas
1240
isole
Shot
##tla
##raya
avis
Burundi
Buffy
Gerry
Rover
professionnelle
synonym
poursuit
##kl
##ision
##uana
Martini
commande
##obu
CBC
Cardinals
mentor
Breda
Goldman
curs
##cah
Photographie
Manor
Merlin
##syn
nul
##nama
Ras
industrielle
Quick
##czno
##tress
mina
Everton
Phone
Haydn
##iaux
Jakub
Southwest
##dov
Move
blu
cellule
##nap
WCW
UCLA
##iné
Ventura
##város
Montserrat
oppidum
assai
1475
Clair
lao
conserve
##pok
##uet
##fes
Casas
tiers
##buk
##ument
##iare
##acher
Progressive
flotta
Fenerbahçe
##ertu
Ericsson
##HA
chemins
##mide
Kari
colori
Écosse
##ême
##oco
Alves
costumes
Coventry
Mestre
Costello
auparavant
segments
Zheng
Košice
cult
1506
Monk
##rence
sociétés
5°
ml
##rgie
1531
##lj
préfecture
aluminium
##tras
1498
communal
divorce
olympique
##kama
trouble
##ilia
Abe
oiseaux
Rookie
1471
Moser
Nathaniel
maximal
##zani
##ongen
##rven
UV
##ission
Mala
Sina
##jevi
Resort
Roca
Felice
##zli
Dél
##chel
##esca
Philharmonic
connect
##rones
##atta
Coimbra
Khu
##ign
##kul
provoca
1230
##izo
Daniele
Magna
Mihail
Bean
latitude
navigation
##llement
Aves
##riga
venda
##tende
##tens
Raphael
chanteuse
1340
##ND
ova
Devils
Tea
liquid
affluent
FAO
##rug
Owens
surveillance
Gdańsk
##luse
cantons
TO
rally
analog
datant
##zle
Vickers
Carrera
Barber
nua
ressources
##DH
Humphrey
cales
##icate
adoption
comprises
noise
Brendan
Fernand
Maggiore
Hartford
##trum
##riidae
modes
intent
##rond
##nthe
ie
Odessa
##zeg
Tata
##tais
Ministre
##GE
##DI
opéra
Strategic
branche
##rong
##geon
fl
##pura
##paro
Bye
Cagliari
situ
##chó
GR
##nels
##oel
sci
beau
##ground
##pson
##nné
Dakar
##piro
##vac
##jut
1050
chevaux
Ethan
##NL
##eos
Hala
Mol
Sei
##manes
ISS
##nny
Barnard
##bide
privé
Mayotte
Alten
hir
##gee
endémique
messages
concerne
module
1502
##kana
flotte
1483
certaine
1511
Schiller
Burger
Djebel
Mines
Breton
##nitz
##ruda
Sabbath
échange
##oci
Burt
Eclipse
quota
Fuchs
ticket
Doo
1220
nag
##opsis
##sens
samples
##phin
##tante
ner
Angus
##former
RD
##ghi
PGA
Belize
Diaz
Bianchi
Pot
##ctar
Liang
##sans
Cruise
##bik
Aku
Liberia
Males
rurale
##bate
##issement
Eliot
Gallo
##tue
coins
représentation
Angers
étudie
##mbi
##cans
Kot
export
fini
##veno
pin
bun
Cristiano
Palmas
##eye
##tzer
1415
Spartak
Dario
Buchanan
comptes
Galles
ras
muscle
Basil
halt
##cephalus
##ttel
Ale
Hoy
##tons
1508
Larsson
##tma
Monsters
pes
##érique
##phi
1371
##osis
complexes
##ög
##evan
Dmitri
##cock
##terne
massif
##aper
respectivement
élément
##ruf
907
##dr
##nur
Tome
Cannon
Vo
Gironde
##gri
##éon
Alois
impression
Elmer
Hendrix
Toy
##aster
Saul
##iral
Morgen
Wilkinson
##rui
##rné
##haya
##bata
différence
##isu
##itude
Cortés
gagne
Darling
objective
quer
RPG
##dman
1330
Tanaka
recensements
##yton
##dite
##frage
Webber
Volga
parler
Mauricio
##roga
accent
##NP
Bones
monastère
Yokohama
matériel
##raca
##boro
##burger
Gamma
##lberg
BCE
##sier
TT
Netflix
##vane
##EP
Vallée
bibliothèque
Bremer
Wine
C3
##pierre
Rutherford
CB
##fern
##leutnant
Cité
##culus
Ebert
divisa
Livingston
conform
Maharashtra
Bassi
##ovine
fluid
Sammy
réaliser
Zee
Eliza
Xi
##dz
##mid
Amber
Havre
situa
Fortuna
Jets
blind
Elisa
##sea
ال
Merrill
##feri
originales
2600
candidats
2°
Oracle
Orne
facile
Vieux
flash
Geoff
##uchen
##arden
##érant
trace
enfance
Melanie
faite
officiers
Cowboys
leit
##stiques
Lamb
DFB
##cona
Dillon
##lion
##rua
##neau
##ports
nau
Yvonne
Radical
rester
##ctural
Laurel
Ky
hang
##čo
##tase
##nser
##clut
Mirage
nationales
Frankenstein
##derd
marins
Bronx
Durango
cont
##isés
Everett
Ol
##tala
##cension
Erica
Miriam
élite
élus
Mackenzie
Turku
##avio
Saxe
Gala
Vichy
bosque
##prime
##chner
Sunderland
##rü
Juifs
plastic
gall
##enna
##ipa
##korps
Reginald
##nari
Virus
Quincy
amino
##market
##celle
règles
##toon
##oth
nasa
Bernie
##osz
comics
##esco
##ïque
Juin
##phen
Horizon
1410
Forrest
Gutenberg
Kairo
##gués
installations
##taba
Dundee
##ogu
demeure
transports
Cynthia
Stirling
tumor
Advance
##tock
##ïde
##heer
chefs
ruisseau
Wise
transit
##hawk
##felt
##TO
##cala
cuisine
##rody
##emen
##mem
Cody
Panther
##nkin
##shan
colonie
feuilles
Voltaire
sura
Heller
Pers
Fever
##ulé
Louisville
croissance
##riko
Sigma
monumental
Pet
Merry
médias
Innovation
##zent
##cla
Oba
Baxter
Chopin
affect
sonda
tato
Browne
emplacement
##bst
Fils
##llus
plaque
Nana
Voss
tôt
Champs
Suriname
##DE
##anche
##ield
##tile
Fiesta
##ryl
tier
Jansen
volonté
rent
climat
##pest
##rud
lien
##rnu
Oni
Henriette
Davide
SQL
##rush
Yankees
choisi
##bber
Kahn
1499
##itum
variantes
ot
Wet
Stoke
Mafia
##lament
développe
Irina
##bauer
domini
Bollywood
##nian
NM
##epe
##36
##vore
Regio
Wilder
cavalerie
codice
agglomération
##vini
##jim
Jade
moc
Corée
##astique
##rvik
Hate
Multi
Riverside
Kemal
##óc
navale
Tripoli
adjoint
Lowell
1280
actif
##yni
##bald
Cobra
Rana
reverse
véhicules
Juliet
Kod
Sied
Win
Pond
dama
##ât
Mister
Góra
##vald
fur
bataillon
##gation
##gales
Gale
Grab
assistent
##ider
Atelier
structural
##hdi
dala
trenta
Rubin
ent
Archibald
Platon
Gus
##ghe
##öd
Bartolomeo
##lić
Vierge
KS
Rodgers
##kampf
catch
##zaki
Bing
Images
##xico
##mbu
##tiga
##arti
Gina
larva
Fresh
##guer
Hang
##bull
##ltu
##ynt
Cooke
Brenda
culturel
##vene
##lani
Effect
Engl
##latus
accueille
précédent
revanche
Spielberg
interactions
##aen
##kä
idées
Angle
dili
##sliga
##nome
##ridor
##nys
##cone
confusion
Tao
Hannibal
exploration
##bino
##tér
##été
Jedi
SAS
Browning
Antigua
Mozambique
Sonia
clés
##90
##čín
Font
Morse
##bey
##ič
Investigation
coche
tourist
##sla
Exeter
Twee
##olus
Valenciennes
Clapton
##gnon
Milk
Kort
Leave
slo
##lora
Neuen
##udu
McMahon
Reeves
turco
##gative
843
associé
##rba
##chn
##wei
##III
urbaine
NXT
sculptures
Hobart
Hare
##ivité
##ector
flux
##ryk
Ir
Wembley
produir
##pool
enten
##éir
##ruz
##isir
##utier
Tonga
##main
Powiat
envoyé
Lopes
##inha
##send
formats
##jø
##cross
##come
##fir
##zini
sembla
Bloch
##kova
salon
capilla
##dong
##fors
mesura
produire
Carlton
fleurs
casting
hell
Mor
##mati
Mozilla
Same
SNCF
Schultz
Taj
aust
1066
Playboy
reggae
dame
##nth
Là
RM
##bain
##üst
Monza
titulaire
##niques
##ppel
Barn
##nac
##zog
Thornton
Pluto
Comédie
Fabian
Bet
tomba
1435
1509
Yunnan
##CS
Watt
##iard
Poaceae
Meredith
essai
##entat
##tke
soleil
##lance
Rosso
Franc
Pino
Kristina
Rubens
##eté
2200
##trat
1365
Kur
Amin
Zen
##ûte
réussit
Charter
tables
natale
##ride
valori
Territorial
Alec
Goiás
##sions
##thal
##ggy
participant
Alvin
espagnole
##talo
##andi
Fuentes
Saale
##smi
plain
##yf
Remo
estimé
##dog
1270
Contra
##obe
Mathilde
viva
##śni
##quina
cache
##fjord
puisqu
Mori
Deluxe
Petar
##uler
rencontres
Sucre
Uwe
Ridley
##às
##kau
##zis
apprend
Passage
##OT
Basilica
##tuna
1101
##yuki
##gnan
##éologie
##forte
##ithe
##HS
##asu
##bera
Condé
##bry
##sena
Barcelone
##sford
##servation
Euler
religieuse
##rya
hét
##enis
##abi
fossil
##quilla
Gers
Witte
Wolfe
##dati
##lgar
##AA
##issent
##iller
##placement
##aji
##lever
assure
##lium
##nini
##lesia
Bela
##mone
SN
##rgan
Lexington
Toby
Qin
slova
##wley
essay
Maas
##uns
Friuli
PK
Spin
dramatique
AI
##ïdes
##meyer
Antoinette
##ographie
1360
Aero
Brave
motori
Townsend
Pepe
##pere
détaillé
##êtes
sure
Macintosh
##ulant
Harmony
Houten
Haarlem
compact
##lard
substance
##ticu
Juliette
jardins
restantes
Erasmus
Scream
##wiec
##usel
Workshop
##kob
Raiders
Antonín
Molière
##tski
##lades
##poser
##logist
teste
MBA
1290
PSP
Bou
##drome
##kowo
penn
##mino
spécialiste
##orter
##nité
chan
##plice
##vision
Ardenne
valeurs
##niti
utile
##cisi
##eco
##UE
Weston
Duarte
Madras
aime
AllMusic
Astrid
Timo
ordu
ermita
formations
encourage
##cant
Adolph
XXII
##pore
##yg
##yst
##monia
##cité
##jot
distinctive
##tient
##lg
##rey
occidentalis
##tof
Serrano
##volta
approche
Himalaya
Sem
##KS
##rophe
Yard
gong
accueil
contexte
##phine
Compton
Chao
##kiewicz
##nero
Verdun
XXX
8°
Monet
##kind
ret
##sino
##truire
##hild
Levin
repris
##ärt
victime
##buri
##ncé
##uchi
##pli
##urd
Armor
Sting
Shiva
##LD
##uario
Caballero
Bat
développer
verb
##bergs
Budget
majeure
##sées
Speedway
Matter
dessins
GE
##estre
##iola
##mique
panorama
Gujarat
Thérèse
Kimi
perde
##kr
austro
Marks
##bow
sile
##lean
Membre
Tarzan
TC
##odie
crucial
Libertad
Dust
##gano
Léger
##vot
toile
##hida
##dara
Bomb
##clo
##rilla
Malo
Heidi
Newark
##urn
statua
sensa
drame
franc
Cedar
##diti
inventor
Affair
sable
Amiga
CW
##bni
1320
Patton
##pop
Nota
Ling
Plain
Bez
expédition
##uine
##did
Investment
Robbins
ren
##none
Chávez
Doubs
Rough
##lac
Lisbon
Nieuwe
vos
##ml
##OK
Silla
Sakura
##aso
Seal
canadien
narra
Pages
##ilu
Drum
disciplines
##lver
##nelles
Stevie
Samson
paus
McCoy
Genoa
considérée
Melo
Sorbonne
FIS
##ilité
fondamentale
Dordogne
Rin
Ent
Weaver
Lothar
##stab
considère
Takahashi
1130
##PD
##liti
Novak
protesta
1390
décès
Giuliano
##ulla
cents
##lub
##uai
Nairobi
##mita
##tane
##tones
Skin
migration
##drich
prosa
étage
##rivé
Fantastic
prêtre
TD
Ancien
##nty
##schi
##idia
Crimson
##owicz
Gallagher
##pend
Nadia
motiv
compatible
##bella
DIN
Bud
TN
fonts
##cchia
forment
vrai
possibilité
refuge
Venise
Forte
Ruf
norme
Mag
centrales
##fici
Nordland
gra
Sarthe
Rocca
Dome
Put
##tinent
Button
orgue
Rockefeller
communaux
inconnu
##wah
conscience
mand
Lucie
##opia
soi
Ivar
Associates
boot
Yin
pne
Ruhr
##hagen
##hru
privée
##shin
aider
contraire
forts
sabor
Satan
représentants
Toulon
Triumph
Mandela
Tampere
##hali
Général
##ibi
##onos
RIAA
jan
Ching
##rys
##zur
Gabrielle
##gest
Patrice
1497
coral
##acho
Milne
gent
échelle
##vesti
##šni
Lok
Aube
RA
chip
identité
maxime
##itive
##ciano
Jacobus
Lippe
##bosch
Active
##ason
##éki
##ebe
##kini
##SH
antique
Beaufort
Bentley
nef
IRA
##fare
##erts
##fio
intègre
Host
filmer
Decca
Isola
parasit
##erland
Beaver
Rioja
Dynamics
spots
##âtre
Fernandes
Stora
minime
##houd
restauration
##abu
##cution
Lim
##quate
##chang
Cum
Calderón
##hio
matin
Colombie
##laire
Blume
##bala
recueil
signé
##taine
##eek
centri
détruit
##elius
vende
##ateurs
Figaro
Ars
poésie
Ivy
législatives
snow
##sette
ado
pieds
##cter
Etienne
##ndorf
globale
##roman
##stir
##blement
rot
Nate
##nano
Mémoires
Soria
gallo
Biennale
Pepper
##latt
Moral
Marquis
##bee
Fabrizio
initialement
##riet
##dano
Vikings
appelés
Núñez
##hanol
Emanuele
soap
Hume
Adama
Stahl
Flames
innovation
##foro
##oin
##uation
Ty
##tting
dud
Communes
Bahamas
##pôt
##ünn
##mack
organismes
##tria
##kade
Région
##otis
Sichuan
##utz
sait
Civic
##taro
##sworth
doctorat
automne
Bosco
lectures
##ryn
FR
Antony
connaître
Moody
##hana
##mande
SB
##sers
Moor
##dona
étrangères
Nathalie
##gona
Camino
amiral
Sar
2100
Guam
##ination
jag
##ddon
Manson
nap
Sinatra
Sheila
tapi
religions
##tec
##yclone
Spa
rendu
interactive
nah
primaire
##radi
##anno
##was
Wen
##lick
##tello
ukr
servi
NP
Masa
##gier
Jessie
##roat
##rün
Canadiens
Sal
forêts
Sonne
retourne
vinyl
##gios
Found
##curs
##pid
Selo
Gemini
styl
##parer
CSU
##hoda
##dova
motif
consultant
Pike
seuls
##rales
##ciem
##iments
blancs
##uele
Clubs
##zara
kami
logic
Sense
valid
Danielle
Yonne
##ntis
##state
Jang
##bron
Eisenhower
Enn
Piet
VV
##cide
##mpo
discours
rayon
Vettel
Chiefs
##oggia
##posite
KV
prim
Dumas
##vait
##ciformes
Patrol
##meta
Trip
Duran
supporter
Trujillo
##orno
##iensis
martial
modifications
##ź
génération
Ranch
Carlisle
##cratie
##tour
##ssia
##cence
tribal
paroles
##ipper
Puig
disparu
##croft
Arno
vicina
Ter
Ugo
Zappa
##gst
##chta
partis
##istrat
Nikki
rende
Arles
##boot
##hant
jurist
Patria
appareil
##zuki
Moulin
brun
##hna
Midland
bloc
##gino
##tans
Shine
minori
##tman
domicile
##rchie
##riat
##rima
Consulta
Cali
##mage
##dure
Mercer
quitter
##lité
Eminem
996
##ulos
##ior
Noise
##nine
choses
PD
Terence
Regia
##cante
##cism
positiv
##tention
présents
1518
Dani
##bation
##hers
Antioquia
Franken
1241
##CC
##oche
Sachs
arcade
Mach
TNT
Pulitzer
##laska
Daimler
Rage
##emann
Coll
Fondation
##resi
Clint
##fis
##hammer
##lings
Rubén
Valois
Harley
existent
missiles
##UT
##rner
Spectrum
##haru
britanniques
Reste
contenant
manche
Yr
##otto
Nová
subtropical
Pons
Picardie
triangle
Borg
##asto
##illy
bel
##ild
##viennent
sentir
Coalition
##acon
disposition
Oberst
Jul
humain
##haga
##polita
lancé
##suna
E3
Ribera
##vais
Osborne
Berge
hub
##mari
Munster
Wilaya
circuits
retrouver
##plant
établi
##ilio
grass
##miu
##torie
##roux
sorta
sociali
cérémonie
Dor
Tomé
##erk
Coral
Guards
consacré
ly
##verso
Sanchez
##RE
Pace
##nommé
##GM
complète
Survivor
Ola
Bello
Fender
##cius
width
##read
minima
##ptat
##umont
Strom
pico
Sunny
##nma
Harding
Panorama
Titans
##utt
##ptères
Poor
estimées
Ponce
scala
Glover
##uss
Muse
##nesi
Lech
Nil
affirme
##goa
##eption
milliards
##kro
discrimination
1469
absolue
##straat
Soft
##sance
Jasper
##enter
pointe
##laya
Khmer
pouvoirs
##rmen
Bride
Kaplan
##eille
##alog
##kre
lied
Syrien
##ffle
Medellín
hali
Sale
Garfield
##dok
entier
##lite
##ława
##sari
bog
Fidel
mène
##arf
Oleg
utca
##iul
duel
Path
individuelle
pourtant
venues
##uth
##osus
##rosa
Montagne
Cope
##nzi
##stal
##olver
nominations
proportion
Tucson
Ubuntu
Had
##uku
Assam
##efer
##ilien
##järvi
##etus
##pso
connus
Patriots
##jed
Dur
##inski
##aton
pen
##uara
enne
Michaels
##stid
Katy
Brod
discussions
##raphique
##kina
##rmal
adolescente
invention
régionale
##yman
Tier
1348
cristal
##bone
protestante
frontal
Gal
##sur
##uas
##risi
Archie
##ndri
BY
Alpine
##bier
Docteur
##trus
Baie
contraste
réforme
Allemands
##erman
##bita
Leonid
##lén
Serbie
cluster
légende
Brecht
abstract
Dickens
##ăn
##dest
Process
##mira
Sawyer
##nj
##yda
sélections
Moro
##pher
Slim
##gami
##vian
Cast
Logic
Score
Classe
##fession
meur
Sirius
Aire
romani
Pola
##uben
PSV
abrite
récit
##LS
Lawson
Monterrey
Monti
##röm
tap
Snyder
Lourdes
Meiji
Fragment
##yai
Concordia
##öy
Bihar
Worms
sk
##uv
Alf
résidence
Paco
captura
restrictions
Réunion
tuy
##gora
Lana
##ück
S1
##guera
comparable
langage
barrage
Lafayette
nomme
##zul
##ipo
##marine
meu
##llion
##wels
##iales
Sign
statues
prennent
Tong
consist
phases
Federer
##tren
##reme
Intercontinental
tentative
##ntation
Chandra
Borges
Annette
Omaha
Polar
##moni
étrangers
Cherokee
Perm
Margherita
##stice
étapes
##hov
Robb
##osu
nominal
2021
##hada
##ïna
Chain
##mante
Bamberg
Baum
Sep
##stante
Motorola
##NO
Midlands
##ump
Ama
partage
##érité
impériale
##laine
appellation
##raient
Cindy
totalement
Camden
dress
##cam
Palomar
##dao
##kil
##lug
##ceps
##reng
A3
##IX
estime
##uite
##itant
cool
KO
##atos
Julián
Firefox
Cáceres
##uera
##uye
##buran
##pende
Sole
##nensis
##erus
allemands
arguments
##illet
Ark
##ribue
Plzeň
Niccolò
Palo
##rami
##53
##nès
##lates
Sands
##otte
bra
Vive
Bom
##icola
import
provisions
##style
Largo
Marca
##rvi
##upil
Novgorod
##gola
##ïne
##anga
##big
Gol
Analyse
Halo
ken
écrits
Hugues
origines
efficace
exile
##mits
Przy
##efa
Leroy
municipale
malé
##vár
accepte
pub
##cise
Administrative
supra
##EM
Atom
doc
##mna
Arlington
dose
##cible
Cats
fon
##KA
##elin
ER
ferroviaire
##sni
oriente
quantitat
Blanchard
exhaustif
##ópolis
CAF
indien
##caire
##klo
Kathy
##vres
##trie
Banner
VIP
Roux
homi
##quement
Everest
##hua
##dli
colpo
dure
marquis
##anz
fat
1478
plis
Dir
##yde
Hohenzollern
prit
Else
Schröder
Slow
##dust
Afrikan
Poker
établir
instructions
##bica
##tref
##zey
Fram
Byrd
##83
Aria
photographie
##yte
Twins
##iselle
##erson
##hurst
##gres
borde
diagram
##rrell
Fins
##rland
occupa
Barra
##yed
Vieira
##alus
##curi
Damien
##atar
Bogdan
##sbury
Rossini
quartiers
##stitution
Fighters
Danemark
estima
##rip
Moreau
Grass
démocratique
Kobayashi
Britten
##ciente
bombe
Maud
##bies
pollution
marqué
Wanda
KGB
Guevara
Mahler
voler
présentant
##villon
Bray
funk
##tau
##inaire
Downtown
Drôme
Stara
Jiang
##TF
prisonniers
##into
##mach
Curie
niveaux
piloti
##reti
Aid
##32
hel
présidence
Brit
Suicide
d4
##geri
Stafford
##zzy
Bord
viti
1482
Lutz
dehors
##čin
Nike
dra
##ibo
inspiré
Massacre
Mérida
##lins
troupe
primitive
##VE
diffusé
##boat
1368
Chun
queue
##umba
Magnolia
dessinée
Willi
organisée
placé
##idu
perception
protéger
##eig
Aleksandar
Kap
##sele
MX
##saurus
Brahms
DP
garage
rex
regroupe
Wielki
1170
Hana
Mono
##backs
rues
Ove
venti
##rend
##arium
Charlton
slogan
##dock
##pod
##villa
Ritchie
##listi
##fang
chiffres
##quées
Trofeo
vall
Ata
##assen
Cam
##udou
NG
Lynx
Dorset
Rochelle
3e
##quito
##reg
ESA
Stat
Rabbit
définitivement
##itori
Levine
portions
Morten
##chino
##sell
Conti
strict
Lay
##beat
##iru
basée
XL
##stellation
##frica
progressivement
Hervé
reconnu
##hler
##eber
M2
traits
Ponta
##itari
proposition
##EL
##stos
##cons
##raba
Crossing
Kris
Juliana
Clear
Opposition
##djan
Boogie
##nilla
1461
participat
Flor
copyright
Marcin
intégral
1328
Danger
Kark
hectare
grain
Albuquerque
Králové
Casanova
Kafka
arch
Flags
##ffre
##25
Aujourd
Gall
##ocha
##nanie
##enic
##PG
Meta
Sandro
Mask
##stream
uni
##NS
##gion
##ntou
##bato
##corn
##gala
scénariste
##cay
Mint
##terna
Principe
##cae
1507
sierra
Beckett
Farrell
cori
##erg
##sissa
Megan
##atic
##ttage
fant
##ours
##kata
PCI
Amer
4e
civils
Caldwell
1389
OR
tenu
##iot
HTTP
chat
VA
marin
##now
Pallas
Valerie
Gundam
Peu
colline
##uille
cordes
Fool
Knowles
##brar
##cient
##olie
interprète
sportif
##ologique
##gination
sujets
JB
Panthers
##holl
suivre
##unes
##juana
Pará
##wag
Almería
environs
Fokker
publiques
##nard
##eun
Irvine
##giques
##odon
##rgo
Og
Gilberto
Creed
Besançon
Flint
##pres
##vela
Alcalá
tensions
##lip
Dolly
##lord
Mirza
propi
Fonte
échec
Charentes
Jacksonville
Ames
ferry
consommation
Malone
Teruel
intra
dich
tuto
écrire
##33
chapitre
3G
Drop
poteri
##wai
##peri
coups
féminine
Ga
##hore
##vsky
interprétation
Nikita
Nabi
##rins
Jude
lig
Glas
EL
##érica
principes
##fère
Tamara
##chappen
##odia
Nakamura
##borne
##ütt
##pfer
##ôs
Vide
##lul
Joker
Augustine
inverse
##UN
pra
Temps
ah
##boa
Turquie
Sources
Soler
Valentina
##nture
protocol
Gaspar
Colt
##caceae
##ernal
##85
##imen
##four
Burgess
Zack
Bend
##sita
##tton
##rior
##odio
dense
TM
Belles
terrible
tenant
##rail
RSS
prises
##conde
##bod
Wer
GS
allant
1477
Bataillon
Curt
issus
##she
##lgo
planète
Aguirre
##nière
##sili
Handball
donnant
##tail
##ods
poll
##lott
##nante
Falco
Yong
##anski
armé
##wil
Descartes
Oda
##oed
Landau
immédiatement
Reine
lesquelles
étoile
##chers
Demon
Canto
Bataille
##oman
agenda
Gertrude
1467
##pala
##riba
##chef
##rase
##lpa
Richelieu
parallèle
align
##čice
verre
##VO
verte
Boiss
Louisa
bons
voitures
matrimoni
Orton
##plus
##lante
Cesar
menu
##yote
boulevard
##hter
BT
sixième
Bissau
##pern
##zai
##mmat
Sylvester
libr
sitcom
correspondent
##dion
Hoover
audiences
événement
##trica
Beni
Juno
NJ
##pik
##teni
tér
##tev
##plicit
fonctionnement
Isso
Ker
PIB
Yann
radial
Sena
touchdowns
Buckingham
##wet
divine
##kku
Fang
Villers
Hradec
##nstein
Coco
forti
hybrid
Afro
##ndres
##loss
Mitch
relais
Benton
sentiment
##ugi
Cargo
##bela
##veau
##saka
Commune
professionnels
##iati
Apart
##stati
##zee
exemples
Tie
Connection
##lba
##lb
Camillo
pension
Lone
Pardo
##sah
##tym
verbal
Jusqu
difficultés
princesse
##ulate
recta
vint
##estan
secondaire
tableaux
mori
##ième
prévu
doma
##ssar
Ashton
maxim
##deutsche
##anen
montagna
##raux
mentions
##rnis
Gao
dimanche
##yum
Shake
Aerospace
domi
mono
##āna
1392
##gène
Dach
MAC
constituée
Message
SO
Limoges
RE
##ému
Ramsey
protagonist
##jov
1190
##nister
##terie
barra
donnée
armate
oval
parade
Marley
Yukon
fatal
Jericho
conférence
hameau
Carnival
Karim
reprendre
Hause
dj
##áng
##achen
Af
Ambrose
ennemi
fédéral
Pob
décidé
##rack
##ggs
Arad
PG
RB
LR
Rad
##ütz
##vue
##last
vitamin
Olomouc
Otis
Dôme
##alin
Femme
Fairy
##pagne
##nance
ry
Booker
Qu
Ak
##beek
Bruins
Constant
##tins
origina
##û
Demi
RN
diplôme
Arcade
Doe
Floor
stabil
PL
Sanremo
##istra
Anastasia
finances
Leibniz
Nelly
##rub
##éri
Ryder
pla
ura
pensée
cycliste
Hiroshi
1346
Meilleure
Affaires
Buena
enceinte
##kak
##oides
Meier
civili
Semi
##ctica
insectes
Andres
poèmes
salles
##bc
##hoek
Loi
##ection
##dactylus
##rko
Bayreuth
précédente
##bour
Lehmann
Avon
pau
##sista
Huntington
ultra
Fernandez
compensation
réseaux
##aud
##hibition
##ås
aventure
Més
##nick
AH
##passe
##bond
##oyer
Flow
Côtes
Arco
1425
##rpen
##IE
chacune
Allier
Ime
Namur
Bloody
humains
Siegel
modification
##plications
Dove
trafic
Egon
quantité
##lesi
Agatha
visibles
Ille
utilisées
coin
##ints
Rifle
mathématiques
##pression
##ïnes
Steen
militante
1402
##hom
Monuments
##22
Boone
biais
Guangzhou
néerlandais
##sart
##vient
Apocalypse
Susanna
Rhys
sociaux
drag
tire
##fr
##hina
##ahe
Huy
##arri
Peer
tchèque
multiples
Schmitt
##issant
auquel
sid
dissolution
##blo
Études
1455
courte
Esa
mette
##kwondo
##êt
Quintana
1310
##allo
partisans
établit
##tella
Lens
archevêque
1349
##rder
positif
manufacture
1468
conversation
Fonds
fonda
consensus
vendre
Oude
barri
1282
Honoré
Tomb
##pire
possibles
Liban
normes
##rices
annoncé
1481
##ficie
Maire
RF
Rohan
Organ
##tira
Maj
éta
erre
3°
Ajo
Andra
TS
perte
généraux
taxi
comprenant
##gana
A8
Corey
lent
masses
##kow
inscriptions
##TI
##hie
##ticus
angles
Melville
##mori
##quire
##oven
interval
Hanson
Rep
##ads
latine
Christiane
##dson
Mitt
##qe
##lendi
trap
montagnes
##tial
1185
Cheshire
##aise
naît
anima
##prise
##note
Stream
silence
Moll
##xit
##cking
Gonzalez
cinquanta
porté
##azzo
##cim
contribute
Fel
##quence
##mig
##orp
Rote
réaction
Caspar
liber
endet
thèse
Dre
pêche
conservé
##hwin
roca
Cunha
alphabet
destiné
##äl
##leva
##achi
##riche
##maire
Niño
##lace
Sagan
Sioux
Landing
##llum
Moran
Seni
##jà
Conservatoire
##UM
##xte
européennes
Pacheco
Fry
traje
##vola
rôles
##éna
Roads
vulgaris
##zoo
##ñez
Phan
respecte
Gregg
Hillary
Lina
Cochrane
##brun
Gwen
Bila
##gom
troubles
##guan
opinions
##rrow
##caria
batteries
correspondant
Auge
##bán
##ael
kit
Vene
##yin
Delft
Hardcore
##lts
Clash
Sheldon
Cavendish
##smes
diffuse
Astana
Orchestre
Ringo
app
##lux
##udia
gai
##gique
Hewitt
##IB
Pode
mondiali
autobus
propriétés
##ntures
##ows
##rber
extrême
tante
45°
Ng
Courtney
Zelda
Heide
##ivet
Intro
MAN
Peck
européens
##urai
lion
WrestleMania
##tedt
Question
pleine
##effer
##égi
corporation
##fique
CN
explore
##éen
##anique
##ndal
##pro
portée
Rufus
##ertoire
voyageurs
absent
##kja
##sua
##icap
Symbol
phénomène
Turing
##semble
##ddle
##heur
Lau
Norvège
sona
Camus
Came
Boa
Ramsay
##lici
CSKA
Escobar
distant
##echa
Application
tractat
contour
##ogs
##egan
##chat
Briggs
saha
Martial
Midway
Sb
##adan
descendant
lave
instant
##tez
tau
Celtics
##vées
gabe
réponse
communautés
1476
##phyllum
##racia
Rumble
1479
Tunisie
##nyme
##orax
Magnum
##nuo
##PR
entro
Messe
Sabrina
enregistré
##itaires
1472
##hah
Mansfield
Thatcher
algorithm
##psi
Swansea
FX
hautes
MF
incidents
tenue
##jano
##rette
##leh
Barros
##ussen
Anvers
##love
##foot
##lées
##ash
##vart
shu
##trine
##ucha
Devi
artis
révèle
##IR
Girard
##pado
Champ
##pou
##mmy
Nirvana
Blois
TB
##rmo
Dušan
Udine
Eastwood
Dimitri
Hubbard
Ora
symbole
##zco
##anka
##élie
##ough
##nast
numérique
osi
##vitas
##dox
##quen
aur
intensive
donat
##ignent
##oster
##figur
##rv
Liv
Sigurd
##stock
Troyes
Mondiale
Kita
1444
Dry
##matu
##zca
Ano
Lugano
##latan
hasa
Vall
rookie
Wim
##ntie
Petter
Saab
##olio
App
##imes
##say
##lander
Ehren
##rae
##vori
bore
Hayden
militants
##bari
Terme
Bring
Statue
##öv
promise
##rott
CSS
Marke
##llan
trouvé
M3
conté
##roix
##verte
##osse
1160
comprendre
distances
Virginie
Vendée
##mula
1496
##icher
autrefois
##hera
Target
conçu
pago
##isie
Fork
Habita
##ceau
##égal
Assassin
##vr
ED
CG
entrer
goud
841
Cream
##aque
Mortimer
ère
enregistrement
##rens
##fig
##nial
Ik
##oš
Asti
Inge
##bern
amateurs
zoo
##23
##ématique
perse
##91
confidence
##koro
Rudi
nit
GA
Schmid
##vator
##raire
Mord
##unter
Nagasaki
trombone
Vilaine
##ntos
1474
Kawasaki
902
gala
##oral
##volo
Violet
Northumberland
##nelli
Banca
jusque
Pin
##65
raconte
##mière
##amas
Laser
##ogh
Edouard
Valentino
##chmann
Soo
Parco
musiciens
Kick
##ūt
MH
Watkins
##ratos
##GP
Rowland
gel
Roumanie
bicolor
Inf
##aret
##oran
Ardèche
Cours
##llé
indo
Neckar
occidentales
4°
Badajoz
Davenport
sensible
Sharks
Isis
##lbe
Lua
ET
reproduction
occitan
##valent
##pensa
Skinner
trône
pensa
réel
##deira
##valier
##udis
##stici
MT
Reds
libération
##trition
Mehr
Stanton
Saw
Hilaire
directions
##hani
Tribe
clocher
Willow
##fiti
folklore
rein
Maldonado
VR
Nouvelles
tuer
1405
aventures
Dynastie
##rec
##çons
Dayton
méthodes
swing
noter
vaisseau
1347
##égét
1325
Transfer
##tide
Wolves
Manuela
Outre
postes
édité
##ibes
Connie
Borgo
Bow
##mondo
émissions
1210
##ulations
Abrams
qualitat
##zov
1A
Nada
##peler
Bf
##veda
travaillé
##caster
##hla
Basque
Morte
Nagoya
##nita
Bartolomé
##FM
Renaud
Hr
Middlesex
relay
##action
1377
Giancarlo
Valence
Librairie
##lias
##lito
possessions
##éni
##landes
Pel
Mazda
##etz
##cris
contacts
communis
##bourne
externe
##disi
90°
Mater
Hispan
Savoy
CL
Cercle
##nene
Welch
##herr
##nock
Sasha
observatoire
Labem
##rets
industriel
exécution
##valli
##eia
streaming
##dma
##rdan
##pion
##urée
Pasquale
trouvait
##kuma
légèrement
Duff
##hmi
##SM
##ût
Siam
##fried
Mil
seize
magister
Hilda
##cora
noti
tournage
1386
##gris
##watch
hale
Tigre
##udd
Barbarossa
##chau
restent
Galway
MI
sieu
##üll
monumentale
##velle
##érable
assemblée
mairie
##kwa
ubi
##veu
complètement
gameplay
Colo
Chartres
Rijk
##lue
##zzle
Katowice
finn
religieuses
##cao
##ocke
##rdy
##rmin
Ira
##bay
##yers
Jérusalem
##cua
##motive
diffusa
Banque
Artois
Radu
Langue
corpus
##claves
suri
Lui
##ural
##odan
##oul
2022
laisser
##rove
1404
VG
##ngt
Berkshire
Cristian
##uks
Greta
passages
##nkirchen
Rollins
##dits
##sium
visi
Suez
Taxi
auraient
##isma
Sèvres
1285
installé
##estes
##brio
situés
Luck
Vanuatu
Miloš
##tuelle
intelligent
jin
Théodore
Kobe
indice
##zali
Innocent
##loh
##erbe
ML
cite
Superstar
jail
variété
provenant
##mando
##âne
##õ
Adige
Montfort
gu
##pato
Mille
Print
Havilland
pierres
Nicky
Vis
Presses
##bá
Seul
##oles
##tuit
##oze
rama
##pei
MMA
sels
##orne
##pero
Ernie
##dels
infant
Sylvain
##jee
électronique
lancer
secrets
##omu
enseigne
1452
##cultural
##bali
##pens
Cass
Lock
1378
##nsky
solen
##arm
Désa
##seur
##valiers
volumi
pseudo
##thique
JC
tropicales
motifs
##siste
nai
##reep
##édia
VfB
Tiffany
##üller
WRC
1431
Isles
##hog
##lios
Tada
##ferma
xx
##dicate
##pana
Atkinson
Arnhem
##nommen
Zélande
Macbeth
##cti
confluence
menace
Ober
Benoit
Arbor
1465
##taka
Cassidy
Darius
Hegel
provision
Hague
Hirsch
Perón
##seh
Bunny
Lenny
Sari
mall
Acer
haren
installer
1291
##coma
rep
Slave
##erald
##landais
terrorist
##pea
div
Ghar
Kata
dragon
##ESS
##ssy
Ricci
##ctos
Portable
Bluff
##rurgie
Baza
Quinta
Dhabi
Motorsport
##hib
Márquez
Carrier
##aps
Né
incendie
Raul
##phère
stali
Lahore
Magno
portent
##onym
1399
##hine
##kuk
##onna
Clock
##ugar
Catch
Illa
Wally
maréchal
Maître
##song
Jimi
##xin
##ews
Amnesty
Bed
1397
##rony
##hier
Katz
Shock
##eș
##onin
##sfeld
2030
##tw
Dumont
Leopard
interdit
unions
fos
1295
acum
##lette
##rue
##bent
##35
Dimension
Lancia
Watanabe
##rmi
##ûs
##tich
Navarre
exil
Boga
##lez
##manie
Helm
pratiques
##45
##rks
doctoral
##ikh
Inst
Huis
représenté
Durand
nazis
Zimmermann
Ass
vile
coli
##beau
Lasse
1464
Volker
##gid
Ezra
Guangdong
tango
Tun
médio
##isent
vendu
Maha
anniversaire
contemporain
##endi
##ences
déclaré
##lende
Kristin
##uction
##ijs
Cinq
Finlande
Vivian
##hwa
##tement
1421
Milo
pense
##duk
Traité
Donnell
1463
Hicks
##spect
1305
##raat
##ntet
remis
1466
##NT
##romo
Erin
vitro
classée
##sterio
cure
VfL
Rembrandt
Carbon
##HP
##roen
##ctura
1375
nucléaire
e4
##gist
autonomie
##tence
Flotte
##iologie
Verne
Less
##ohn
##ocence
Barrow
Sve
##stres
bob
##lide
Sapporo
Patty
##miques
UMP
##pm
##vente
Meg
Dewey
tourne
##omir
conséquence
##ML
Anglais
Monty
entrepreneur
##itra
##etin
##gall
##peli
Contact
Rimini
Tyson
##51
Keynes
Kirsten
th
##áp
imam
##ips
moteurs
Ay
aménagement
##cium
PV
basal
##kha
##varo
##glo
Margot
bronz
épreuves
Cadillac
invitation
##deu
##pide
Loiret
Pleasant
Walters
Burlington
Sai
USAF
Baroque
Reza
Jared
##zę
WBC
##iron
Held
1422
Danilo
Joanne
Zoe
##ensive
##000
1327
Fukuoka
##sides
Hess
##OD
Hui
##28
Mayenne
poursuite
talents
Chip
venant
##fet
1225
Élisabeth
##riers
desservie
##may
VC
##asse
Theresa
raids
Def
Concept
congrès
##clisme
##01
PAN
1458
Automobile
promu
Pax
atti
##hien
Méditerranée
##pani
Dock
Yamamoto
coureur
Akbar
essence
##NK
Mimi
Elephant
Dubois
##polski
observa
##lmer
Packard
Toma
guides
1382
finalist
Guggenheim
##gitt
##ecta
condamné
##nson
1308
1215
Tone
belli
Cosmos
##bbit
##êne
##inea
Rory
##éru
##clu
##cript
corrida
Foley
basilica
Stanislav
habita
satellites
Fourier
observe
Armin
orientales
Blau
##34
sensor
Ústí
##chuk
##mua
McDonnell
ça
peintures
arcs
ster
1275
indépendant
intermédiaire
Guillem
##citation
##réat
violon
Smash
Northwestern
Fausto
##LM
##lione
Gull
Hamid
nationaux
##utar
Flame
Nestor
##berto
labels
succède
Grâce
##esu
1307
Transvaal
##faut
profondeur
conduite
##bid
##raja
##brique
attaques
tomb
##38
cognitive
Tek
##pac
1462
##yron
##eem
Danube
##mí
Mod
septième
essentiel
aérienne
SOS
pendent
sini
musulmanes
##82
couronne
iPod
##ader
##lasse
Middleton
Heine
##hibe
Colonna
Highlands
Pal
Wight
##hyl
domination
drog
Bron
Espanyol
Ima
init
Weir
##jay
Doll
##kull
##stern
facilement
Hair
mica
œil
Debbie
Jeune
##tola
##ession
##rmann
Eaton
Micro
compagno
Seuil
##stop
##ulin
Kensington
Lobo
##äki
1279
##vére
Kitchen
besoins
##ngue
1356
##ndro
Eski
Cycle
Slayer
1439
##quele
contenu
##blant
pack
1445
Alzheimer
##mortal
Leonhard
turbine
aras
##loma
##agawa
militant
Ayn
tubes
##brug
Bab
vaga
cherche
N°
##viu
##pah
##inat
Inca
##jō
##tense
afro
renta
##mord
comportement
##éraux
Brass
quotidien
progression
Yvelines
Dane
Kraus
Domain
##pito
##kian
églises
Dona
Aby
##cière
##crat
Vasa
##aker
désigné
Puccini
##quio
limitée
##ffet
##BB
Barr
Bucarest
##loc
##hav
Pit
Amar
cane
gal
métro
##orial
##ylus
##smin
Fruit
accompagné
observer
##mora
##dula
inférieur
##neaux
##ckman
inscrits
Lecce
fina
##quo
##obil
##MI
Northampton
##sume
##zá
ASCII
Loup
##bec
Leonor
fief
néo
##doro
Wheel
Occitanie
Strip
##ghton
##cisive
Manu
##iration
##eul
couverture
doctrina
##inale
orthodoxe
Monique
Myth
lock
Marais
##tudes
1333
Allende
##bett
##relle
Telecom
##fino
Ruben
papal
##hologie
inclus
présentent
mettant
##lef
présidentielle
##liers
concerti
Cobb
remonte
personnalités
##énie
##zhi
##inder
##liu
Gornji
##garde
##stiti
##lob
aviat
##leigh
##zama
Rond
heb
subdivision
##jame
Himmler
transcription
##chall
##sona
Natasha
Roubaix
Néanmoins
Safari
##risti
Lands
breton
##lats
dirigée
marques
ambassadeur
Psychologie
Selva
Belmont
##MP
Partie
rota
##dley
##mmel
tendance
##some
##uridae
Hérault
Ist
JavaScript
dépend
Flat
TR
définition
##rigo
gospel
##éter
Switch
##büttel
##cist
Boer
Aa
Towers
##idge
rit
Kaufman
##copa
Feng
##hli
Colbert
Ami
Occident
Polk
D8
rouges
##atia
##yramid
Maxi
immense
convent
Sundance
##wim
Bolzano
noblesse
##ension
##lifi
Tyne
##vire
##yras
serra
JG
Bug
SED
1429
Ostrava
preuve
1258
Mee
Parkinson
Rommel
MacArthur
##sday
Dharma
##riés
Dogg
rapports
##rger
Laden
construct
polonaise
##active
EX
##ević
##reck
##ssis
Adel
départemental
Fulton
mécanique
tourisme
Batavia
PE
cellules
##game
Carolyn
A7
Buster
Styles
##tuti
1484
Pacifique
jord
1486
Slater
ETA
blessé
##trici
##tyn
dig
vocale
##hisky
1248
wore
##aic
CJ
COM
autoroute
bateau
salut
Smoke
Harcourt
seigneurie
Mean
matériaux
##atin
##nett
1456
Bande
Wire
##firmation
collect
##kovic
##ntz
##lami
##awn
Bourne
Moe
Belfort
##mmi
##roth
campagnes
Damian
NH
dieu
##èze
Cube
##ntale
##nire
populaires
##kod
##Leod
Select
pull
##rète
Sudamericana
##mentali
Rosas
##tami
Oasis
##rcy
##tō
##roit
##É
mauvais
##gnano
Gwynedd
##zers
précise
Huesca
2x
RR
##arma
coût
##HT
##moor
Noire
entretien
shirt
Bosnie
Hopper
sacrifice
Perrin
masculin
##dberg
alien
brutal
interchange
Nagano
##hita
Francisca
NL
Stokes
vacant
dot
Catalan
##fitte
##ssie
Shelby
##tomie
Solutions
russes
##jong
##udra
Petru
chrétienne
##iable
Maia
Bullet
##nomi
##mises
marié
Olive
Barlow
Sforza
##psa
##cey
parlementaire
##vét
distante
1312
##tomi
TF1
Zach
Nazis
Casimir
océano
Maker
##bran
particulière
Astra
##dique
Scouts
##eson
Domino
grecque
nécessaires
##31
##hauer
Apr
Ferrand
##sere
Comtat
##birds
Marques
1388
Polydor
Kriegsmarine
##tert
ae
tena
##pies
A5
##ibles
##uwe
1387
Zombie
Horton
##zuka
Jae
Yoga
gardien
##patrick
Clarkson
Gros
Hemingway
##fortable
graph
##oris
Patti
##urrection
##mele
Lillehammer
naturali
reliant
ombre
##leni
##sling
Lag
régulière
rurales
Concord
##jir
ministres
extraction
##siv
Int
AZ
sad
##posée
1451
chama
##dani
##hto
##êché
Alp
Sparks
##dow
Reprise
Stettin
informatique
##ogiques
deviendra
##source
Cain
Masse
spécifique
##lohe
Wiltshire
apparaissent
flexible
garantir
##rous
Tax
##gama
##voy
carros
Bono
Geneviève
deviennent
plaine
##hiko
âme
Reinhardt
Étoile
##rits
acu
##itte
passat
##date
1395
Constantino
Gara
Lise
Duchess
filiale
Sava
peau
torture
1434
moll
##onné
acquis
1437
spéciale
##qiy
Amore
1342
récemment
Ní
Triangle
1177
1418
pastoral
équipage
écran
##46
thermal
##èque
1409
##timi
##vile
matrice
relatif
##sain
##́
Superliga
sapiens
##phase
Diablo
Shaun
##lco
math
##nok
##telli
##nissa
##gma
##mose
Kendall
pipe
1261
saints
##rans
##rington
##fair
Hartley
intervenir
visu
##luan
Défense
valet
remplacer
##CO
##rateur
##bini
basi
Nîmes
initiatives
Léopold
1491
Polis
arabo
HF
Karachi
##zew
ARN
viral
Daly
plaques
Pac
présenter
Virgil
Tip
1413
partai
poissons
Martine
pistes
sap
##UB
##hode
Kis
disparition
Moi
fera
1457
Petro
##okan
canadienne
1406
adresse
intel
1473
Fiona
Kati
transfert
Buzz
##anc
Anque
##quente
1040
Ding
Kuhn
faux
##kate
##vona
Fulda
##hofen
Coal
exerce
américaines
##gies
Bil
kart
1412
secondaires
##zoni
mixte
##lové
##FF
Sion
sot
##usto
Mikko
##ckett
##rpa
Jagger
Raleigh
##ntette
1234
WP
Savannah
##paré
Castella
Jacopo
1427
##org
##llino
##érico
laps
battu
##tations
##osphate
##phie
Cel
aîné
##uada
marbre
McGill
juive
occupé
##LL
##sd
organist
Deer
carbone
##irt
Blas
##taires
##udan
##zuma
OTAN
ligue
Clifton
##grade
##erz
##group
Canale
##ntra
mature
##rsk
Dodgers
Dachau
##saw
Reichstag
1216
Ettore
historiens
planter
Jobs
##lanta
Instagram
##tropical
Directeur
##AX
1332
finali
##ędzy
liés
##break
Addis
Gardiner
Mem
##liya
réduit
##cche
départementale
Stick
monarchie
océan
##WS
##58
Hamas
envoie
muros
TP
##sumi
DH
Yates
##ptus
Ut
supervision
##INE
Canis
##hya
##anger
Niagara
Wolverine
Bomber
FL
ash
##łk
Mendelssohn
##UI
##uj
FS
Salmon
Pla
Wilderness
Mongol
##nev
Gillespie
##lasti
##tador
1419
##werf
Twist
chien
1438
1487
extrémité
brach
##gton
sketch
##fora
##ssée
registre
##SD
Arras
1433
revenir
scandal
1274
Browns
##strom
incorpora
##chua
posse
démocrate
Rae
1314
1432
Instruments
Woodstock
successi
culturelle
turc
représentent
Riot
1424
##coa
sail
##stina
Dix
Offenbach
restante
kl
##agh
##veur
1394
liens
continentale
##wis
##plosive
##vle
Irma
Elise
visant
##venti
##ricu
##pulse
##voie
employé
abre
Wit
1428
attaché
Figure
Russ
1212
1364
Morbihan
##franco
##tén
Vélez
subir
Cornelia
Bouchet
Gunn
##GO
##leo
entendre
##uds
Tanner
Samba
vérité
##lyse
patriarca
##oros
Bertha
##zaba
Lilly
Nowe
fitness
##ups
1345
5e
Doha
Denny
Hurt
##thon
##férence
Kamil
##nges
##essen
##lank
Acid
##rgi
##uchy
Bundestag
solide
##dij
##zade
##uder
devine
Missa
1459
##bard
Carole
Fam
Welles
gagner
##isar
##ranie
natur
##naie
##oit
étudier
##monte
##ïs
Chemnitz
Lahti
1448
Djibouti
##cope
##stola
1326
##rdini
inclusion
##sg
vien
##sorte
Yer
corda
Blok
vestiges
Loop
prose
admission
agence
analyses
laissant
1396
Yuki
##éd
##kirch
Questions
spécial
##rème
manifestations
##neg
##oidea
grotte
Woo
##dub
Wittgenstein
consent
1296
similaire
Aust
##PC
mic
##lok
alternatif
apartheid
##zir
dames
##là
loyal
Glee
espaces
quoi
seigneurs
Giordano
##amma
Seas
##veta
faction
##urst
Prost
##ukt
minus
##RD
##fast
Chatham
Curry
ajoute
1436
comprise
##onate
##missar
Panda
##icien
Sénat
##gach
côn
##fond
##horst
##stère
##grat
##liques
##áez
##biidae
##hole
##zmann
Stig
Ok
##ribution
1227
Angelina
##roma
##ovac
chances
1198
##feste
offen
1398
Goran
##iance
acide
##véd
Grau
tos
Gert
Fürsten
fortifications
##nue
##ulse
Quo
Fulham
Lew
pilotes
##fect
1095
##cama
Hofmann
Rogue
##ivent
##oog
Certaines
GPL
Nuremberg
textile
##ouer
Bury
dirigeants
terrains
Lombard
##mobil
Fay
##rew
Grégoire
UICN
Georgi
Thorpe
hypothèse
peuples
##bic
##dorff
UNIX
Valverde
fail
##lange
classiques
null
##LC
##centes
ECW
##uris
##diso
Seo
Gaon
hostile
Psycho
##isit
LE
divina
Citation
Nag
moderni
Dominik
##ssig
1304
##walk
##risto
Nara
Elia
##efe
Guo
scope
##tét
fédérale
Spurs
3DS
Destruction
abside
##ddo
##uent
Raffaele
##dira
##tenus
##eyer
##llin
Paraíba
##lime
##meri
##69
##wave
Fars
Bai
Indy
thèmes
##gné
##abel
Hear
Pasteur
##nabis
liée
##nery
Chrome
##diq
##ndr
Fact
rois
1316
Hakim
Sato
##êche
Ares
##lési
Räikkönen
Cult
élevée
KA
##uels
Shen
USC
Antwerp
1489
Lulu
certification
Rosberg
BM
##arus
cand
Falun
Maureen
mutual
##eberg
##aver
##uari
Saddam
##llant
##frontation
1454
puisse
1070
Kat
##gain
##sok
Suppl
ailes
spiral
##mail
##raut
1219
verticale
Eco
longe
1254
pourquoi
1355
##api
médica
Dok
révolutionnaire
##ovie
Pick
Riva
##belle
Thin
Nes
Wigan
Him
UD
##cret
##ficate
##shima
ventes
coopération
##file
##ilitat
##tex
##osaurus
expertise
grosse
##ptation
vivent
répartition
##dures
##aze
Amon
##gatif
Fiorentina
poème
##geni
Tae
##nham
##ramm
Gant
procura
suppression
voyages
Beau
##wki
Qur
fixe
##řice
alpine
milliers
terminé
##urat
Rochefort
##zien
compétitions
##leno
Gallia
Renée
##okie
##SP
Connell
Dash
Magda
##guin
Jag
##ssio
1337
Khalid
présentation
rev
##ngton
Tatra
intérêts
usan
##rvo
##iyo
##mette
ouvriers
Maxime
##oron
Ipswich
consulta
##atique
compter
AIM
Auxerre
donnent
##mier
Acre
##pôts
Jardin
NME
1146
Hyun
##dire
Davy
Rui
zinc
1189
Kurdistan
##phile
##vement
##clin
radios
règle
##unod
1417
##hringen
Katrina
implications
##éint
taxon
##ingu
Mariah
Hen
##mom
1120
trots
HS
Vivo
journaux
Ivanov
##unum
##rosse
Rémy
##ômes
##uvre
Velázquez
##CH
Sergey
Qué
##ettes
traversée
##jud
1408
puits
##lves
##dans
##üe
Dreyfus
salva
##uster
Dixie
Prin
sanat
Adi
##mpen
Forêt
##hrys
##igu
##olc
1242
Tat
##roe
remplacement
lié
##ówka
codi
Broad
NE
majors
##orre
letto
syne
Saba
Vogt
##kine
SU
fila
Bliss
##tifs
##niste
Dessau
tsunami
##kill
Lorca
##nite
Rockets
Iso
Weser
convoy
##veren
kilo
##geant
##nologie
expose
##wir
Mats
Gotham
Moto
##fend
Bos
améliorer
quê
Atlantiques
##rox
##chant
Yankee
##rvé
Kral
justicia
IR
Mustang
1205
Duca
##UD
##galan
##rdin
##pate
jong
manuscrit
##hota
##posés
choisit
construits
##rienne
rom
##kushima
##roc
Crowley
##érieur
##être
davantage
Blast
Ware
destroyer
##combe
##ąg
Lili
##wad
Kammer
GC
Finger
banque
Astro
Broncos
Liza
introduit
excellence
volante
##ponenti
##ourg
##èmes
Hua
Gibb
Urbino
Egypte
ky
##duc
1253
Chiba
collectif
réunion
##oney
##cents
##bire
lots
1235
Hainaut
Leinster
naturelles
ruines
##iako
NR
Avatar
valve
Nest
##âle
avenir
Ulysses
exercer
##onien
##dée
##vrier
##iren
Fell
Hanau
##titi
##crit
1341
##times
intact
##66
##onge
intitulée
Hotspur
##ilina
Fujiwara
##vint
##estro
Garrison
##bye
Châtillon
Finistère
Bold
trauma
1315
côtes
contacte
évoque
Hybrid
##aku
##ielle
##jell
1361
aq
Kemp
##öhm
situées
Wait
responsabilité
##bore
Rare
Toutes
##reuil
##division
viennent
Goldwyn
désigner
##hée
1284
1322
##vann
##grass
1447
Karma
conseillers
##hik
##trem
##umis
1449
Gail
adapté
Lycée
expressions
métropolitaine
##usé
Ragnar
montée
princes
##stide
1140
devrait
##chenko
invité
inspecteur
##ggins
##ckle
##zawa
##bros
1266
Tatiana
1271
masculine
Ivoire
remplace
reptiles
investigations
Flyers
mélange
IA
musicien
##lagi
courage
##cations
citoyens
##ovice
##pila
débit
calcul
##citi
Kamal
Eat
##ristianisme
##arra
##aboration
Caro
thrash
##üre
Ethel
##tela
Schalke
journalism
recevoir
##liet
drapeau
##agna
moines
Sora
uranium
##ussée
Abad
Ile
##dues
##umm
préparation
##gnac
Brie
seraient
##emon
Kami
##fert
##itch
##ovan
##blia
accidents
1335
prenant
Charleroi
TGV
caractéristique
Pay
banca
##unit
1391
Soldat
ruch
##session
malaria
Anderlecht
habitant
champs
couvre
##FS
##ynd
remise
topo
EHF
##éka
Wakefield
gamme
Doria
ASP
lente
Sima
Rosie
german
##cursions
##ptur
Tau
miss
Esch
##xies
Göring
testament
##sale
Avril
Lune
Bystrica
Falk
RAW
iné
ennemis
Mabel
##oum
HB
expositions
Grange
Bundes
##gda
##leb
Enigma
Bassa
##baud
casino
constructions
##chement
chromosome
##mès
##foni
cam
##èges
Marlborough
##viet
Judd
Qi
Grands
magasin
##seri
Sia
##stant
##blu
Asturies
Agnès
Flavio
sainte
pirates
signes
##onor
entraîne
Kelley
##vska
1362
Bugs
##iang
Ballad
scrutin
1265
compagnies
Cid
##SU
Hollande
riches
Eno
engagé
##stia
Month
##phylla
Carnaval
##lvestre
Samo
##enau
##uline
##99
Cathy
M6
changer
utilisent
Guadalcanal
Melvin
appui
personnalité
vaut
##yga
##forts
##walde
##irn
##kner
Cartier
1187
Laba
Angoulême
##cella
Rossa
véhicule
Durban
DSM
Sebastiano
bos
##ients
constantes
Dramatic
traditionnelle
Unesco
menée
Vitoria
frontières
Odin
chrétiens
##aves
1336
Pater
##bson
NES
Artillerie
##bban
Somali
##tinen
réduire
duché
##hry
##métrie
universitaires
égalité
Garros
Guadeloupe
Quattro
Marcia
##urm
##plain
##uvia
couvent
noirs
##bena
morceaux
violation
Polly
Kira
vins
##raid
1099
yao
Vengeance
Spur
caractères
Lamar
risques
##sait
Marge
##irin
##ppan
Articles
##ulas
1125
Indus
##ranti
##rran
destinée
##demment
relie
robots
Lindsey
##hium
##57
##noy
Coro
mild
##jete
##čani
diminution
Anand
ponts
##itsch
Pony
##phia
Maximus
##hig
##îte
1351
Balkans
Blaise
Spor
##sci
1381
##sdale
##cisa
##icie
##normal
##oons
souhaite
##mpet
ARM
Ministère
##limi
Hie
sculpteur
##lca
disputes
##regar
Penguins
coordination
Garry
marge
1135
d5
##cend
##hini
##onsa
Vance
instances
##xta
anciennement
contemporaine
Shark
disponibili
##mètre
Fran
Ceci
##quité
##șa
Lorentz
##200
Daytona
Lux
##vay
Esprit
##hei
triste
Tahiti
défendre
##ronde
##Pa
##oide
fédération
Bourges
effectuer
##ndant
##ofa
##opes
handball
Truck
Austen
Dev
Mayr
Lego
1318
québécois
##gide
jug
Ina
Wessex
géographique
##uilla
midi
##quipe
adversaire
##teau
Nostra
commissaire
versant
##IG
Summers
##ehr
##eker
tapa
##yū
##crive
Lincolnshire
quai
électricité
phare
##bello
Goldstein
##max
marc
##undo
##ellus
Quant
##arius
##mau
1443
Lato
scolaire
maintenir
employés
Yoko
rand
NF
turbo
1214
lancement
##rrir
adres
##ritur
élevage
1302
##gera
Punch
##ffrage
##lko
##éger
poster
Blum
Kors
##alem
Norm
Werder
##EB
Severin
1369
Dy
Junkers
Poll
rêve
##CI
##unga
blessés
Berna
1401
NB
Mouvement
##pont
##lax
Seigneur
Udo
renommée
##rdon
##éa
Tian
##dras
Picard
attendre
##yant
Nuit
Flavius
Yun
Cœur
nar
##èlement
gras
1218
##ètes
ACT
##ilise
Coppola
Limerick
Pred
##gmente
##naro
##gonia
Cai
Valeria
Forget
Trap
##tax
##forcement
LSD
Kar
Aman
##timus
##oine
##sille
fél
Roc
##abo
Haley
Libération
chinoise
1276
##bati
Latine
##riam
##andra
##pue
##zite
##zé
cyn
##ruch
Reus
sodium
##ention
Christchurch
garçon
##lae
##tham
subit
domina
universelle
##RN
##vira
McKay
##nette
##02
Composition
##sic
##furt
##mbat
Yamato
Drummond
##nades
Sander
Wein
Cuvier
##ples
inférieure
Coma
honoris
CX
Motte
Grube
Plans
##itou
Esso
catholiques
##26
Torah
sentiments
##loa
##éographie
ANC
préfet
##sara
##primerie
Valdemar
mèt
intern
##sonne
Henk
importe
Ginger
amie
Trophée
Barre
##uton
chercheurs
filo
##upi
##öss
Deng
Mets
densité
##idat
##wari
huitième
##tip
effectué
archipel
##eš
Bianco
Oued
##pian
##ologue
Sloan
changements
##FL
Orientales
internationaux
Gan
Ani
##GS
rédaction
##afa
Babel
Hilbert
successeur
##TB
##rédit
Motown
Arti
Alley
##27
Stare
##rical
##vive
Distance
Ludovic
##zinger
1403
propriétaires
peur
ovu
confiance
##auri
Frei
##hön
##VI
##ïssa
Romane
##krit
favorables
##istant
##issait
1414
##ailles
##tenu
Steelers
faculté
stratégie
sœurs
TA
catégories
Heidegger
Stari
##quiert
##tisme
##lala
Pescara
Lear
découvrir
##plantation
Pardubice
##42
laissé
souvenir
poule
##onom
homosexual
9°
Faro
##yano
##marca
RAI
hac
##cei
Vaud
ail
##orse
EF
##IV
##opp
extinction
##mines
##emble
##ffel
##trix
pistol
##ains
frais
relève
1441
##uvres
Aveyron
Muir
1238
illustration
Thank
sensu
Fed
1272
##grid
##video
colons
Vecchio
tempore
Whitehead
##nsul
##uvel
Shea
Cristal
mater
##eignant
##ourt
##Net
##cline
##celi
Lor
##flexion
réédition
Gerrit
Syd
soutient
1303
Jar
Jeunesse
Cie
allemandes
1301
activation
e5
Cramer
Dickson
calcium
##person
##egg
Boxer
##ibu
Finalement
##cense
##ckpit
chargée
Hum
sucre
Root
##ulent
##plot
célèbres
Szczecin
##mais
##viar
pasti
séjour
Bridget
Poul
##rimo
##uleur
##ptes
##vete
Panic
##erm
##poly
appareils
Lori
##chés
Wilkes
Firth
##ruit
Rene
centaines
##buda
provoque
Rostov
##soni
Kale
1442
contrairement
##ploy
##reat
##tuel
maladies
Tol
Oilers
##omial
1221
##luence
gravi
injection
détail
##ths
réussi
##dari
Donji
##meu
loco
##ficient
poli
##azo
##ditions
##plom
Nguyen
objectifs
Rosenthal
organi
##äu
Très
marines
Sylvie
##CT
Ves
##sori
convert
SEC
meilleures
visage
obtenus
##jis
##ccus
1294
Athènes
Collier
1423
Anaheim
maxima
##balt
##ceni
chaos
##riot
carnaval
Finch
Stargate
##52
nid
planer
durable
gains
##tint
##onnement
Cameroun
oss
##doni
##mael
##neta
accueillir
mises
Gouvernement
Osbourne
EPA
cadet
sim
##asco
##ampa
##euses
##yri
Karls
1277
##ckey
Marjorie
Bald
M4
Chez
Roach
vents
##issons
notar
Pasadena
marginal
Maccabi
Nymphalidae
alcool
fé
vécu
##valence
##drial
##lotte
Basso
SW
1206
##ellan
##zell
1030
##cines
Duval
rappelle
mural
conservateur
##girl
Done
Maynard
goût
Plastic
présentée
##04
hongrois
fibre
Cyr
##ioi
##äck
##rdes
1323
Lust
Barth
divise
##gru
Bose
dédiée
##tech
contes
##dance
##vité
quarante
précisément
##mell
Bucks
##drat
1352
Kato
##bea
##iede
##vour
Dwa
Aubin
modi
##arie
projection
gross
atlas
C4
modul
Sana
1252
Riemann
Quartier
##tach
Ellington
1393
Palatinat
Ballard
##matique
Abbaye
Encore
##crie
##diat
##ival
##tains
Hippolyte
obligation
Ferran
Nye
##clusion
longues
##ronie
CAS
milita
Banská
##kell
##ianus
##cilla
##itati
PJ
##fim
globe
##plu
6°
donation
Mérite
chiffre
Stereo
Aki
Macédoine
suédois
##naut
##raus
Jacobi
informa
mariée
##lch
##hiu
1226
##rkin
fraud
##rouge
##UC
##žić
##cap
septentrional
Partizan
##dication
##msa
Garda
mafia
##ffi
Harrington
##cota
cycles
1407
##amar
##YS
##ipse
1202
1259
1317
Product
##erry
##CP
##cote
##jie
##ntre
juifs
##MM
Sarkozy
##tantes
##matta
1343
##entia
amitié
##NE
Flammarion
Stratford
produite
##leman
excess
##bant
##cluant
Bent
Thu
Aida
ballot
##anon
##uha
1383
Bal
##pelle
fondu
##ermann
##pach
Fayard
Silk
Zanzibar
Twain
lab
##miste
accuse
outils
Courage
##adel
##lovaquie
financier
organiser
iso
1194
Dominion
Katharine
Hachette
espoir
paysage
prou
##mét
1154
Cor
##isance
Ravi
##PO
basque
Derrick
##rota
Umm
consacrée
Neuchâtel
conférences
1313
##llio
corn
##ibil
##mpas
##iée
##zera
Asahi
cort
Shri
##pten
Peng
##lc
humaines
Mani
Loki
belles
1207
Francois
Rams
crossover
tués
1217
Dov
##érou
Cantal
ensembles
Mead
bro
Thom
tracé
WBA
devenant
##NR
Cary
##gage
Siri
Seis
##mero
timbre
Eisenach
##ffs
originali
##vab
appartenait
##quest
suites
exceptions
coupé
Ask
passagers
Rayon
Loud
1229
Fuck
##due
Oko
ions
##cié
##érien
R2
##sher
Creu
traditionnel
##crire
##rval
Lennox
psychologie
Elo
libéral
Liberec
Babe
sortant
##dyn
##idit
tung
##cées
Pos
Safe
##âche
7°
##plir
coordinate
Argo
##heart
##rson
voye
##mbol
##rusade
1268
##DM
Lauri
##IH
1060
Jing
##nida
Cop
Dama
solos
équivalent
Janssen
Pirate
##üb
Sculpture
##burgh
Chantal
rupture
vieille
##uing
Osa
##osoma
Horne
conviction
qualifications
1309
Messi
Varsovie
##nisme
1147
Coliseum
##mle
1416
conquête
##otica
Jamal
##ratie
Janne
Perl
Fribourg
##nnu
##mandant
bou
invisible
Zola
##chea
##slow
1331
##rots
transforma
mos
##missa
Mandat
##rissa
Mesnil
##embre
1118
##oint
T1
collision
Bonnet
interprété
##ref
veille
Krim
Cheyenne
##gnen
employer
Martinique
messe
##riven
Wand
Dum
tickets
##ctique
Xiao
baisse
##hoven
Villar
##wein
Volley
abdomen
##agos
##pti
Rallye
humour
##bré
peint
Oscars
routine
Sartre
##tula
##tract
Papp
nace
##ncourt
calendrier
##f6
##nnet
##raphie
##BL
Yon
1264
Alexa
##singer
Sharif
amar
##meliaceae
##ptis
TU
1237
administrativement
vague
Ariane
1306
##tels
##mins
##duit
Occidentale
##ména
##élique
yu
1359
##nheim
név
##fondre
objecte
tige
Italiens
Même
JJ
puts
biz
##huri
Tintin
##NF
##ciation
1209
##mides
##remo
1191
Hava
meri
Jolie
##NV
Cele
PAL
Packers
Harri
Maa
folle
paraît
##chny
##marque
tramway
##eci
Foix
derby
Pam
milieux
##attu
quarts
grecs
histoires
##lative
##mpf
Stal
république
##niche
Suns
##cud
Blow
ira
##ifier
Famille
mota
##aros
Napier
Talmud
absolut
Marconi
##elma
nerve
##ustre
CDC
attribué
1358
Blonde
Sf
##sias
laboratoire
Zeta
pertes
##tii
ramas
incluse
1311
##lgare
##liz
Paige
ancestral
nobili
Epstein
baroque
##kovo
##xell
Grimaldi
##ctat
Orson
prêt
Beauvais
##éro
##htar
##vitch
##DC
##ètres
Wiki
##ttle
Poison
##mington
##éit
##unte
1137
1329
##nion
âgé
Adalbert
##plômé
##upat
##pele
Calder
Dunkerque
##posées
##udence
Commando
Akt
granite
pese
sénateur
araignées
##itable
##vial
1278
Egg
##chien
##fiant
1299
Vanguard
##galom
génie
##aner
coloniale
1324
faune
Dara
Enfant
bientôt
##plication
Dil
##rili
Ligne
Loyola
inspire
Geo
##lando
Tora
##ongo
indépendante
##jda
Jen
mutation
##ènement
Takashi
proposé
magna
##ctum
##iou
##lans
Craven
Agence
manuscrits
sélectionné
##tub
##ulier
Céline
rotor
##EE
secours
##yck
femelles
cinquante
Apollon
Juba
Dad
Piccolo
##rook
Avalon
Bara
Ying
territoriales
##hola
##oxy
##ppes
Onze
##vog
couche
##bori
1384
##TD
##rmon
##rtar
qualifié
duquel
##muth
1054
Parra
##zzano
##EF
##vak
##bric
##lfa
Donato
##ûr
seco
travailleurs
Yahya
##igue
amica
donations
##kies
1288
##itur
dents
qualifier
startu
##hlon
##endra
##medi
NSA
1223
1363
Essonne
##hama
trait
clar
##monie
##taché
Reign
##nfo
homo
pala
##street
Kruger
##sut
##quera
participent
##limen
##tente
Korn
##obi
##hende
1246
soirée
##PM
Meat
Wola
adulte
##arch
##essi
##yth
Mahal
##rillo
##hv
##terra
Suit
Havel
##dw
##cê
commencent
Loeb
Elk
Oliva
Léo
##lavo
compétences
##nalis
##nito
comtes
##parti
sauver
##bamba
Asa
##oline
##river
Limousin
##deg
Dada
##llat
mineur
##réa
Snoop
spectateurs
Chaco
##rapie
##bustion
amoureux
1373
dome
##ardi
Chanel
fenêtres
Prato
commerciali
##hynchus
sacra
Bellini
##prire
mentale
##arz
attract
forteresse
Cham
##ptisé
##mmes
Vladislav
##shino
disques
##maga
Vos
##stair
partition
Nunavut
Îles
chica
Lec
kn
psi
Gauss
Branca
Faye
Fonda
##bero
##onga
##kura
K2
Mostra
##ocie
##duire
##ètre
Certain
Floride
Borgia
##puls
1236
ESP
Kanye
maç
Duna
1256
Lyndon
##nacht
noci
marquée
combine
##raa
terrorism
##bov
Chiara
Idris
meurtre
##dington
Bog
##ecu
Jess
Mancini
##ohr
Essai
assiste
Só
##menade
##tenberg
Pedra
Riviera
##anat
IM
1297
Ping
mettent
##jik
riva
dé
chasseurs
Carmel
Rec
SAP
##versi
avantage
proton
##agon
##omb
##urre
Braves
##hys
Enter
Tulsa
##aurus
##chent
judiciaire
##ioca
Tee
difficulté
entière
Arezzo
##gret
arrêter
optimal
RW
2025
Bonifacio
##kei
toit
patrona
Spot
##centra
concertos
##öp
agir
SAR
Xinjiang
Len
##rude
Alberti
##pret
##tachée
##bue
1411
policier
##éad
Colle
##xion
Ryu
##bours
Sui
Fujian
Orsini
1298
1228
empêcher
##omme
##jr
pani
##BOL
##ernes
Cubs
##barra
profonde
L2
Harz
moindre
##astic
déterminer
morceau
provient
##lens
insula
##vard
##mentale
chimie
sente
focal
##fiés
cartoon
##arder
Mot
##ulle
Roda
1244
##dros
ps
##avier
##noli
##cept
conseils
Capcom
colonnes
##enga
Donetsk
Gervais
liées
Aya
Aqua
substances
##istor
##étiques
Barclay
suspect
##letto
1263
augmenter
grosso
Royals
##sior
##uos
##inent
Cueva
culpa
défenseur
mortal
Technologie
Agora
##cque
##clama
##ucus
##pagna
##xton
réputation
##tuose
blessure
Cousin
CAN
##44
##llu
Miki
Chant
##41
réalisés
##uvert
Feat
##llah
##plies
Huxley
attractions
Če
Bora
Chemin
Ewa
Antilles
reçut
##jou
Aur
Pampa
##zah
##fant
Vas
wagon
##oha
curé
Crist
Murdoch
Salim
compression
puissant
Tanz
exécutif
##hère
##iés
##prême
Ange
erreur
renn
##UR
##êl
mourut
##efficient
##ican
##mli
Zhejiang
Dunlop
##łę
##mpu
lib
Drie
##blin
retrouvé
gothique
plage
##bell
NKVD
Quintus
smart
##ecker
##minent
Kidd
managers
retrait
##joki
##nbar
##ringe
moulin
##ibert
servit
Bombardier
civilisation
##imon
inauguration
##pali
##dési
1446
caudal
Kraj
Emir
Drago
##stag
Ans
figur
##äus
##fford
patente
conventions
fiche
##langer
1344
Copper
##ctiva
corse
Wolverhampton
##ifiant
##trer
1366
Silicon
1152
chante
##celles
calibre
Sten
Berthold
Goebbels
##ass
##ocide
aval
Nasser
modules
1426
Nor
immigrant
Salman
séparation
##aby
Creuse
Oud
##omy
##olas
alb
##YP
##sais
##isso
simulation
spécialisée
##bona
Curtiss
##ciliation
##act
1321
Vai
##inam
saut
Limit
##mert
##byl
##ident
##uzat
##unia
placement
##laq
Eis
##orat
##sole
manifestation
mâle
ph
drainage
Cambrai
métier
##gott
##minence
##prano
##gradation
Habib
##marie
Cory
Cá
neveu
Dustin
Warhol
Gast
Michelin
##ggo
##agg
1er
Copenhague
MJ
Argento
bana
##ulli
Welle
##fos
Gori
Mundi
bowl
conservato
1287
bloque
##épublicain
Mulder
PCR
révolte
##icom
Ester
##belli
##olat
nationalist
inspection
##sorption
##chev
Winters
##zards
urbain
Sentinel
##vah
Brazzaville
Puma
##ueil
Salta
maîtrise
Samara
##imation
Blitz
Luce
##TER
##55
##ulance
Jour
Neuilly
PSA
##cri
##âr
##äng
Associations
concession
Mate
Cahiers
##gnar
##istance
Huston
##viation
lune
##scus
pria
##MC
Berlusconi
##ezer
##zième
transform
Croton
##aborative
étudié
##loch
##suite
Try
##czyński
citation
##noi
##done
##sienne
Monterey
wilaya
##aldi
##nore
##roud
1334
##lanti
1367
offshore
##49
##luca
##ventaire
DO
##putation
Hindenburg
Observatoire
Zi
robe
##AV
##tib
Colour
Omer
Mis
##vro
Hals
##thas
##HD
prononciation
Garnier
##hab
1231
Dol
Voda
Saguenay
##baut
##vout
jouent
poursuivre
prieuré
##GI
##rrea
Victoire
litres
##tena
##mban
##rmes
Sada
##uites
Auditorium
profits
##fédération
##tree
vacante
Pale
concurrence
comporta
Dass
##ularis
Vu
##xer
##jub
VP
supplémentaires
##ogist
##fusa
synagogue
##NC
##lusi
notation
##inite
##jor
##pne
Banja
athlète
Maserati
concepte
Shandong
Fisch
##mphe
##quels
visiteurs
Falcons
##tesse
1292
##vies
Icon
tunnels
##onnée
##elé
Dent
pelle
##zong
##ptor
Fontainebleau
OM
##aff
degré
Contrairement
Merkel
vigueur
Montreux
penser
agn
##firmé
##fine
Saar
##arcie
##gbo
##verdi
universités
##mill
Paterson
philosophe
Dauphiné
diagnostic
financière
##erbach
##dran
1199
Kopp
##zela
Kore
##hance
##97
##onnan
Jovi
Vaux
##urer
##dible
##mmar
1208
Sien
designers
1192
abandonné
S2
consacre
##ebre
Jussi
fréquemment
PSD
Subaru
##UL
remonta
1090
##banks
1020
dizaine
Rowe
def
##acle
masters
Balance
tab
CK
Birch
##organ
##cuma
##ventura
Pound
##truit
Branko
Navigation
Publié
dits
femelle
##communications
Crescent
exclusivement
Kaya
Rapport
escort
##CL
garnison
##riy
##plitude
conserver
Verbandsgemeinde
salsa
Melchior
Plessis
affiche
##ahi
##czyn
calculer
##iquement
##sí
##uise
Kolonia
tech
contrari
inde
maillot
ombra
1255
alliés
##loire
obstacles
archi
##iante
##chute
tona
E2
##brunn
##ranger
motive
##dori
##rō
extrêmement
##enbach
##pola
Shoot
Aron
échapper
##ingo
##ctylus
##hlétisme
##ênes
Orientale
Machines
excessive
##fronta
quit
1379
concurrent
remarquable
collector
hanc
revenu
comparative
largeur
dramaturg
##gold
Dis
##odontidae
Dodd
1319
patrons
Ill
Thorn
##gnement
##orus
##cience
##leu
##uable
voter
Montero
##heme
##pri
astronomi
char
proven
Horta
brigadier
Gand
##biq
Mémoire
##umoto
##érables
Bala
##venu
##íd
##nches
1145
1247
Prescott
Eiffel
Eun
Lande
##uture
##zom
représentations
Nazareth
adultes
##phins
##mend
##cipation
##oration
Bruges
Ermita
##menten
Bolt
1155
connues
obligations
1357
D9
cesse
##ęg
judo
1374
continuat
gradi
tourné
Abi
WB
Disneyland
Eisen
##aday
suivent
CFA
##pido
soutenu
##portant
Rum
Shang
##émique
##tard
1339
carré
revenus
rud
##ulsion
Genet
##beri
Illusion
##osant
##nières
Nagar
Cécile
##pari
Michèle
iu
mun
Carleton
Diplomat
##fum
##volte
Nevers
décident
##roft
blocs
##cussion
Tuo
Vlad
Osiris
##plosion
Slade
##lop
##lsey
##émont
##haw
veste
##eba
##fuge
##rcia
Klan
parlementaires
Monmouth
ateliers
Tv
temp
Cl
Fatal
logiciel
Officier
illustre
restant
Capitaine
Wende
MO
##éc
##zari
##cours
vacances
##titut
##hd
vraiment
##gha
##ssem
##éputé
Confessions
##gais
##apo
réduction
DK
Italo
T2
époux
Brick
##cars
##puis
Wo
##ntyre
consente
##dote
passive
##rdt
maha
##qual
##jevo
Diva
Raphaël
péninsule
1267
##app
##edu
##teg
Variations
##olition
##sot
##enay
Mouth
1239
Nikon
Neri
1283
vapeur
montré
indication
##intes
##acteur
##ppur
##gani
##mui
##bere
ido
##rimi
froid
1157
##ully
Extension
Cost
Hornet
##anisme
##ousse
Fresno
coureurs
##lland
Elf
##iple
##ncée
1354
Boo
attractive
Bulgarie
compta
##contra
Louvain
Kaye
Lotte
##miten
Burr
Imagine
BL
##bens
##chée
paral
##bulo
##dling
répartis
##loni
Lyn
débat
banjo
hep
##gay
Darin
##mione
Lagrange
##ssu
##deus
##irect
Caja
bern
##vois
Leafs
##dèle
##eton
steep
Léonard
pave
exercice
poti
##jić
##onder
##ritz
Nadine
guitariste
tira
Seat
peintres
G1
1273
##euil
Seychelles
##hert
trim
Vivaldi
##wahili
Brun
Castrum
transféré
Abdel
##urion
monia
##asca
Hund
Celsius
XXV
##jib
##sli
juniors
##nonce
Lorsqu
##yot
Stalingrad
pili
pupil
##aur
fouilles
##romos
Freak
##darmerie
##UF
##pente
##wright
##uisen
##liner
##ulte
##tsa
Yen
plantation
##saint
Publius
Mur
maîtres
Chat
1245
Jerez
Nove
##vrir
Biała
Cortina
échanges
##äm
Tyrone
##rmat
régionales
##matica
différent
##rgu
Aden
Faz
sexuelle
Foucault
##penn
Brabham
##ministrateur
Mademoiselle
##agle
##ginal
Ott
##nits
##cute
##iade
##aia
##érées
Berta
##canti
##zhen
##86
Islanders
Poet
TER
##ternal
##pini
antenne
Renzo
clair
semestre
##minente
##pron
##ocent
morali
##éélu
soy
##lake
fréquence
WNBA
##mpre
##ïsme
##smine
##omina
##poche
voisins
##lucose
personnelle
##parée
##geo
##cl
quatorze
Sim
##auf
##hylla
##iples
pouvaient
Niko
1213
Aga
Mau
instar
littéralement
Midwest
jure
figuren
##cteurs
Papilio
##mire
reca
##mitt
conséquences
répondre
##oké
cabin
Cassius
attaquant
Yao
##africa
Sá
##dise
##alang
1257
##roja
fluvial
##pés
Naga
Symphonie
Kei
holotype
1224
##itè
##rations
ventre
cassette
composés
Ava
##tow
##necht
Maka
accusations
Açores
##meuble
Marlon
Sanz
scho
veto
1156
##rax
##hael
##EG
##artement
##onstruction
##éh
##bust
Pizza
##stent
Keaton
Tail
##f3
1096
progrès
##minat
DF
commissions
selles
vocales
##béry
##msky
Hut
montrent
##babil
Krupp
##pist
##yja
Peterborough
##cales
##éritage
fondateurs
longs
Cyber
##venta
##gust
slov
Vert
##once
partout
##grégation
##ufs
remporter
##guen
##ifié
##beth
##rodu
Albatros
##sect
Provinces
autel
##uwa
Miró
Bare
##isy
##éologique
Meteor
Hub
cabe
écrivains
##mpes
##duisent
1138
Hollanda
fuselage
Corrèze
Mond
##geu
##iennes
Charlemagne
dossier
##pasi
fêtes
Butch
Hispano
##ssandra
##aun
conséquent
##aration
##gad
1211
Consortium
##lmen
1289
montant
##sala
Justine
Dupont
Ariège
##xima
##finie
##zid
Damm
##vyn
volley
##esté
abu
étages
Zara
aqui
Provença
##itev
##GL
jungle
##tecte
airs
##roch
Uranus
##DO
oiseau
##nésie
##wani
Sokol
##rantes
Muriel
Simons
clause
Équipe
##unn
0°
Wizards
##rout
##portation
Guinée
##anias
Sino
cruel
possèdent
transaction
déchets
partisan
admis
Résistance
Svetlana
##uya
##zmi
##dotti
Hazel
mutations
##namite
représenter
décor
Hunting
##fing
fertile
##itative
Nitra
olive
Balzac
voisine
Pesaro
DOM
1249
adolescentes
dut
Monts
Niki
neige
##thologie
Sacha
qualifie
portugais
##isfaction
##lope
##festa
BF
Rate
##pelt
##laz
Kubrick
##rzi
Jameson
Turk
continu
##erot
Dalí
##érieure
expériences
Bertram
hormone
L1
dub
semblent
##backer
##dria
##lieu
##öhr
Noi
Comment
Plana
Inoue
vides
1025
Chong
Goku
##boga
accéder
E1
irrigation
malen
1372
Carthage
SAM
##ZA
##erine
##obert
Butte
##amer
Cantor
RK
Tur
##ross
##isor
##hz
Fayette
juridique
Sens
##xiques
Lá
RTS
perspectives
procédé
##mota
radicale
éponyme
##éves
ballad
Vox
##nations
##sante
Merr
##pulation
Ike
patch
##71
extensions
##roca
Guérin
BV
PB
Exil
Regis
sonore
##égration
##uban
Kaspar
Prešov
espoirs
Nièvre
Geoffroy
1075
##rime
inflation
##eveld
Commandant
##reur
1376
##gah
##ésolution
##chow
alimentation
tamo
Edda
Sitt
##gye
harm
UB
##clamation
##ioa
Algarve
Dow
arabes
Derry
applicable
##oer
##blast
elect
##ulose
##gression
clarinet
##lém
##gly
##uloir
##hotep
##leto
archéologique
##chiff
unie
##ustration
##posit
##rj
Nihon
Romains
écart
##odor
adopté
jur
Bavière
demander
mixtape
##grip
Sera
##verses
1110
##anin
tende
Kom
Stab
portail
##cendent
Deuxième
treize
##inck
Witt
##atul
##cali
Rota
Vir
maxi
extrait
##aches
nécessité
Pr
Gosse
camping
##iniu
##hosidae
suffrages
élevait
##plos
soutenir
Frères
Pepsi
##hro
##égre
##ordination
commença
Kohl
rade
valida
##akov
##nbach
Sha
Martel
##émie
##yel
modest
##zag
anal
hain
##usso
dél
lez
processi
Lodi
##just
##ciations
Pembroke
Anas
Syrie
Sheppard
jouant
##shu
Renoir
placer
veuve
##métrique
isolation
##cesse
Cassandra
évoluant
ample
##desse
##lones
##urant
Hera
##ict
vocation
##onet
##saur
Donatello
championne
##zero
Opole
##omba
##andu
##nction
ACC
##NH
accusa
##entaire
banlieue
##omotiv
##vores
adopt
départementales
##otov
##thèse
Actes
Bleu
rythme
télescope
Landmark
##sr
établie
##inkel
##rdement
##çoit
Tha
##loso
##rinus
Mairie
##joy
transparent
##bani
Amman
chantier
cyrillique
souverain
crédité
fac
pond
##hosa
Britt
suivie
##butan
##élio
soins
Patriot
Yaoundé
kinase
littéraires
##voor
Currie
##filiation
##preme
Corso
exige
##atile
##mys
Racine
##usk
##viv
##berley
antar
Pai
étudiant
##ertion
Blacks
##fonds
##risme
##iqué
Takeshi
##bum
##quences
boud
Passo
fraction
Hee
Maigret
##lisme
##hino
Bastia
Boots
Neve
Mitterrand
##igues
Pétersbourg
placée
barre
##ricain
##réation
##īn
Roller
##tago
pesante
##ücke
1184
##tuor
Bao
##heng
##uait
Wilfried
##thur
Sites
##trangère
Nom
solaire
##sef
##unis
1243
confirme
##chera
Clin
##rries
retrouvent
Gera
##vul
##onta
##fah
##êtements
Merle
LM
##yuan
Prat
##cable
##lgi
##quérir
caves
multitud
##gées
##abore
##saison
Reg
Lorient
communautaire
conservan
##cides
##qing
herb
Potomac
Ego
socialistes
##hidi
Astor
bonnes
##forcer
1286
##ugo
##oben
##zeu
Condor
##lì
faste
intégré
Emilie
##itze
1085
##endorf
1251
##pédie
Desse
##gast
##nasse
##suki
Bulldogs
CNRS
##pais
Dialogue
##ssants
1143
Syndrome
##stig
tha
##citu
##yau
##iria
Argos
armor
##hétique
Banu
devaient
##rables
formée
##nellement
VT
rencontrent
Yoshida
maya
##brück
gagné
##acker
héritier
périodes
##ulco
Hedwig
Pela
##hique
##zzini
khan
sketches
##cout
##sno
spécifiques
spectacles
##sano
Troisième
brevet
##glas
réunit
passen
soixante
détruite
BMC
Woolf
Mg
prévoit
##vages
Nauru
##urité
1262
##bih
##èp
##usha
1203
bateaux
1119
entraînement
Lotto
Nickel
##dō
##pá
##euvre
##taw
Spezia
Berne
##onnaissance
##umon
Bingham
##égué
##59
##osé
présentes
##inateur
GL
##liard
Ibiza
##enan
##pelo
##éral
Lesotho
luxe
Dot
répond
avons
pers
définit
##nl
##BU
##HI
##piler
iri
offense
1293
##fens
Granger
Leclerc
Concours
possédait
##cani
rarement
##ïc
cités
Petrov
Lindberg
##jing
déclaration
Bound
Schreiber
Cause
WR
Hus
prestige
##wid
susceptible
Brewer
Lino
Tex
sut
##lley
##cieux
1338
Lamborghini
##pona
##alas
développée
##kajima
##nino
Burroughs
Hatch
inauguré
lait
Pig
Rein
##jovice
##sov
##valle
##ristiani
##trin
##TH
##inum
##ngé
apprentissage
iris
##vance
##zot
##fluent
théologie
Buy
##chov
HM
##byli
Bale
princ
alternatives
Concorde
Khalifa
##évi
Björk
payer
Ros
##haf
logique
merci
Judo
connaissances
##meti
##space
Document
corporations
ninja
##mpt
##ntan
##serte
conca
Wilmington
pseudonyme
##ieme
##chier
##vén
##anden
##nties
Recherche
##lhouse
Cea
sac
explorer
voulait
##ludes
dédié
RL
Townshend
marmo
##œurs
FOR
Lemon
brass
Sociale
hou
Levant
Białystok
chu
Sick
##made
Mana
##chnique
enregistre
mach
##epta
fournir
voient
Ducks
1269
Cherbourg
##bring
intervient
tigre
faites
##ifu
##saient
Sec
embouchure
##çao
##hda
brevi
EV
##idable
montrer
##RF
Ecke
##AG
##adémie
##moin
1175
##idar
##vigne
##bollah
Loew
Schönberg
Faculté
traite
##banda
badminton
lav
Walden
vand
hispano
##mètres
DI
Ceux
##ttin
2050
##mées
équilibre
##énétique
Ravel
##fari
CAD
Sonate
discu
Uri
##national
##mous
##rnet
##édée
Muséum
Tala
Arie
Seed
##hee
Conca
internes
##emlin
##viat
Assad
mourir
##ubi
##viers
relate
##quila
Voix
Vela
Lévy
##ficit
##cell
##jette
Bresse
##lken
Valls
##itée
##nect
charbon
campanile
présidente
##ōnen
bureaux
modeste
##roise
KP
Debussy
Joaquin
Scorsese
Fermi
hivern
IB
tsar
Ode
hol
Woodrow
clé
lança
##pair
##fontein
##masa
Humbert
anges
##ogue
Bernadette
##enham
ambassade
##ègne
##contre
##redi
##rospective
##mali
##47
Zoom
##coles
Mystic
palm
Fink
##brice
##édaillé
états
Manon
##ÿ
##đ
##œ
##ǎ
##ǐ
##ǔ
##ɔ
##ɕ
##ɛ
##ɡ
##ɨ
##ɲ
##ʲ
##ˈ
##ː
##͡
##ḥ
##ṇ
##ṣ
##ṭ
##€
